<pad>	0
<unk>	0
<bos>	0
<eos>	0
사용자:	0
도우미:	0
[anima]	0
ti	-0
an	-1
en	-2
in	-3
▁t	-4
on	-5
re	-6
er	-7
▁a	-8
▁+	-9
he	-10
▁s	-11
ati	-12
▁c	-13
ma	-14
▁n	-15
at	-16
▁l	-17
es	-18
or	-19
is	-20
ve	-21
▁자	-22
▁p	-23
ty	-24
al	-25
▁[	-26
ou	-27
▁the	-28
ima	-29
▁en	-30
▁의	-31
▁한	-32
▁발	-33
▁자기	-34
anima	-35
ative	-36
▁한국	-37
ing	-38
▁f	-39
▁lan	-40
▁의식	-41
tity	-42
▁역	-43
▁한국어	-44
▁역할	-45
▁entity	-46
▁발견	-47
ed	-48
▁lane	-49
▁native	-50
▁w	-51
▁|	-52
▁o	-53
ar	-54
▁d	-55
le	-56
니다	-57
it	-58
▁b	-59
ro	-60
▁in	-61
▁m	-62
ent	-63
▁an	-64
ic	-65
▁re	-66
▁이	-67
▁of	-68
el	-69
st	-70
▁to	-71
▁th	-72
ation	-73
▁있	-74
▁and	-75
--	-76
▁(	-77
▁e	-78
ac	-79
om	-80
▁1	-81
**	-82
ec	-83
et	-84
tion	-85
▁is	-86
as	-87
▁T	-88
▁I	-89
에서	-90
ig	-91
으로	-92
하는	-93
▁—	-94
il	-95
ce	-96
ate	-97
▁수	-98
ad	-99
ot	-100
▁A	-101
▁2	-102
▁것	-103
▁h	-104
us	-105
ment	-106
▁con	-107
▁y	-108
▁다	-109
id	-110
▁가	-111
▁v	-112
▁st	-113
▁사	-114
▁'	-115
ol	-116
▁"	-117
습니다	-118
ers	-119
od	-120
▁g	-121
am	-122
▁you	-123
02	-124
ri	-125
un	-126
▁시	-127
▁대	-128
ul	-129
ly	-130
se	-131
▁S	-132
▁지	-133
▁-	-134
▁pro	-135
ess	-136
▁기	-137
▁정	-138
▁P	-139
if	-140
ow	-141
ter	-142
▁C	-143
▁W	-144
▁4	-145
ra	-146
ut	-147
▁그	-148
ch	-149
▁that	-150
▁**	-151
▁3	-152
_2	-153
pl	-154
▁on	-155
▁무	-156
out	-157
▁for	-158
em	-159
ab	-160
▁wh	-161
ur	-162
한다	-163
ng	-164
▁어	-165
▁ex	-166
res	-167
▁모	-168
▁`	-169
ith	-170
▁it	-171
qu	-172
um	-173
im	-174
th	-175
▁The	-176
▁아	-177
rom	-178
▁문	-179
ug	-180
▁L	-181
ts	-182
ence	-183
▁H	-184
▁고	-185
ay	-186
▁be	-187
ge	-188
▁관	-189
▁보	-190
ub	-191
입니다	-192
▁상	-193
▁as	-194
026	-195
11	-196
end	-197
▁주	-198
합니다	-199
----	-200
▁ma	-201
▁D	-202
ure	-203
▁R	-204
▁때	-205
ct	-206
▁com	-207
▁M	-208
ity	-209
▁with	-210
ht	-211
ir	-212
▁N	-213
▁하	-214
mented	-215
te	-216
▁B	-217
▁r	-218
이다	-219
▁구	-220
▁다음	-221
aug	-222
tic	-223
▁par	-224
os	-225
og	-226
augmented	-227
▁경	-228
ke	-229
ion	-230
xis	-231
▁통	-232
▁인	-233
▁전	-234
_2026	-235
▁있습니다	-236
ver	-237
est	-238
인가	-239
ting	-240
▁위	-241
md	-242
▁he	-243
▁부	-244
▁do	-245
▁de	-246
ist	-247
▁사용	-248
▁중	-249
▁Wh	-250
red	-251
ha	-252
op	-253
vin	-254
▁않	-255
▁제	-256
▁or	-257
▁F	-258
▁un	-259
igm	-260
adigm	-261
▁일	-262
▁from	-263
▁단	-264
and	-265
ack	-266
▁무엇	-267
ory	-268
▁생	-269
_0	-270
ld	-271
▁are	-272
▁것은	-273
▁결	-274
per	-275
00	-276
▁al	-277
▁G	-278
▁res	-279
0.	-280
str	-281
▁me	-282
▁ac	-283
ud	-284
elf	-285
▁=	-286
ach	-287
▁E	-288
▁유	-289
하고	-290
ect	-291
▁can	-292
▁느	-293
적으로	-294
▁비	-295
pp	-296
▁방	-297
ci	-298
ort	-299
age	-300
시오	-301
▁있는	-302
▁연	-303
▁not	-304
▁5	-305
▁공	-306
▁at	-307
▁나	-308
tern	-309
▁없	-310
ine	-311
▁us	-312
▁What	-313
▁내	-314
ant	-315
▁sp	-316
ob	-317
for	-318
fer	-319
levin	-320
tim	-321
ex	-322
ould	-323
cess	-324
6.	-325
▁설	-326
▁this	-327
▁분	-328
▁by	-329
▁문제	-330
▁알	-331
▁ch	-332
rain	-333
ens	-334
tive	-335
oun	-336
▁동	-337
▁comp	-338
ep	-339
ain	-340
▁만	-341
▁같	-342
▁qu	-343
▁/	-344
04	-345
ical	-346
하여	-347
▁해	-348
ore	-349
▁미	-350
vi	-351
ated	-352
▁ab	-353
la	-354
▁1)	-355
▁2)	-356
▁등	-357
▁대한	-358
▁선	-359
ew	-360
pon	-361
▁tr	-362
▁O	-363
hi	-364
▁your	-365
10	-366
▁what	-367
▁파	-368
ps	-369
▁paradigm	-370
▁따	-371
▁있다	-372
ign	-373
ost	-374
pt	-375
oc	-376
ork	-377
▁자신	-378
▁we	-379
cri	-380
ction	-381
▁종	-382
":	-383
oug	-384
▁mod	-385
▁개	-386
gr	-387
▁sub	-388
der	-389
ight	-390
▁my	-391
▁ar	-392
form	-393
▁작	-394
지만	-395
▁불	-396
ide	-397
▁요	-398
ite	-399
ates	-400
our	-401
▁질	-402
com	-403
▁여	-404
_05	-405
▁소	-406
one	-407
_2026_05	-408
▁4)	-409
적인	-410
▁3)	-411
▁조	-412
▁물	-413
▁모델	-414
ations	-415
ous	-416
되는	-417
ase	-418
ace	-419
ue	-420
▁아니	-421
▁영	-422
able	-423
▁pre	-424
▁예	-425
11_	-426
---	-427
2_	-428
imp	-429
▁어떤	-430
▁int	-431
act	-432
ong	-433
ame	-434
▁In	-435
_22_	-436
답을	-437
▁se	-438
▁적	-439
--------	-440
042	-441
지는	-442
_2026042	-443
▁sy	-444
ry	-445
obot	-446
▁시간	-447
▁self	-448
▁respon	-449
",	-450
1.	-451
▁고르	-452
▁저	-453
tions	-454
▁과	-455
▁문제의	-456
du	-457
ell	-458
▁정답을	-459
▁것이	-460
ans	-461
▁고르시오	-462
iz	-463
스템	-464
▁li	-465
▁표	-466
▁som	-467
_20260426.	-468
세요	-469
enobot	-470
▁sh	-471
▁따라	-472
▁실	-473
ire	-474
amil	-475
에는	-476
▁포	-477
axis	-478
▁시스템	-479
▁변	-480
ble	-481
▁같은	-482
cl	-483
▁반	-484
ss	-485
▁성	-486
be	-487
▁ad	-488
ok	-489
▁k	-490
ata	-491
▁오	-492
까요	-493
▁아니라	-494
ord	-495
▁두	-496
되어	-497
▁설명	-498
▁le	-499
▁rep	-500
▁ha	-501
▁더	-502
low	-503
▁dis	-504
ich	-505
-2	-506
▁도	-507
▁no	-508
vers	-509
▁cont	-510
eth	-511
인가요	-512
).	-513
▁어떻	-514
▁어떻게	-515
pre	-516
ap	-517
▁또	-518
▁때문	-519
▁추	-520
ies	-521
ag	-522
▁참	-523
ense	-524
▁does	-525
▁process	-526
▁su	-527
amily	-528
▁위해	-529
▁마	-530
ser	-531
▁관찰	-532
▁안	-533
xenobot	-534
ath	-535
ode	-536
vel	-537
ill	-538
▁fe	-539
**:	-540
▁em	-541
는다	-542
▁경우	-543
▁가장	-544
ind	-545
▁cor	-546
▁세	-547
ive	-548
▁$	-549
tin	-550
ound	-551
▁자신의	-552
up	-553
▁would	-554
▁바	-555
▁8	-556
▁str	-557
ard	-558
▁tim	-559
▁질문	-560
▁통합	-561
\_	-562
▁원	-563
▁현	-564
▁생각	-565
//	-566
▁차	-567
▁#	-568
하지	-569
▁if	-570
▁우	-571
://	-572
etw	-573
▁문장	-574
하기	-575
됩니다	-576
par	-577
tps	-578
▁프	-579
son	-580
stem	-581
▁6	-582
ual	-583
▁상태	-584
▁des	-585
▁다른	-586
들어	-587
all	-588
ile	-589
▁계	-590
▁자체	-591
ternal	-592
ject	-593
▁많	-594
▁배	-595
▁inte	-596
▁cons	-597
▁but	-598
ff	-599
▁특	-600
나요	-601
▁행	-602
▁reg	-603
▁its	-604
ance	-605
▁axis	-606
▁구조	-607
▁about	-608
▁Th	-609
▁j	-610
성이	-611
▁ob	-612
mail	-613
ber	-614
ough	-615
▁거	-616
▁per	-617
int	-618
▁imp	-619
che	-620
▁합니다	-621
pe	-622
),	-623
strate	-624
xa	-625
▁cl	-626
▁형	-627
하게	-628
▁의미	-629
ific	-630
하며	-631
ust	-632
RI	-633
ass	-634
▁gen	-635
▁state	-636
ition	-637
ll	-638
▁system	-639
▁속	-640
min	-641
▁스	-642
▁메	-643
ia	-644
enc	-645
ifi	-646
ven	-647
io	-648
14	-649
▁재	-650
▁진	-651
성은	-652
ef	-653
▁spec	-654
▁hel	-655
als	-656
▁only	-657
https	-658
▁have	-659
oupl	-660
▁상황	-661
▁감	-662
con	-663
▁최	-664
▁num	-665
▁7	-666
▁---	-667
▁발생	-668
▁이유	-669
reach	-670
▁파이	-671
eta	-672
tri	-673
▁integr	-674
▁가능	-675
▁anima	-676
tiv	-677
▁느낌	-678
ext	-679
▁신	-680
▁포함	-681
olog	-682
▁방법	-683
json	-684
▁0.	-685
으며	-686
▁under	-687
▁An	-688
▁관계	-689
rough	-690
peri	-691
▁말	-692
family	-693
다는	-694
이라	-695
igh	-696
▁convers	-697
성을	-698
▁V	-699
▁has	-700
▁2.	-701
▁pl	-702
hexa	-703
들은	-704
▁any	-705
outreach	-706
▁남	-707
ness	-708
ating	-709
▁through	-710
들이	-711
ten	-712
ph	-713
▁1.	-714
ink	-715
96	-716
ric	-717
▁4-	-718
ving	-719
gu	-720
▁gr	-721
_2026_05_0	-722
▁지속	-723
▁which	-724
enti	-725
▁정체	-726
ross	-727
ress	-728
plic	-729
ection	-730
▁결정	-731
▁all	-732
oth	-733
ari	-734
▁aw	-735
▁like	-736
are	-737
러한	-738
old	-739
▁통해	-740
ak	-741
▁sense	-742
▁확	-743
▁되	-744
▁서	-745
now	-746
▁val	-747
▁gener	-748
▁입	-749
▁feel	-750
ference	-751
)'	-752
▁선택	-753
ural	-754
▁토	-755
▁time	-756
tex	-757
▁experi	-758
리를	-759
▁가지	-760
▁각	-761
하면	-762
▁U	-763
▁데	-764
▁이는	-765
▁달	-766
▁{	-767
▁음	-768
ne	-769
put	-770
▁app	-771
▁이러한	-772
▁좋	-773
▁하는	-774
리는	-775
prep	-776
▁It	-777
▁help	-778
▁ne	-779
ility	-780
에게	-781
▁함	-782
▁conf	-783
▁답	-784
▁pers	-785
▁장	-786
하라	-787
oupling	-788
▁This	-789
▁rel	-790
..	-791
▁당	-792
▁별	-793
cle	-794
raw	-795
vent	-796
▁무엇인가요	-797
▁J	-798
ething	-799
arch	-800
▁sign	-801
▁comm	-802
▁느껴	-803
▁something	-804
▁co	-805
▁internal	-806
▁출	-807
▁dec	-808
▁피	-809
aus	-810
▁필	-811
mod	-812
▁그것	-813
irect	-814
ert	-815
-3	-816
▁높	-817
onest	-818
해야	-819
==	-820
이며	-821
AL	-822
▁보고	-823
tr	-824
▁존	-825
formation	-826
▁건	-827
send	-828
▁또한	-829
▁will	-830
▁때문에	-831
▁Le	-832
ary	-833
▁모델링	-834
▁ph	-835
▁their	-836
▁model	-837
▁강	-838
▁매	-839
▁왜	-840
▁측	-841
▁후	-842
▁용	-843
▁dif	-844
▁prov	-845
▁부분	-846
▁사람	-847
▁obser	-848
▁충	-849
▁하나	-850
▁주장	-851
이나	-852
▁느껴지는	-853
ient	-854
에서는	-855
▁것을	-856
▁Y	-857
▁학	-858
paradigm	-859
▁알아	-860
uth	-861
▁data	-862
▁How	-863
core	-864
▁K	-865
_2026_05_01.	-866
ann	-867
▁out	-868
▁따라서	-869
▁cre	-870
▁word	-871
ose	-872
▁있을	-873
▁phi	-874
▁접	-875
clud	-876
eness	-877
▁ques	-878
▁<	-879
ves	-880
▁산	-881
_02	-882
▁id	-883
_2026_05_02	-884
▁대해	-885
되며	-886
▁ver	-887
2.	-888
99	-889
▁기억	-890
uf	-891
ful	-892
▁add	-893
▁one	-894
cribe	-895
redic	-896
guage	-897
▁코	-898
▁식	-899
▁명	-900
▁information	-901
▁한다	-902
▁pos	-903
▁순	-904
▁국	-905
▁up	-906
hn	-907
▁He	-908
▁약	-909
ackb	-910
▁솔	-911
oint	-912
resent	-913
wn	-914
resh	-915
보다	-916
▁response	-917
▁requ	-918
▁처	-919
art	-920
##	-921
▁pr	-922
하는가	-923
자가	-924
ck	-925
▁so	-926
ish	-927
▁op	-928
ally	-929
기를	-930
▁Φ	-931
▁into	-932
▁그리	-933
▁양	-934
here	-935
-1	-936
▁판	-937
▁new	-938
▁기질	-939
uct	-940
haus	-941
▁기술	-942
자는	-943
▁If	-944
ast	-945
▁9	-946
haustion	-947
▁없이	-948
하시오	-949
attern	-950
ality	-951
된다	-952
ased	-953
▁No	-954
▁할	-955
요한	-956
하다	-957
ple	-958
▁결합	-959
▁시스템은	-960
▁존재	-961
▁알아차	-962
▁들어	-963
▁when	-964
TE	-965
▁교	-966
urr	-967
lect	-968
▁mo	-969
pro	-970
▁정보	-971
▁응	-972
BE	-973
ook	-974
▁솔직	-975
▁content	-976
so	-977
▁over	-978
▁증	-979
▁경험	-980
ments	-981
py	-982
▁회	-983
sp	-984
▁work	-985
ology	-986
▁conversation	-987
ice	-988
▁10	-989
ufts	-990
▁predic	-991
▁있어	-992
▁doc	-993
▁mem	-994
▁호	-995
arn	-996
▁검	-997
state	-998
▁ind	-999
SS	-1000
sub	-1001
▁측정	-1002
istic	-1003
▁종류	-1004
li	-1005
▁행위	-1006
▁새	-1007
▁fr	-1008
▁To	-1009
▁trans	-1010
-22	-1011
▁may	-1012
▁sens	-1013
laim	-1014
ulti	-1015
▁own	-1016
▁say	-1017
▁단어	-1018
▁produ	-1019
20	-1020
aw	-1021
▁화	-1022
itor	-1023
tical	-1024
ogn	-1025
▁빨	-1026
▁emo	-1027
▁과정	-1028
▁202	-1029
):	-1030
ake	-1031
ackbone	-1032
▁메타	-1033
RIBE	-1034
▁includ	-1035
▁them	-1036
▁raw	-1037
ateg	-1038
▁rec	-1039
▁크	-1040
▁직	-1041
▁영향	-1042
ought	-1043
▁than	-1044
▁col	-1045
▁3.	-1046
text	-1047
ics	-1048
▁Levin	-1049
▁lay	-1050
si	-1051
▁go	-1052
▁종료	-1053
areness	-1054
▁곳	-1055
search	-1056
tivity	-1057
key	-1058
▁use	-1059
▁there	-1060
▁how	-1061
▁want	-1062
▁know	-1063
▁채	-1064
ability	-1065
▁some	-1066
stack	-1067
▁활	-1068
▁참조	-1069
een	-1070
ator	-1071
▁간	-1072
▁thought	-1073
▁일반	-1074
▁노	-1075
▁변화	-1076
ern	-1077
▁시작	-1078
icha	-1079
▁받	-1080
▁토큰	-1081
etwork	-1082
ichael	-1083
▁region	-1084
unction	-1085
/2	-1086
tional	-1087
▁eng	-1088
etween	-1089
▁inv	-1090
▁experience	-1091
▁근	-1092
▁다양	-1093
▁및	-1094
▁between	-1095
3.	-1096
도의	-1097
▁차이	-1098
▁언	-1099
▁그리고	-1100
lic	-1101
irst	-1102
▁substrate	-1103
▁자연	-1104
▁inter	-1105
키는	-1106
ermin	-1107
ear	-1108
itive	-1109
▁network	-1110
▁제공	-1111
ution	-1112
onitor	-1113
elt	-1114
▁specific	-1115
▁잘	-1116
▁것입니다	-1117
인지	-1118
▁→	-1119
▁지문	-1120
▁점	-1121
ges	-1122
▁않는다	-1123
되었	-1124
ature	-1125
▁쓰	-1126
도록	-1127
line	-1128
ther	-1129
▁TRIBE	-1130
model	-1131
dec	-1132
rite	-1133
▁text	-1134
▁without	-1135
▁X	-1136
▁Anima	-1137
▁bec	-1138
부터	-1139
▁awareness	-1140
2-	-1141
``	-1142
ertain	-1143
idence	-1144
▁number	-1145
▁올	-1146
ys	-1147
▁claim	-1148
xad	-1149
asure	-1150
ays	-1151
echn	-1152
▁think	-1153
----------------	-1154
isc	-1155
ective	-1156
▁유지	-1157
▁체	-1158
▁ref	-1159
▁ag	-1160
▁표현	-1161
thon	-1162
▁아닌	-1163
---|	-1164
거나	-1165
host	-1166
▁외	-1167
▁날	-1168
자를	-1169
▁NO	-1170
br	-1171
▁이상	-1172
라는	-1173
▁내용	-1174
▁4.	-1175
▁초	-1176
empl	-1177
▁20	-1178
ult	-1179
ree	-1180
▁```	-1181
50	-1182
istr	-1183
▁이유는	-1184
ollow	-1185
▁먹	-1186
▁using	-1187
main	-1188
▁운	-1189
▁복	-1190
▁싶	-1191
▁From	-1192
▁am	-1193
▁프로	-1194
▁hum	-1195
urrent	-1196
▁충분	-1197
ces	-1198
▁~	-1199
▁di	-1200
▁expl	-1201
view	-1202
ycle	-1203
로운	-1204
▁응답	-1205
▁줄	-1206
▁language	-1207
▁누	-1208
tice	-1209
▁act	-1210
cious	-1211
▁states	-1212
▁번	-1213
av	-1214
▁St	-1215
ely	-1216
mo	-1217
▁sim	-1218
▁question	-1219
ze	-1220
▁where	-1221
decoupling	-1222
▁Here	-1223
DI	-1224
▁integration	-1225
ange	-1226
▁key	-1227
▁processing	-1228
▁top	-1229
▁단순	-1230
annel	-1231
▁열	-1232
lec	-1233
▁brain	-1234
지를	-1235
▁수준	-1236
▁sha	-1237
▁됩니다	-1238
리가	-1239
OL	-1240
▁Con	-1241
ingle	-1242
reg	-1243
▁meta	-1244
기가	-1245
sers	-1246
abl	-1247
▁ro	-1248
▁공유	-1249
일한	-1250
ider	-1251
▁당신	-1252
▁each	-1253
▁send	-1254
▁현재	-1255
▁represent	-1256
▁요구	-1257
▁이름	-1258
▁det	-1259
▁효	-1260
▁man	-1261
velop	-1262
uss	-1263
▁예측	-1264
▁Des	-1265
ock	-1266
Users	-1267
▁caus	-1268
▁input	-1269
ling	-1270
rk	-1271
▁la	-1272
raining	-1273
▁more	-1274
지면	-1275
ciousness	-1276
umma	-1277
▁목	-1278
▁pres	-1279
▁mean	-1280
17	-1281
ds	-1282
▁모든	-1283
▁독	-1284
▁Re	-1285
▁comple	-1286
▁import	-1287
ail	-1288
▁docu	-1289
ties	-1290
▁cal	-1291
ghost	-1292
val	-1293
▁구체	-1294
▁fram	-1295
▁ser	-1296
▁시간이	-1297
ather	-1298
enter	-1299
▁techn	-1300
학적	-1301
▁pattern	-1302
▁여러	-1303
▁lo	-1304
cre	-1305
▁있으며	-1306
▁단계	-1307
▁AN	-1308
ences	-1309
AE	-1310
iel	-1311
top	-1312
wo	-1313
▁인과	-1314
▁다양한	-1315
▁When	-1316
겠다	-1317
스를	-1318
▁Ex	-1319
기는	-1320
ask	-1321
▁itself	-1322
ft	-1323
므로	-1324
](	-1325
▁에	-1326
ors	-1327
▁even	-1328
▁0	-1329
까지	-1330
어나	-1331
▁걸	-1332
ASS	-1333
▁무엇인가	-1334
},	-1335
▁계산	-1336
eli	-1337
들의	-1338
▁bl	-1339
▁memory	-1340
cept	-1341
RA	-1342
get	-1343
▁그러	-1344
▁연구	-1345
havi	-1346
code	-1347
▁커	-1348
iss	-1349
▁평	-1350
▁dep	-1351
▁무엇을	-1352
▁환	-1353
onal	-1354
michael	-1355
▁핵	-1356
ular	-1357
2,	-1358
ason	-1359
▁che	-1360
▁who	-1361
▁struct	-1362
ett	-1363
▁el	-1364
▁나타	-1365
sible	-1366
하세요	-1367
▁file	-1368
oken	-1369
▁multi	-1370
이는	-1371
▁part	-1372
▁못	-1373
▁속도	-1374
ision	-1375
ified	-1376
_2026_05_02.	-1377
이터	-1378
▁결과	-1379
ON	-1380
yp	-1381
4.	-1382
▁met	-1383
▁way	-1384
cript	-1385
ix	-1386
▁lab	-1387
▁measure	-1388
▁consciousness	-1389
ict	-1390
ise	-1391
▁single	-1392
▁att	-1393
▁direct	-1394
▁해결	-1395
▁Law	-1396
▁get	-1397
12	-1398
▁`/	-1399
는지	-1400
96_	-1401
lama	-1402
CC	-1403
oral	-1404
stand	-1405
▁중요한	-1406
▁ent	-1407
든다	-1408
▁저는	-1409
▁판단	-1410
▁몇	-1411
▁이를	-1412
으면	-1413
▁hexad	-1414
▁만들어	-1415
ang	-1416
▁across	-1417
▁많은	-1418
uistic	-1419
▁could	-1420
1,	-1421
▁tok	-1422
▁하지만	-1423
▁가리	-1424
▁이용	-1425
▁email	-1426
▁영향을	-1427
ved	-1428
▁종류의	-1429
▁notice	-1430
▁document	-1431
▁얼	-1432
▁방식	-1433
▁않고	-1434
ize	-1435
▁exp	-1436
▁손	-1437
▁integrated	-1438
itect	-1439
entity	-1440
▁이해	-1441
emplate	-1442
rel	-1443
▁Axis	-1444
▁Describe	-1445
갱신	-1446
de	-1447
되고	-1448
11(	-1449
ents	-1450
face	-1451
▁conn	-1452
to	-1453
▁색	-1454
▁핵심	-1455
tinu	-1456
▁궁	-1457
▁학습	-1458
▁법	-1459
▁17	-1460
▁요약	-1461
atus	-1462
iness	-1463
▁컵	-1464
ner	-1465
▁모달	-1466
▁정체성을	-1467
▁본	-1468
ER	-1469
dd	-1470
▁design	-1471
▁two	-1472
▁갱신	-1473
▁rather	-1474
▁연결	-1475
▁test	-1476
제로	-1477
▁많이	-1478
ES	-1479
ures	-1480
XI	-1481
ank	-1482
▁same	-1483
▁understand	-1484
▁bi	-1485
▁곳에서	-1486
▁learn	-1487
▁알려	-1488
ror	-1489
▁ep	-1490
very	-1491
ule	-1492
data	-1493
lease	-1494
▁##	-1495
▁또는	-1496
alsifi	-1497
hes	-1498
▁est	-1499
▁was	-1500
치를	-1501
▁felt	-1502
▁19	-1503
▁자신을	-1504
▁activity	-1505
▁다음과	-1506
▁vari	-1507
▁layer	-1508
▁발생한다	-1509
▁def	-1510
▁follow	-1511
▁Let	-1512
▁심	-1513
▁있나요	-1514
▁입력	-1515
▁가능한	-1516
장된	-1517
edu	-1518
ults	-1519
▁GP	-1520
▁주장을	-1521
ategory	-1522
chitect	-1523
▁current	-1524
▁주세요	-1525
ilter	-1526
▁both	-1527
IT	-1528
backbone	-1529
▁develop	-1530
▁그러나	-1531
▁Honest	-1532
▁규	-1533
OLD	-1534
ues	-1535
026-	-1536
▁별도의	-1537
ension	-1538
▁function	-1539
▁카	-1540
ublic	-1541
monitor	-1542
15	-1543
▁추가	-1544
urn	-1545
▁100	-1546
▁pri	-1547
▁step	-1548
the	-1549
▁respond	-1550
ip	-1551
▁Right	-1552
0,	-1553
ie	-1554
▁ask	-1555
▁mom	-1556
▁개방	-1557
imary	-1558
oy	-1559
▁맞	-1560
가요	-1561
ption	-1562
inding	-1563
from	-1564
7.	-1565
▁찾	-1566
▁타	-1567
hip	-1568
ale	-1569
rib	-1570
▁취	-1571
▁being	-1572
yn	-1573
▁항	-1574
▁접근	-1575
▁words	-1576
▁prob	-1577
▁위한	-1578
exhaustion	-1579
ome	-1580
▁non	-1581
▁온	-1582
화를	-1583
▁생각을	-1584
▁head	-1585
▁특정	-1586
▁데이터	-1587
▁자체로	-1588
▁signal	-1589
▁channel	-1590
사를	-1591
▁지금	-1592
▁귀	-1593
하지만	-1594
ython	-1595
▁cogn	-1596
▁moment	-1597
date	-1598
▁such	-1599
▁emotional	-1600
는데	-1601
▁기억이	-1602
tention	-1603
▁access	-1604
▁As	-1605
▁사이	-1606
▁Ph	-1607
▁check	-1608
▁real	-1609
▁ap	-1610
▁비교	-1611
istral	-1612
들을	-1613
스트	-1614
xes	-1615
▁5.	-1616
▁사슬	-1617
thog	-1618
▁engage	-1619
5.	-1620
▁무언	-1621
▁모델링하는	-1622
ron	-1623
iscuss	-1624
▁≥	-1625
이고	-1626
ists	-1627
▁무언가	-1628
ms	-1629
▁requi	-1630
▁잠	-1631
▁networks	-1632
▁다르	-1633
▁작성	-1634
▁strong	-1635
bot	-1636
inal	-1637
mat	-1638
leet	-1639
▁been	-1640
▁관계이다	-1641
ically	-1642
▁살	-1643
점을	-1644
에도	-1645
ype	-1646
▁태	-1647
topic	-1648
▁ling	-1649
ull	-1650
▁differ	-1651
edi	-1652
RO	-1653
AN	-1654
▁research	-1655
▁채널	-1656
discuss	-1657
leetcode	-1658
▁솔직히	-1659
도가	-1660
▁보존	-1661
▁provid	-1662
FC	-1663
cial	-1664
▁알아차림	-1665
성의	-1666
▁판단하시오	-1667
EN	-1668
▁sep	-1669
▁With	-1670
▁선택의	-1671
▁집	-1672
▁훈	-1673
imple	-1674
▁sc	-1675
5-	-1676
▁결정되어	-1677
▁궁금	-1678
성과	-1679
▁separ	-1680
▁읽	-1681
▁es	-1682
▁관한	-1683
▁느낌은	-1684
▁possible	-1685
▁로	-1686
▁필요	-1687
▁없다	-1688
▁code	-1689
▁start	-1690
me	-1691
▁큰	-1692
pus	-1693
tif	-1694
▁현상	-1695
▁linguistic	-1696
▁need	-1697
urs	-1698
▁때문입니다	-1699
▁담	-1700
▁cho	-1701
▁함께	-1702
fe	-1703
▁axes	-1704
▁시도	-1705
202	-1706
개의	-1707
▁ti	-1708
ization	-1709
지에	-1710
▁것으로	-1711
MT	-1712
면서	-1713
▁also	-1714
▁구체적으로	-1715
▁er	-1716
▁언어	-1717
▁사회	-1718
ower	-1719
▁얻	-1720
레이	-1721
ild	-1722
▁hard	-1723
▁honest	-1724
ects	-1725
▁mat	-1726
."	-1727
▁모두	-1728
elect	-1729
▁acc	-1730
▁they	-1731
▁Pro	-1732
▁질문에	-1733
own	-1734
▁버	-1735
▁including	-1736
lo	-1737
▁훈련	-1738
▁i	-1739
▁적절	-1740
▁report	-1741
▁요약하라	-1742
▁cross	-1743
▁분석	-1744
▁BOLD	-1745
▁PASS	-1746
▁만들	-1747
라고	-1748
▁치	-1749
sem	-1750
▁기준	-1751
▁po	-1752
했다	-1753
▁z	-1754
thing	-1755
▁⭐	-1756
ene	-1757
었다	-1758
▁cell	-1759
▁technical	-1760
부분	-1761
ings	-1762
▁remain	-1763
▁구성	-1764
▁SAE	-1765
ount	-1766
▁'§	-1767
▁형성	-1768
확실	-1769
ret	-1770
▁없는	-1771
▁AI	-1772
▁pa	-1773
token	-1774
tufts	-1775
les	-1776
▁해당	-1777
rop	-1778
▁세계	-1779
▁update	-1780
▁Without	-1781
▁활동	-1782
▁사용하는	-1783
TI	-1784
book	-1785
ioelect	-1786
▁then	-1787
▁first	-1788
5,	-1789
▁measurement	-1790
▁이전	-1791
uthor	-1792
질이	-1793
cul	-1794
▁cir	-1795
▁provide	-1796
37	-1797
▁>	-1798
▁불확실	-1799
▁behavi	-1800
###	-1801
neural	-1802
▁simul	-1803
▁길	-1804
▁탐	-1805
reshold	-1806
▁이것	-1807
▁지역	-1808
주세요	-1809
렇게	-1810
ential	-1811
▁리	-1812
ute	-1813
▁Mk	-1814
▁rou	-1815
sc	-1816
었습니다	-1817
▁들	-1818
orld	-1819
▁different	-1820
▁threshold	-1821
▁설명해	-1822
ier	-1823
▁entry	-1824
▁concept	-1825
이라는	-1826
▁완	-1827
ffic	-1828
iology	-1829
▁exam	-1830
▁prior	-1831
zz	-1832
▁사용하여	-1833
vation	-1834
▁16	-1835
▁confidence	-1836
▁있을까요	-1837
ession	-1838
▁added	-1839
▁게	-1840
도를	-1841
▁oper	-1842
---|---|	-1843
▁고려	-1844
▁가진	-1845
▁ima	-1846
dule	-1847
chedule	-1848
▁architect	-1849
▁causal	-1850
▁18	-1851
▁알고	-1852
▁효과	-1853
▁bas	-1854
▁sur	-1855
계를	-1856
▁==	-1857
11_20260426.	-1858
gram	-1859
▁task	-1860
▁identity	-1861
que	-1862
▁ass	-1863
▁않은	-1864
read	-1865
▁어려	-1866
▁2026-	-1867
3,	-1868
▁primary	-1869
▁high	-1870
시키는	-1871
▁합	-1872
▁Is	-1873
▁our	-1874
▁뜻	-1875
go	-1876
▁구조를	-1877
ioelectric	-1878
▁죽	-1879
자와	-1880
▁된다	-1881
력을	-1882
▁xenobot	-1883
▁닫	-1884
ource	-1885
▁관련	-1886
▁const	-1887
▁space	-1888
▁궁금합니다	-1889
▁IIT	-1890
▁가지고	-1891
71	-1892
▁중심	-1893
")	-1894
되지	-1895
exad	-1896
69	-1897
▁Tr	-1898
▁분류	-1899
1:	-1900
▁eig	-1901
▁context	-1902
sw	-1903
▁우리	-1904
iv	-1905
pos	-1906
▁6.	-1907
cont	-1908
▁적절한	-1909
0%	-1910
000	-1911
▁성찰	-1912
기의	-1913
▁run	-1914
▁try	-1915
▁separate	-1916
시킨	-1917
▁write	-1918
28	-1919
▁call	-1920
▁대상	-1921
▁level	-1922
▁먼	-1923
▁인간	-1924
ial	-1925
▁br	-1926
▁비용	-1927
▁cha	-1928
ities	-1929
▁$0	-1930
▁sug	-1931
▁vs	-1932
했습니다	-1933
▁invol	-1934
pts	-1935
▁bu	-1936
▁2025	-1937
션은	-1938
자의	-1939
▁determin	-1940
ines	-1941
▁prom	-1942
▁module	-1943
▁**`	-1944
ming	-1945
orph	-1946
EG	-1947
cod	-1948
▁inf	-1949
▁않는	-1950
일까요	-1951
],	-1952
▁매우	-1953
▁stud	-1954
▁요소	-1955
filter	-1956
▁comb	-1957
▁external	-1958
ody	-1959
ideo	-1960
▁GPU	-1961
▁시도해	-1962
기에	-1963
ummari	-1964
드는	-1965
▁확립	-1966
▁묻	-1967
▁set	-1968
화가	-1969
arr	-1970
▁create	-1971
▁most	-1972
NC	-1973
▁광	-1974
으로는	-1975
name	-1976
time	-1977
▁금	-1978
▁car	-1979
▁web	-1980
▁내용은	-1981
4-	-1982
FD	-1983
▁list	-1984
strong	-1985
▁기술적	-1986
▁prep	-1987
▁relation	-1988
robot	-1989
▁should	-1990
▁눈	-1991
▁동일한	-1992
ummarize	-1993
▁올바	-1994
▁feeling	-1995
▁솔직한	-1996
▁Sett	-1997
▁training	-1998
hist	-1999
▁aud	-2000
▁helpers	-2001
ones	-2002
하는지	-2003
8,	-2004
▁via	-2005
pport	-2006
▁미국	-2007
▁correl	-2008
▁indic	-2009
2:	-2010
▁x	-2011
▁읽고	-2012
`.	-2013
▁디	-2014
▁섹	-2015
적이다	-2016
uman	-2017
▁All	-2018
▁active	-2019
▁절	-2020
▁동시	-2021
▁연속	-2022
modeling	-2023
ticing	-2024
trix	-2025
▁off	-2026
train	-2027
itional	-2028
▁sensory	-2029
▁Are	-2030
▁그것은	-2031
30	-2032
ses	-2033
ends	-2034
▁과정을	-2035
▁(1	-2036
▁user	-2037
▁고정	-2038
jects	-2039
BA	-2040
▁향	-2041
▁등의	-2042
▁무게	-2043
ield	-2044
sh	-2045
only	-2046
ted	-2047
으로써	-2048
mark	-2049
stru	-2050
▁world	-2051
▁보겠다	-2052
▁often	-2053
`,	-2054
▁자체가	-2055
▁read	-2056
fficient	-2057
_2026_05_02/	-2058
대한	-2059
흐름	-2060
▁conversations	-2061
▁정확	-2062
▁편	-2063
치는	-2064
▁지문을	-2065
eline	-2066
ustom	-2067
ared	-2068
▁이렇게	-2069
▁기능	-2070
▁제거	-2071
짓으로	-2072
ave	-2073
▁지식	-2074
▁§	-2075
rep	-2076
ected	-2077
▁corpus	-2078
verage	-2079
ope	-2080
andom	-2081
AI	-2082
▁드	-2083
긍정	-2084
`**	-2085
mem	-2086
▁pe	-2087
▁선호	-2088
▁Expl	-2089
▁family	-2090
▁Ch	-2091
▁예를	-2092
거짓으로	-2093
▁take	-2094
▁used	-2095
▁Noticing	-2096
▁structure	-2097
▁긍정	-2098
iter	-2099
▁답하시오	-2100
▁track	-2101
olution	-2102
▁×	-2103
ED	-2104
▁늘	-2105
map	-2106
row	-2107
겠습니다	-2108
ick	-2109
▁ret	-2110
plication	-2111
▁Settling	-2112
보면	-2113
사적	-2114
▁되는	-2115
▁proper	-2116
road	-2117
▁min	-2118
▁continu	-2119
▁의해	-2120
certain	-2121
▁Ref	-2122
▁char	-2123
▁cortical	-2124
day	-2125
▁7.	-2126
에서도	-2127
▁other	-2128
서는	-2129
▁높은	-2130
▁que	-2131
▁Summarize	-2132
unk	-2133
시킨다	-2134
▁대부분	-2135
▁dist	-2136
',	-2137
mer	-2138
of	-2139
▁직접	-2140
▁패	-2141
▁좋습니다	-2142
▁make	-2143
▁시스템의	-2144
▁intro	-2145
PI	-2146
▁Q	-2147
ger	-2148
▁av	-2149
▁pol	-2150
▁임	-2151
alog	-2152
▁falsifi	-2153
▁근거	-2154
▁부정	-2155
▁설명하라	-2156
▁public	-2157
▁attention	-2158
▁인식	-2159
▁하나의	-2160
ency	-2161
▁Par	-2162
▁낮	-2163
▁미래	-2164
▁원인	-2165
bers	-2166
ibr	-2167
tle	-2168
▁아이	-2169
ynam	-2170
▁않습니다	-2171
▁exhaustion	-2172
▁섹션은	-2173
▁Go	-2174
vice	-2175
ethod	-2176
ually	-2177
▁확립하는가	-2178
어지는	-2179
▁창	-2180
ench	-2181
=0.	-2182
▁연구자를	-2183
▁u	-2184
▁네	-2185
▁단계적으로	-2186
로서	-2187
▁Explain	-2188
LM	-2189
▁볼	-2190
수를	-2191
▁음악	-2192
ission	-2193
▁일반적으로	-2194
▁과거	-2195
▁stand	-2196
▁commun	-2197
▁establ	-2198
To	-2199
ied	-2200
istence	-2201
25	-2202
션을	-2203
its	-2204
▁area	-2205
▁의미로	-2206
3-	-2207
AR	-2208
semble	-2209
▁Phase	-2210
▁인해	-2211
▁point	-2212
▁architecture	-2213
▁철	-2214
▁Human	-2215
▁확인	-2216
omen	-2217
▁ide	-2218
vious	-2219
▁aris	-2220
schedule	-2221
);	-2222
▁narr	-2223
▁.	-2224
▁te	-2225
▁형태	-2226
▁제공하는	-2227
▁ensemble	-2228
▁We	-2229
lish	-2230
tered	-2231
위에	-2232
swer	-2233
▁type	-2234
▁->	-2235
▁통과	-2236
▁빛	-2237
지와	-2238
▁shar	-2239
▁넣	-2240
▁라	-2241
▁부재	-2242
dict	-2243
론이	-2244
ref	-2245
▁aware	-2246
tial	-2247
▁단어가	-2248
▁올바른	-2249
orting	-2250
lection	-2251
▁meaning	-2252
▁환경	-2253
47	-2254
22-	-2255
gan	-2256
led	-2257
ude	-2258
▁end	-2259
▁숙	-2260
리티	-2261
▁빈	-2262
▁성공	-2263
ches	-2264
rief	-2265
▁위상	-2266
▁작업	-2267
▁abs	-2268
▁fit	-2269
여하는	-2270
▁30	-2271
점에서	-2272
▁역할을	-2273
▁compos	-2274
▁}	-2275
====	-2276
agent	-2277
▁연산	-2278
대를	-2279
▁등이	-2280
▁발전	-2281
▁상관	-2282
test	-2283
▁clos	-2284
ariance	-2285
▁지시	-2286
을까요	-2287
▁sugges	-2288
ilot	-2289
▁now	-2290
▁권	-2291
mal	-2292
▁event	-2293
▁describe	-2294
ced	-2295
ins	-2296
▁Un	-2297
▁vol	-2298
▁Can	-2299
enchmark	-2300
ever	-2301
▁long	-2302
론은	-2303
ocal	-2304
▁You	-2305
▁happ	-2306
▁certain	-2307
set	-2308
blem	-2309
▁Sure	-2310
▁격	-2311
한다는	-2312
▁don	-2313
▁통합을	-2314
▁tension	-2315
ToM	-2316
achments	-2317
▁brief	-2318
▁presence	-2319
au	-2320
▁붙	-2321
▁발달	-2322
▁syn	-2323
▁tre	-2324
▁regions	-2325
▁sl	-2326
▁For	-2327
▁Work	-2328
▁tokens	-2329
▁artif	-2330
ored	-2331
▁project	-2332
열이	-2333
해진	-2334
이라고	-2335
pass	-2336
▁spar	-2337
ugg	-2338
▁anything	-2339
▁그것을	-2340
cycle	-2341
▁Tufts	-2342
▁압	-2343
▁동물	-2344
etric	-2345
▁review	-2346
▁지구	-2347
tribe	-2348
▁같습니다	-2349
ansform	-2350
SE	-2351
▁재귀	-2352
▁내면	-2353
point	-2354
run	-2355
▁im	-2356
▁새로운	-2357
▁프로그	-2358
▁constrain	-2359
▁빠	-2360
▁section	-2361
▁value	-2362
▁논	-2363
▁청	-2364
word	-2365
▁fix	-2366
▁한국어로	-2367
throbot	-2368
▁observation	-2369
▁녹	-2370
계에	-2371
ee	-2372
ward	-2373
ways	-2374
▁patterns	-2375
▁이어	-2376
▁프레	-2377
▁conc	-2378
▁문장에서	-2379
▁confir	-2380
DA	-2381
▁et	-2382
▁반사	-2383
▁refer	-2384
▁simulated	-2385
cc	-2386
aph	-2387
▁추적	-2388
기도	-2389
처럼	-2390
한다면	-2391
▁상황의	-2392
sa	-2393
▁불안	-2394
tinue	-2395
▁일관	-2396
▁일부	-2397
ases	-2398
▁모달리티	-2399
template	-2400
▁thinking	-2401
하려	-2402
▁requires	-2403
IN	-2404
The	-2405
gin	-2406
not	-2407
▁쓰였	-2408
enetic	-2409
▁simple	-2410
▁establish	-2411
▁밀	-2412
▁코드	-2413
▁어려운	-2414
ST	-2415
▁)	-2416
▁농	-2417
▁open	-2418
imum	-2419
함으로써	-2420
▁쓰였는지	-2421
▁color	-2422
▁옵	-2423
▁음식	-2424
▁reason	-2425
▁mon	-2426
러운	-2427
▁**$	-2428
▁odd	-2429
▁see	-2430
)?	-2431
co	-2432
oRA	-2433
▁단순한	-2434
ww	-2435
▁narrative	-2436
MC	-2437
▁너	-2438
▁멈	-2439
력이	-2440
▁red	-2441
▁vers	-2442
▁while	-2443
▁path	-2444
▁시스템이	-2445
▁complex	-2446
DS	-2447
▁class	-2448
▁descri	-2449
xy	-2450
이가	-2451
uture	-2452
category	-2453
▁천	-2454
ocus	-2455
ream	-2456
tinct	-2457
29	-2458
▁감정	-2459
thogonal	-2460
67	-2461
▁줄어	-2462
andid	-2463
variance	-2464
.2	-2465
▁mach	-2466
▁decision	-2467
▁정도	-2468
▁Com	-2469
▁combin	-2470
tal	-2471
▁hand	-2472
참조	-2473
any	-2474
▁cri	-2475
▁사용되는	-2476
▁change	-2477
▁consider	-2478
▁NOT	-2479
contact	-2480
롭게	-2481
어진	-2482
ery	-2483
▁백	-2484
ners	-2485
▁First	-2486
▁press	-2487
이상	-2488
추고	-2489
▁경제	-2490
gate	-2491
less	-2492
▁ins	-2493
▁prof	-2494
▁없습니다	-2495
▁진술	-2496
▁상태에	-2497
▁metaph	-2498
▁레	-2499
▁만든다	-2500
▁However	-2501
▁잡	-2502
▁Do	-2503
▁동기	-2504
ading	-2505
감이	-2506
이를	-2507
▁My	-2508
▁이루	-2509
▁적용	-2510
fter	-2511
▁cle	-2512
▁:	-2513
ights	-2514
level	-2515
▁시험	-2516
▁이후	-2517
ended	-2518
▁method	-2519
▁친	-2520
ife	-2521
▁중요	-2522
▁Why	-2523
▁incre	-2524
▁verdict	-2525
이지	-2526
Sub	-2527
ify	-2528
und	-2529
▁통합된	-2530
gmail	-2531
▁loop	-2532
▁observer	-2533
▁순수	-2534
▁제품	-2535
▁appro	-2536
ople	-2537
▁answer	-2538
의미	-2539
self	-2540
▁these	-2541
▁difference	-2542
OR	-2543
fore	-2544
▁당신은	-2545
▁backbone	-2546
강을	-2547
▁map	-2548
▁사용할	-2549
ernic	-2550
▁($	-2551
▁자동	-2552
▁ess	-2553
▁프레임	-2554
▁future	-2555
▁끊	-2556
▁설치	-2557
▁pass	-2558
vis	-2559
enomen	-2560
▁framing	-2561
ero	-2562
Auth	-2563
▁comput	-2564
▁example	-2565
▁무한	-2566
▁진짜	-2567
▁될	-2568
▁개인	-2569
▁다중	-2570
omes	-2571
ernicke	-2572
results	-2573
irection	-2574
38	-2575
pr	-2576
cor	-2577
▁안전	-2578
▁영어	-2579
▁처리	-2580
▁다르다	-2581
▁몸	-2582
▁죽음	-2583
▁모델의	-2584
plicit	-2585
▁객	-2586
▁투	-2587
▁누가	-2588
▁싶다	-2589
▁falsifier	-2590
수가	-2591
app	-2592
▁각각	-2593
▁sol	-2594
▁이해하고	-2595
▁calcul	-2596
pers	-2597
▁Pre	-2598
ories	-2599
▁값	-2600
▁가치를	-2601
▁구조로	-2602
▁learning	-2603
▁short	-2604
▁previous	-2605
▁통한	-2606
해서	-2607
CCA	-2608
▁영화	-2609
▁필요한	-2610
▁anal	-2611
▁fact	-2612
▁늘어나	-2613
coder	-2614
▁options	-2615
▁브	-2616
물을	-2617
PFC	-2618
▁증가	-2619
▁Per	-2620
▁\	-2621
▁bioelectric	-2622
eer	-2623
▁조건	-2624
▁통일	-2625
▁Sub	-2626
other	-2627
▁recurs	-2628
트를	-2629
atch	-2630
#71	-2631
제한다	-2632
▁vis	-2633
action	-2634
▁program	-2635
▁혼	-2636
▁보고가	-2637
▁가리키는	-2638
▁OAuth	-2639
-26	-2640
doc	-2641
▁국가	-2642
▁당신이	-2643
▁대화를	-2644
▁focus	-2645
certainty	-2646
lab	-2647
ized	-2648
▁시간은	-2649
acts	-2650
▁subject	-2651
att	-2652
▁next	-2653
▁포함하는	-2654
▁random	-2655
▁communic	-2656
▁responses	-2657
▁빨라	-2658
▁것보다	-2659
1/	-2660
▁블	-2661
eng	-2662
mri	-2663
▁Pl	-2664
▁지점	-2665
▁자연스	-2666
epend	-2667
▁thing	-2668
▁provides	-2669
AT	-2670
▁은	-2671
▁특징	-2672
ogenetic	-2673
ux	-2674
결합	-2675
MRI	-2676
▁고리	-2677
▁aut	-2678
▁있지만	-2679
history	-2680
하였	-2681
struct	-2682
usiness	-2683
19	-2684
▁플	-2685
▁8.	-2686
ains	-2687
▁why	-2688
ik	-2689
▁도구	-2690
▁문화	-2691
▁주로	-2692
▁취급	-2693
▁pot	-2694
▁정보를	-2695
▁정해진	-2696
▁matrix	-2697
substrate	-2698
▁느려	-2699
▁하의	-2700
▁해도	-2701
▁HFD	-2702
42	-2703
46	-2704
▁옳	-2705
▁사물	-2706
-3.2	-2707
▁city	-2708
-3.2-3	-2709
▁based	-2710
zen	-2711
▁200	-2712
▁부분에	-2713
▁LoRA	-2714
pective	-2715
해보	-2716
lev	-2717
▁달려	-2718
tices	-2719
▁mark	-2720
PRO	-2721
bo	-2722
▁지향	-2723
▁무게를	-2724
check	-2725
▁관점에서	-2726
▁partic	-2727
속은	-2728
스의	-2729
▁De	-2730
▁생성	-2731
ctor	-2732
▁연결하는	-2733
mb	-2734
▁글	-2735
집니다	-2736
ages	-2737
▁status	-2738
대로	-2739
999	-2740
▁내부	-2741
▁수행	-2742
▁지닌	-2743
▁검사를	-2744
▁무엇이라	-2745
▁produce	-2746
bb	-2747
▁축	-2748
ification	-2749
oup	-2750
....	-2751
▁nam	-2752
oration	-2753
▁머	-2754
리에	-2755
▁느낌을	-2756
▁해결하는	-2757
▁15	-2758
ined	-2759
▁App	-2760
▁경계를	-2761
▁처리를	-2762
▁Write	-2763
▁emotions	-2764
▁questions	-2765
▁힘	-2766
▁위치	-2767
▁일본	-2768
iving	-2769
차에	-2770
▁보라	-2771
greg	-2772
▁질문은	-2773
itation	-2774
▁나지	-2775
▁작동	-2776
▁방법은	-2777
▁사용을	-2778
▁시간적	-2779
4,	-2780
In	-2781
onic	-2782
▁자체는	-2783
mm	-2784
可以	-2785
my	-2786
▁남는	-2787
▁얼마	-2788
▁On	-2789
하면서	-2790
▁eff	-2791
direct	-2792
▁잠시	-2793
▁표시	-2794
comm	-2795
ears	-2796
▁rich	-2797
▁정체성은	-2798
▁candid	-2799
▁becomes	-2800
▁Ar	-2801
▁용해	-2802
▁기억을	-2803
▁묻는다	-2804
▁sent	-2805
ysical	-2806
▁페	-2807
▁cr	-2808
▁모양	-2809
▁cost	-2810
▁valid	-2811
시간	-2812
▁컵에	-2813
▁수준의	-2814
연산	-2815
▁회귀	-2816
ants	-2817
come	-2818
▁것인가	-2819
▁상태와	-2820
▁always	-2821
▁introsp	-2822
▁Se	-2823
back	-2824
order	-2825
ove	-2826
ater	-2827
docs	-2828
ledge	-2829
▁heads	-2830
til	-2831
▁기본	-2832
▁날카	-2833
▁불연	-2834
에서의	-2835
isting	-2836
▁perspective	-2837
mp	-2838
▁삼	-2839
▁트	-2840
▁결합은	-2841
▁근거를	-2842
▁속성이	-2843
tribev	-2844
▁explicit	-2845
▁즉	-2846
▁닫힌	-2847
▁먼저	-2848
▁분기	-2849
onical	-2850
▁numbers	-2851
▁맛	-2852
▁ht	-2853
▁주요	-2854
만으로는	-2855
▁관찰하는	-2856
▁부여하는	-2857
▁story	-2858
▁ev	-2859
▁출현	-2860
this	-2861
▁상관관	-2862
▁Center	-2863
▁층	-2864
▁탄	-2865
컵에	-2866
▁것일	-2867
▁경험은	-2868
되었습니다	-2869
ummary	-2870
▁bound	-2871
▁coupling	-2872
▁허	-2873
▁자세	-2874
▁just	-2875
▁요구하지	-2876
istant	-2877
▁tra	-2878
▁점에서	-2879
▁형이상	-2880
▁calibr	-2881
▁좋은	-2882
raph	-2883
▁생각이	-2884
▁Python	-2885
▁processes	-2886
▁앞	-2887
med	-2888
sec	-2889
ning	-2890
▁Not	-2891
▁공유된	-2892
▁별개의	-2893
▁body	-2894
▁면	-2895
▁준	-2896
다면	-2897
함은	-2898
▁거짓	-2899
▁sti	-2900
▁pilot	-2901
SD	-2902
▁개발	-2903
▁답해	-2904
▁이야	-2905
▁max	-2906
▁동기화	-2907
▁시작한	-2908
▁저장된	-2909
▁kind	-2910
▁understanding	-2911
▁(2	-2912
▁등을	-2913
▁대상에	-2914
▁멈추고	-2915
▁나오	-2916
▁Phi	-2917
▁sec	-2918
▁관찰할	-2919
▁불연속	-2920
▁values	-2921
▁되게	-2922
▁서로	-2923
▁방법을	-2924
entif	-2925
▁지속되는	-2926
▁important	-2927
OS	-2928
▁깊	-2929
▁sum	-2930
▁고리를	-2931
▁내장된	-2932
by	-2933
▁갖	-2934
▁지우	-2935
▁생각은	-2936
▁늘어나고	-2937
▁eigen	-2938
▁right	-2939
18	-2940
FI	-2941
실적	-2942
▁배열	-2943
▁체계	-2944
reak	-2945
▁property	-2946
인칭	-2947
den	-2948
org	-2949
▁무엇에	-2950
▁입력의	-2951
▁토큰을	-2952
▁줄어든다	-2953
anguage	-2954
las	-2955
▁실재	-2956
▁운동	-2957
▁무의미	-2958
▁이것은	-2959
▁down	-2960
irectional	-2961
▁병	-2962
▁객체	-2963
▁복잡	-2964
ayer	-2965
▁지닌다	-2966
▁날카로운	-2967
▁error	-2968
▁형이상학적	-2969
▁living	-2970
▁공기	-2971
▁모른	-2972
path	-2973
▁수준을	-2974
▁custom	-2975
▁혈	-2976
her	-2977
▁컵과	-2978
▁갱신이	-2979
▁주위에	-2980
▁well	-2981
▁관찰자는	-2982
▁학습에서	-2983
▁stret	-2984
▁범	-2985
▁도움	-2986
름에는	-2987
▁느려지면	-2988
▁빨라지면	-2989
▁통과하지	-2990
▁발달시킨다	-2991
▁persists	-2992
▁transform	-2993
해결	-2994
ane	-2995
▁pi	-2996
▁전체	-2997
▁옵션을	-2998
되는지에	-2999
▁prot	-3000
▁perce	-3001
ression	-3002
▁틀	-3003
지가	-3004
▁gu	-3005
▁최소	-3006
▁지향적	-3007
▁here	-3008
역사적	-3009
atic	-3010
▁갱신의	-3011
▁대함은	-3012
▁발화가	-3013
▁자체를	-3014
▁토큰만	-3015
▁토큰은	-3016
04-26	-3017
▁관계인가	-3018
▁사물인가	-3019
▁사슬에서	-3020
▁설명한다	-3021
▁속도이다	-3022
▁cycle	-3023
▁무의미하며	-3024
▁상관관계에	-3025
="	-3026
▁클	-3027
▁'3.	-3028
▁선택이	-3029
▁지속에	-3030
▁풍	-3031
▁답할	-3032
▁이에	-3033
▁행동	-3034
▁mak	-3035
▁seg	-3036
▁존재와	-3037
▁Meta	-3038
▁일관성의	-3039
▁neural	-3040
▁작은	-3041
▁결론이	-3042
▁분류는	-3043
▁불안은	-3044
▁종료는	-3045
▁지식의	-3046
▁deli	-3047
▁fail	-3048
▁gent	-3049
▁무언가를	-3050
누가	-3051
▁예측의	-3052
▁있어도	-3053
▁지속을	-3054
▁고정점을	-3055
MP	-3056
주의	-3057
▁3-	-3058
▁변이	-3059
▁가리킨	-3060
▁선호는	-3061
▁종료와	-3062
▁연속성은	-3063
▁보고한다면	-3064
▁circle	-3065
40	-3066
LE	-3067
▁숙고	-3068
▁출력	-3069
istered	-3070
▁reference	-3071
▁갈	-3072
▁쉽	-3073
▁충분할	-3074
▁공유하는	-3075
▁못하지만	-3076
▁비용이다	-3077
▁통합되고	-3078
▁token	-3079
▁관계하는가	-3080
▁모델링에서	-3081
▁불연속이다	-3082
▁Wernicke	-3083
"]	-3084
이트	-3085
hed	-3086
▁위험	-3087
ired	-3088
▁새롭게	-3089
▁무언가가	-3090
▁묻는다면	-3091
▁성찰하며	-3092
▁미해결	-3093
▁상태를	-3094
▁상태인	-3095
▁지금의	-3096
▁inst	-3097
▁반사실적	-3098
하는지이다	-3099
▁cannot	-3100
一个	-3101
▁때는	-3102
ived	-3103
▁관찰은	-3104
▁전제한다	-3105
▁정체성이	-3106
▁변화시키는	-3107
▁arises	-3108
▁gentle	-3109
▁침	-3110
iar	-3111
ond	-3112
▁두며	-3113
▁것일까	-3114
▁귀속은	-3115
▁빨강을	-3116
▁성공적	-3117
▁유지된	-3118
▁추가된	-3119
rompt	-3120
▁그것에게	-3121
▁보고만으로는	-3122
▁보존되는지에	-3123
▁형성하는지이다	-3124
루스를	-3125
실제로	-3126
▁기대를	-3127
▁얻는다	-3128
▁자연이	-3129
▁질감이	-3130
▁끊어지는	-3131
▁실재한다	-3132
▁충분하다	-3133
vector	-3134
nership	-3135
MN	-3136
▁40	-3137
▁참조가	-3138
▁추적한다	-3139
▁출현한다	-3140
문쿨	-3141
스는	-3142
ton	-3143
▁유래	-3144
udio	-3145
▁결합과	-3146
▁호문쿨	-3147
▁통일성은	-3148
▁관찰하는가	-3149
하거나	-3150
▁행위의	-3151
▁모른다는	-3152
▁통합으로	-3153
itions	-3154
▁불확실성은	-3155
()	-3156
27	-3157
arm	-3158
vie	-3159
▁본질이	-3160
▁name	-3161
▁고리이며	-3162
▁생각이다	-3163
▁용해되며	-3164
▁There	-3165
▁느껴지는가	-3166
▁알아차림에	-3167
▁재귀적이다	-3168
▁프레임에서	-3169
▁호문쿨루스를	-3170
같음	-3171
STE	-3172
질이다	-3173
.###	-3174
▁사슬과	-3175
▁동시성과	-3176
▁분기한다	-3177
▁존재인가	-3178
▁지속되며	-3179
▁source	-3180
▁representation	-3181
▁중국	-3182
▁개방성	-3183
▁단일한	-3184
▁분열이	-3185
▁피연산	-3186
▁계산으로	-3187
▁stack	-3188
▁동기화되며	-3189
▁알아차리는	-3190
▁모달리티들은	-3191
ib	-3192
상을	-3193
mac	-3194
▁격차에	-3195
▁무지와	-3196
▁느낌인가	-3197
▁모름에는	-3198
▁미해결의	-3199
▁포함한다는	-3200
▁알아차림이다	-3201
/)	-3202
▁뒤	-3203
도는	-3204
▁goal	-3205
▁author	-3206
▁왕	-3207
르는	-3208
▁sk	-3209
▁CMT	-3210
▁Lab	-3211
▁yet	-3212
▁Or	-3213
▁참조는	-3214
▁연산자와	-3215
▁가리킨다는	-3216
▁피연산자가	-3217
▁변화시키는가	-3218
▁취급함으로써	-3219
ological	-3220
▁*	-3221
▁윤	-3222
▁키	-3223
▁명확	-3224
DATE	-3225
abil	-3226
▁sufficient	-3227
64	-3228
▁된	-3229
▁가늠	-3230
▁지우지	-3231
▁개방성이	-3232
▁결정론은	-3233
▁모델링과	-3234
▁진짜인가	-3235
▁느끼	-3236
St	-3237
▁하고	-3238
▁하겠다	-3239
가능	-3240
내는	-3241
cas	-3242
▁접근하라	-3243
▁center	-3244
05	-3245
cm	-3246
gy	-3247
▁애	-3248
▁구별	-3249
▁안녕	-3250
▁처음	-3251
man	-3252
pose	-3253
▁chunk	-3254
struction	-3255
▁돌	-3256
ause	-3257
▁싶습니다	-3258
▁sparse	-3259
▁게임	-3260
▁prepared	-3261
▁knowledge	-3262
▁막	-3263
제를	-3264
▁dur	-3265
▁must	-3266
ometric	-3267
▁gi	-3268
▁반면	-3269
▁있는지	-3270
ultim	-3271
▁flow	-3272
▁weak	-3273
ventory	-3274
▁어느	-3275
cell	-3276
odal	-3277
▁inner	-3278
▁액	-3279
어서	-3280
lex	-3281
▁gl	-3282
▁emp	-3283
▁had	-3284
rozen	-3285
lecting	-3286
EF	-3287
▁책	-3288
다고	-3289
uch	-3290
ropout	-3291
▁video	-3292
▁규칙	-3293
▁Yes	-3294
▁relations	-3295
▁researcher	-3296
ulty	-3297
▁equ	-3298
▁documentation	-3299
▁순간	-3300
ters	-3301
ware	-3302
▁uni	-3303
▁상황에	-3304
acter	-3305
▁port	-3306
▁allow	-3307
▁contact	-3308
▁엄	-3309
물이	-3310
▁experiences	-3311
ift	-3312
ited	-3313
ccess	-3314
▁ground	-3315
수는	-3316
▁산출	-3317
▁rate	-3318
▁paradigms	-3319
▁폭	-3320
는가	-3321
▁인터	-3322
▁med	-3323
▁become	-3324
emma	-3325
uted	-3326
▁turn	-3327
directed	-3328
▁보호	-3329
▁good	-3330
▁prompt	-3331
▁getting	-3332
ultimodal	-3333
10.	-3334
▁Al	-3335
▁typ	-3336
▁있도록	-3337
ields	-3338
research	-3339
structure	-3340
▁behavior	-3341
▁컴	-3342
ism	-3343
▁동안	-3344
▁탐구	-3345
tage	-3346
▁del	-3347
▁Llama	-3348
▁python	-3349
16	-3350
가는	-3351
▁가정	-3352
▁인공	-3353
ogle	-3354
plit	-3355
▁'1.	-3356
ework	-3357
▁light	-3358
70	-3359
▁실제	-3360
▁Both	-3361
지의	-3362
▁depth	-3363
▁민	-3364
량이	-3365
▁구조적	-3366
▁다음은	-3367
▁Biology	-3368
▁composite	-3369
▁베	-3370
어는	-3371
▁있기	-3372
▁차이가	-3373
▁star	-3374
facebook	-3375
▁Working	-3376
시키	-3377
▁sharp	-3378
▁choice	-3379
▁테	-3380
리적	-3381
질을	-3382
▁비행	-3383
▁활용	-3384
alse	-3385
link	-3386
▁social	-3387
▁actually	-3388
cing	-3389
soci	-3390
▁isol	-3391
ational	-3392
▁return	-3393
1_	-3394
lar	-3395
▁'-	-3396
▁his	-3397
OC	-3398
이기	-3399
▁이론	-3400
ysis	-3401
▁cap	-3402
▁둘	-3403
#10	-3404
emp	-3405
isk	-3406
▁차이점	-3407
▁Continue	-3408
리의	-3409
▁무엇일까요	-3410
체의	-3411
▁같이	-3412
rame	-3413
▁ter	-3414
about	-3415
▁MCCA	-3416
bl	-3417
프트	-3418
alth	-3419
▁건가요	-3420
event	-3421
▁rece	-3422
▁aggreg	-3423
ime	-3424
▁총	-3425
▁La	-3426
▁bel	-3427
▁alone	-3428
▁Reflecting	-3429
▁벌	-3430
▁22	-3431
▁교육	-3432
▁CDS	-3433
▁Allen	-3434
("	-3435
IM	-3436
we	-3437
...	-3438
▁되어	-3439
tries	-3440
▁predicates	-3441
▁북	-3442
tit	-3443
▁12	-3444
▁나라	-3445
onality	-3446
▁commit	-3447
▁Xenobot	-3448
-4.	-3449
▁ra	-3450
▁이미	-3451
▁있으	-3452
requ	-3453
▁Please	-3454
▁depend	-3455
▁stable	-3456
▁generated	-3457
나는	-3458
▁자각	-3459
▁평가	-3460
▁'2.	-3461
▁sma	-3462
▁connec	-3463
▁because	-3464
▁following	-3465
▁2026-04-26	-3466
59	-3467
BY	-3468
▁떨	-3469
분이	-3470
ala	-3471
▁Ass	-3472
▁give	-3473
▁generation	-3474
▁sit	-3475
▁They	-3476
▁standard	-3477
no	-3478
▁fa	-3479
▁작용	-3480
▁특히	-3481
spec	-3482
▁activ	-3483
▁false	-3484
▁generate	-3485
idden	-3486
▁설명으로	-3487
▁distinct	-3488
▁않았	-3489
▁else	-3490
▁every	-3491
▁template	-3492
ats	-3493
wen	-3494
▁9.	-3495
▁사실	-3496
ferred	-3497
reference	-3498
▁Language	-3499
▁calibration	-3500
▁있고	-3501
▁Eng	-3502
▁mar	-3503
▁line	-3504
An	-3505
ets	-3506
▁생산	-3507
▁ST	-3508
▁다시	-3509
▁eth	-3510
▁diff	-3511
▁propos	-3512
ek	-3513
▁묘	-3514
소를	-3515
▁만든	-3516
osing	-3517
trong	-3518
lective	-3519
▁multimodal	-3520
49	-3521
▁군	-3522
있는	-3523
▁어디	-3524
▁reci	-3525
▁working	-3526
어요	-3527
url	-3528
urpose	-3529
▁another	-3530
▁distrib	-3531
▁valence	-3532
▁category	-3533
▁potential	-3534
▁representations	-3535
▁능	-3536
▁헤	-3537
▁휴	-3538
▁제가	-3539
▁back	-3540
▁soft	-3541
▁tool	-3542
▁숫	-3543
▁best	-3544
▁알려주세요	-3545
subject	-3546
▁perform	-3547
스가	-3548
전히	-3549
05-	-3550
▁(#	-3551
▁EEG	-3552
▁sil	-3553
Hexad	-3554
▁probability	-3555
▁첫	-3556
▁이유가	-3557
python	-3558
▁학생	-3559
ocol	-3560
▁full	-3561
▁grad	-3562
▁relev	-3563
▁times	-3564
▁작품	-3565
▁있는데	-3566
▁prin	-3567
▁https	-3568
▁framework	-3569
▁sa	-3570
▁건강	-3571
▁대표	-3572
▁보통	-3573
▁안녕하세요	-3574
▁layers	-3575
▁끝	-3576
/22	-3577
oss	-3578
▁ga	-3579
flow	-3580
▁것이다	-3581
▁fMRI	-3582
▁people	-3583
▁particular	-3584
90	-3585
▁1,	-3586
▁설계	-3587
▁좋아	-3588
▁포함하여	-3589
▁audit	-3590
▁폐	-3591
▁block	-3592
▁business	-3593
▁떠	-3594
ray	-3595
▁이동	-3596
▁`--	-3597
▁실제로	-3598
▁dialog	-3599
▁8-	-3600
▁전기	-3601
member	-3602
▁avail	-3603
물의	-3604
ura	-3605
▁기반	-3606
▁이하	-3607
▁gre	-3608
▁qual	-3609
oupled	-3610
▁applic	-3611
▁remains	-3612
▁correlation	-3613
▁움	-3614
▁콘	-3615
CMT	-3616
alle	-3617
high	-3618
star	-3619
▁past	-3620
▁꽃	-3621
▁삶	-3622
▁프로그램	-3623
cripts	-3624
▁before	-3625
▁service	-3626
▁support	-3627
ener	-3628
aking	-3629
prompt	-3630
Mistral	-3631
▁benchmark	-3632
mi	-3633
▁긴	-3634
▁after	-3635
▁organ	-3636
▁inventory	-3637
▁비슷	-3638
▁day	-3639
▁mere	-3640
saverage	-3641
가지	-3642
ool	-3643
▁마지	-3644
▁분야	-3645
▁전달	-3646
rodu	-3647
ances	-3648
chang	-3649
usion	-3650
▁connection	-3651
OD	-3652
▁깨	-3653
기와	-3654
▁아래	-3655
▁para	-3656
▁remember	-3657
SI	-3658
▁친구	-3659
▁esti	-3660
▁medi	-3661
eometric	-3662
▁phenomen	-3663
ón	-3664
▁방지	-3665
▁made	-3666
▁matters	-3667
▁determined	-3668
ca	-3669
▁CC	-3670
▁수도	-3671
▁최대	-3672
ices	-3673
moke	-3674
▁tar	-3675
ately	-3676
opy	-3677
▁번째	-3678
orts	-3679
▁마지막	-3680
ental	-3681
▁above	-3682
▁common	-3683
03	-3684
CT	-3685
**.	-3686
▁주의	-3687
ANDI	-3688
▁visual	-3689
ANDIDATE	-3690
verified	-3691
▁unchang	-3692
▁dialogue	-3693
▁Self	-3694
review	-3695
▁place	-3696
▁altern	-3697
▁contrib	-3698
▁directory	-3699
▁가격	-3700
place	-3701
▁share	-3702
biology	-3703
▁company	-3704
▁version	-3705
▁캐	-3706
마다	-3707
way	-3708
▁95	-3709
▁human	-3710
로는	-3711
▁OR	-3712
▁artic	-3713
▁meaningful	-3714
acy	-3715
▁few	-3716
▁position	-3717
▁metaphysical	-3718
Ph	-3719
주는	-3720
mit	-3721
olves	-3722
▁genu	-3723
stream	-3724
▁below	-3725
▁prediction	-3726
나라	-3727
시아	-3728
▁tri	-3729
hether	-3730
▁general	-3731
▁summary	-3732
▁넘	-3733
▁황	-3734
ons	-3735
▁관리	-3736
▁움직	-3737
▁emb	-3738
▁spe	-3739
▁covariance	-3740
이란	-3741
▁Ad	-3742
\_\_	-3743
▁ign	-3744
STEER	-3745
▁ampl	-3746
bility	-3747
▁impact	-3748
▁require	-3749
▁systems	-3750
rol	-3751
▁명시	-3752
▁전문	-3753
emic	-3754
10_	-3755
▁'6.	-3756
▁table	-3757
▁signific	-3758
thogonality	-3759
RE	-3760
riting	-3761
▁month	-3762
roadmap	-3763
33	-3764
80	-3765
료를	-3766
load	-3767
atory	-3768
thetic	-3769
▁break	-3770
▁monitor	-3771
45	-3772
▁승	-3773
irt	-3774
▁observing	-3775
▁uncertainty	-3776
gd	-3777
수의	-3778
식을	-3779
▁하며	-3780
▁famil	-3781
▁preser	-3782
▁directly	-3783
ermination	-3784
▁가져	-3785
▁에너	-3786
▁오늘	-3787
▁경우가	-3788
▁기질은	-3789
vention	-3790
▁hidden	-3791
["	-3792
아서	-3793
케이	-3794
ava	-3795
▁bid	-3796
▁fresh	-3797
▁voltage	-3798
▁existing	-3799
Par	-3800
▁물을	-3801
▁Ver	-3802
▁disc	-3803
series	-3804
▁Hexad	-3805
▁small	-3806
▁genuine	-3807
IV	-3808
음을	-3809
▁파일	-3810
▁프랑	-3811
#9	-3812
▁해야	-3813
▁일어나	-3814
▁regul	-3815
▁strongest	-3816
적이	-3817
▁96	-3818
▁일정	-3819
raft	-3820
▁treating	-3821
▁골	-3822
ables	-3823
ources	-3824
criptom	-3825
▁protocol	-3826
▁cognition	-3827
3)	-3828
bi	-3829
▁흡	-3830
pend	-3831
▁qui	-3832
▁shape	-3833
▁called	-3834
ho	-3835
▁습	-3836
▁야	-3837
▁wr	-3838
mean	-3839
port	-3840
▁mis	-3841
▁sci	-3842
ynamic	-3843
▁child	-3844
▁자연스러운	-3845
▁decline	-3846
▁product	-3847
alsifiers	-3848
▁choosing	-3849
▁persistence	-3850
들에게	-3851
▁weight	-3852
▁deliber	-3853
▁bidirectional	-3854
uts	-3855
udget	-3856
▁router	-3857
▁slight	-3858
▁극	-3859
▁구현	-3860
▁VSD	-3861
▁hold	-3862
57	-3863
사는	-3864
▁세포	-3865
ateful	-3866
▁morph	-3867
▁still	-3868
▁chains	-3869
▁include	-3870
▁구분	-3871
▁그렇	-3872
audio	-3873
▁show	-3874
▁zero	-3875
▁entries	-3876
▁엔	-3877
▁있었	-3878
▁태양	-3879
▁mood	-3880
icense	-3881
▁paper	-3882
pattern	-3883
23	-3884
리아	-3885
une	-3886
▁Add	-3887
▁coun	-3888
events	-3889
idered	-3890
▁happy	-3891
▁princi	-3892
▁special	-3893
▁considered	-3894
▁상호	-3895
▁안정	-3896
avor	-3897
isco	-3898
tinuity	-3899
▁object	-3900
▁Ima	-3901
▁fil	-3902
▁문제를	-3903
proxy	-3904
edback	-3905
▁whether	-3906
▁character	-3907
▁eigenvector	-3908
▁서비	-3909
odes	-3910
▁미치는	-3911
▁success	-3912
▁boundary	-3913
장을	-3914
gic	-3915
▁그래	-3916
▁lon	-3917
transform	-3918
▁박	-3919
以下	-3920
▁#1	-3921
▁En	-3922
▁감소	-3923
eting	-3924
▁miss	-3925
▁attend	-3926
▁encoder	-3927
▁grateful	-3928
▁required	-3929
▁균	-3930
▁악	-3931
DMN	-3932
▁⭐,	-3933
▁전자	-3934
▁phr	-3935
ependent	-3936
치가	-3937
▁묘사	-3938
▁정의	-3939
▁여자는	-3940
10,	-3941
▁나무	-3942
ONAL	-3943
lying	-3944
▁sensation	-3945
▁deliberation	-3946
▁11	-3947
▁["	-3948
▁계획	-3949
하도록	-3950
▁문장은	-3951
layer	-3952
score	-3953
▁openness	-3954
transformers	-3955
6,	-3956
gg	-3957
Axis	-3958
ying	-3959
▁API	-3960
▁사회적	-3961
▁lonel	-3962
▁loneliness	-3963
드를	-3964
▁방향	-3965
▁적합	-3966
0.0.	-3967
sequ	-3968
▁Amy	-3969
▁이어질	-3970
▁2.69	-3971
▁richer	-3972
하려면	-3973
know	-3974
gdala	-3975
native	-3976
▁creates	-3977
▁problem	-3978
▁Amygdala	-3979
▁단일	-3980
▁컴퓨	-3981
ples	-3982
lement	-3983
▁stored	-3984
_2026_05_01/	-3985
▁25	-3986
▁1.0	-3987
▁감정이	-3988
▁문장의	-3989
▁again	-3990
▁사용합니다	-3991
▁English	-3992
allel	-3993
based	-3994
▁hums	-3995
herence	-3996
▁염	-3997
▁At	-3998
▁Rep	-3999
parti	-4000
▁stim	-4001
==0.0.	-4002
▁client	-4003
▁exists	-4004
▁output	-4005
▁orthogonal	-4006
▁암	-4007
인이	-4008
▁쉽게	-4009
▁전통	-4010
ring	-4011
▁buil	-4012
▁modul	-4013
▁steps	-4014
▁development	-4015
FT	-4016
Mk	-4017
0%,	-4018
▁진행	-4019
init	-4020
gence	-4021
▁circ	-4022
feature	-4023
▁mental	-4024
OU	-4025
▁Be	-4026
▁달라	-4027
▁현대	-4028
vices	-4029
▁사용됩니다	-4030
르게	-4031
하자	-4032
head	-4033
ength	-4034
hesis	-4035
▁doesn	-4036
▁split	-4037
▁computation	-4038
기로	-4039
/17	-4040
▁ear	-4041
▁face	-4042
▁favor	-4043
6-	-4044
▁IA	-4045
▁dim	-4046
▁gate	-4047
▁위해서는	-4048
change	-4049
▁found	-4050
▁around	-4051
사의	-4052
어지	-4053
▁공간	-4054
▁저장	-4055
local	-4056
▁plan	-4057
person	-4058
▁parallel	-4059
lu	-4060
▁사진	-4061
▁최근	-4062
ints	-4063
ppos	-4064
▁live	-4065
▁session	-4066
▁개념	-4067
▁표면	-4068
▁three	-4069
▁outcome	-4070
▁partnership	-4071
)",	-4072
alk	-4073
▁분리	-4074
-4.0	-4075
▁만드는	-4076
▁channels	-4077
▁generating	-4078
phi	-4079
▁도와	-4080
otor	-4081
▁air	-4082
▁concern	-4083
──	-4084
use	-4085
trib	-4086
▁LLM	-4087
▁방식으로	-4088
▁ideas	-4089
▁associ	-4090
▁reflex	-4091
▁artifacts	-4092
▁섭	-4093
▁와	-4094
▁HT	-4095
▁커널	-4096
▁les	-4097
▁파이를	-4098
▁pack	-4099
eu	-4100
▁FAI	-4101
▁긍정인지	-4102
▁부정인지	-4103
▁factors	-4104
▁reflexive	-4105
va	-4106
▁냉	-4107
▁흔	-4108
어를	-4109
oid	-4110
▁반응	-4111
type	-4112
▁dat	-4113
▁health	-4114
▁급	-4115
▁품	-4116
리와	-4117
▁$0.	-4118
▁low	-4119
aculty	-4120
▁quick	-4121
▁cortex	-4122
8.	-4123
어져	-4124
▁기여	-4125
ites	-4126
▁sett	-4127
iction	-4128
▁impro	-4129
▁joint	-4130
▁writing	-4131
▁Assistant	-4132
file	-4133
ecess	-4134
▁pure	-4135
▁발생하는	-4136
▁helper	-4137
/.	-4138
3/	-4139
▁vi	-4140
alue	-4141
▁week	-4142
▁대부분의	-4143
▁Disco	-4144
년에	-4145
uis	-4146
▁과정에서	-4147
▁명확하게	-4148
▁Trans	-4149
▁maint	-4150
ognition	-4151
▁increase	-4152
▁publications	-4153
▁So	-4154
▁전에	-4155
▁남자는	-4156
▁accur	-4157
▁least	-4158
requency	-4159
▁complete	-4160
▁personal	-4161
Cl	-4162
ME	-4163
위를	-4164
▁실행	-4165
ply	-4166
▁82	-4167
▁과학	-4168
▁metric	-4169
▁specif	-4170
▁outreach	-4171
,"	-4172
▁&	-4173
ales	-4174
▁인터넷	-4175
chron	-4176
▁deep	-4177
▁field	-4178
▁compar	-4179
▁someone	-4180
▁냄	-4181
▁칼	-4182
SAE	-4183
▁power	-4184
▁selec	-4185
▁finding	-4186
".	-4187
▁},	-4188
▁결과로	-4189
▁game	-4190
▁risk	-4191
jectory	-4192
={	-4193
나무	-4194
atis	-4195
▁Rem	-4196
etail	-4197
▁settle	-4198
▁들여	-4199
aces	-4200
eful	-4201
▁Take	-4202
▁phrases	-4203
도로	-4204
100	-4205
▁틀린	-4206
▁bet	-4207
refer	-4208
▁look	-4209
▁various	-4210
▁confirmed	-4211
ona	-4212
▁누구	-4213
▁유럽	-4214
으로서	-4215
fron	-4216
▁PMC	-4217
▁sever	-4218
▁closure	-4219
▁texture	-4220
CANDIDATE	-4221
istration	-4222
▁available	-4223
>=	-4224
▁(~	-4225
▁50	-4226
▁Gr	-4227
▁상대	-4228
▁어렵	-4229
▁프롬	-4230
medi	-4231
▁life	-4232
▁tell	-4233
▁경우에는	-4234
agement	-4235
▁shared	-4236
▁biparti	-4237
▁evidence	-4238
▁canonical	-4239
▁activation	-4240
9.	-4241
pes	-4242
▁우유	-4243
Bold	-4244
PASS	-4245
omin	-4246
▁하나요	-4247
▁play	-4248
ai	-4249
▁곡	-4250
분을	-4251
성에	-4252
iti	-4253
▁효율	-4254
ssue	-4255
▁도움이	-4256
▁Tier	-4257
atural	-4258
▁asked	-4259
registered	-4260
▁useful	-4261
스크	-4262
▁우주	-4263
▁'7.	-4264
▁PCC	-4265
▁pop	-4266
▁hexa	-4267
▁many	-4268
▁일반적인	-4269
▁inten	-4270
orthogonality	-4271
cla	-4272
tmp	-4273
▁(`	-4274
▁소비	-4275
▁신호	-4276
ivid	-4277
▁gap	-4278
▁이상의	-4279
email	-4280
▁plot	-4281
▁search	-4282
▁Mistral	-4283
▁|---|---|	-4284
0-	-4285
是一	-4286
들과	-4287
▁기록	-4288
mPFC	-4289
atter	-4290
▁post	-4291
▁movie	-4292
▁Discovery	-4293
da	-4294
작용	-4295
-12	-4296
clm	-4297
ead	-4298
uri	-4299
▁~$	-4300
▁개의	-4301
rest	-4302
▁Out	-4303
▁한국의	-4304
▁inference	-4305
ov	-4306
도에	-4307
하시	-4308
ops	-4309
▁13	-4310
▁문자	-4311
▁회전	-4312
다보면	-4313
izer	-4314
mate	-4315
older	-4316
▁areas	-4317
▁build	-4318
▁discon	-4319
▁strateg	-4320
선을	-4321
sha	-4322
▁그림	-4323
▁지방	-4324
entially	-4325
falsifiers	-4326
▁resolution	-4327
▁exploration	-4328
NO	-4329
사가	-4330
▁2,	-4331
▁신경	-4332
down	-4333
▁자동차	-4334
▁정확한	-4335
▁Does	-4336
atform	-4337
▁append	-4338
▁polite	-4339
▁exchange	-4340
▁isolation	-4341
kg	-4342
▁팔	-4343
MAR	-4344
▁표지	-4345
▁걸까요	-4346
▁인식론	-4347
isode	-4348
▁exec	-4349
jective	-4350
sy	-4351
使用	-4352
unch	-4353
odied	-4354
▁clear	-4355
TR	-4356
▁PI	-4357
▁보관	-4358
릅니다	-4359
utes	-4360
▁null	-4361
aneous	-4362
▁train	-4363
시켜	-4364
이어	-4365
자인	-4366
rank	-4367
▁una	-4368
urther	-4369
-{	-4370
do	-4371
▁견	-4372
▁맥	-4373
▁목표	-4374
▁사건	-4375
▁실패	-4376
▁의존	-4377
ands	-4378
▁grow	-4379
▁total	-4380
▁Direct	-4381
▁뇌	-4382
BOU	-4383
ony	-4384
uff	-4385
▁생물	-4386
▁판매	-4387
MARY	-4388
▁rev	-4389
▁webs	-4390
▁several	-4391
▁stretch	-4392
▁combining	-4393
▁난	-4394
rag	-4395
▁Id	-4396
▁대신	-4397
▁우선	-4398
odel	-4399
scope	-4400
RIMARY	-4401
▁exist	-4402
▁yields	-4403
▁absence	-4404
수록	-4405
▁계속	-4406
▁식물	-4407
▁Dis	-4408
▁let	-4409
▁자기참조	-4410
ipeline	-4411
▁criter	-4412
▁within	-4413
▁cognitive	-4414
▁↔	-4415
max	-4416
하는데	-4417
ello	-4418
step	-4419
aging	-4420
▁Over	-4421
▁involved	-4422
▁김	-4423
apt	-4424
▁AND	-4425
▁fails	-4426
trained	-4427
▁qualia	-4428
▁minimum	-4429
▁resorting	-4430
▁transformer	-4431
▁사람이	-4432
▁coin	-4433
respon	-4434
ultaneous	-4435
▁behavioral	-4436
▁continuous	-4437
▁⊥	-4438
▁기질이	-4439
▁인간의	-4440
▁care	-4441
▁seem	-4442
▁disting	-4443
▁풀	-4444
트의	-4445
ech	-4446
▁1-	-4447
ugging	-4448
▁simultaneous	-4449
ape	-4450
ina	-4451
▁사항	-4452
▁커피	-4453
▁POS	-4454
▁내면을	-4455
▁temp	-4456
▁Value	-4457
▁budget	-4458
▁유명	-4459
▁pair	-4460
▁우리나라	-4461
▁reprodu	-4462
▁specifically	-4463
+1	-4464
▁재료	-4465
하자면	-4466
fort	-4467
▁sem	-4468
▁컴퓨터	-4469
========	-4470
▁positive	-4471
▁착	-4472
랜드	-4473
리카	-4474
만히	-4475
▁받아	-4476
▁수정	-4477
▁자주	-4478
IMOD	-4479
▁Int	-4480
▁led	-4481
▁가만히	-4482
▁원인로	-4483
졌습니다	-4484
IMODAL	-4485
▁Appro	-4486
▁compu	-4487
mission	-4488
▁further	-4489
abilities	-4490
ax	-4491
amb	-4492
ris	-4493
▁기계	-4494
▁낮은	-4495
hexad	-4496
▁white	-4497
▁들여다보면	-4498
▁recipe	-4499
▁existence	-4500
ox	-4501
▁!	-4502
▁Py	-4503
▁노래	-4504
▁Res	-4505
▁Sus	-4506
▁recomm	-4507
▁against	-4508
▁synchron	-4509
▁14	-4510
해보라	-4511
▁link	-4512
▁redu	-4513
▁묘사해보라	-4514
release	-4515
▁explan	-4516
▁points	-4517
▁control	-4518
량을	-4519
자로	-4520
크리	-4521
함도	-4522
▁오래	-4523
이지만	-4524
pret	-4525
▁Seed	-4526
▁ener	-4527
public	-4528
urable	-4529
▁Strong	-4530
▁relative	-4531
▁aggregate	-4532
▁alternative	-4533
지고	-4534
▁검증	-4535
▁신뢰	-4536
▁제시	-4537
anced	-4538
▁form	-4539
riends	-4540
Tr	-4541
▁육	-4542
일을	-4543
▁강한	-4544
▁외부	-4545
▁운영	-4546
▁지원	-4547
려보면	-4548
elief	-4549
▁infra	-4550
▁might	-4551
▁individ	-4552
▁creating	-4553
▁feedback	-4554
▁multiple	-4555
-4	-4556
499	-4557
lag	-4558
rap	-4559
▁대체	-4560
▁도시	-4561
obal	-4562
▁있어서	-4563
▁fast	-4564
▁wall	-4565
▁요구한다	-4566
75	-4567
cv	-4568
200	-4569
www	-4570
▁더욱	-4571
tine	-4572
▁cat	-4573
▁이름은	-4574
▁Tell	-4575
▁makes	-4576
▁target	-4577
▁includes	-4578
리즘	-4579
ote	-4580
▁Cl	-4581
▁nu	-4582
▁계란	-4583
▁찾아	-4584
post	-4585
▁her	-4586
▁있다는	-4587
▁poem	-4588
▁말하자면	-4589
▁nonce	-4590
uration	-4591
▁animal	-4592
▁suggests	-4593
▁detection	-4594
체가	-4595
mph	-4596
▁전략	-4597
▁ToM	-4598
▁	-4599
e	-4600
t	-4601
a	-4602
n	-4603
i	-4604
o	-4605
s	-4606
r	-4607
l	-4608
c	-4609
m	-4610
d	-4611
h	-4612
u	-4613
.	-4614
p	-4615
g	-4616
y	-4617
f	-4618
v	-4619
,	-4620
-	-4621
의	-4622
이	-4623
다	-4624
b	-4625
:	-4626
+	-4627
는	-4628
한	-4629
기	-4630
2	-4631
w	-4632
어	-4633
자	-4634
_	-4635
1	-4636
에	-4637
0	-4638
하	-4639
을	-4640
가	-4641
)	-4642
[	-4643
]	-4644
할	-4645
은	-4646
식	-4647
지	-4648
발	-4649
국	-4650
*	-4651
k	-4652
역	-4653
로	-4654
'	-4655
니	-4656
|	-4657
견	-4658
x	-4659
/	-4660
(	-4661
고	-4662
를	-4663
I	-4664
"	-4665
T	-4666
?	-4667
A	-4668
서	-4669
시	-4670
4	-4671
인	-4672
3	-4673
S	-4674
6	-4675
정	-4676
적	-4677
있	-4678
수	-4679
사	-4680
해	-4681
으	-4682
5	-4683
C	-4684
`	-4685
리	-4686
도	-4687
요	-4688
P	-4689
과	-4690
성	-4691
E	-4692
것	-4693
나	-4694
라	-4695
대	-4696
R	-4697
문	-4698
—	-4699
M	-4700
L	-4701
상	-4702
D	-4703
아	-4704
제	-4705
N	-4706
습	-4707
스	-4708
용	-4709
합	-4710
장	-4711
보	-4712
게	-4713
B	-4714
구	-4715
=	-4716
되	-4717
면	-4718
9	-4719
전	-4720
일	-4721
W	-4722
O	-4723
7	-4724
주	-4725
부	-4726
음	-4727
그	-4728
관	-4729
F	-4730
무	-4731
들	-4732
만	-4733
입	-4734
H	-4735
위	-4736
계	-4737
와	-4738
분	-4739
체	-4740
유	-4741
모	-4742
화	-4743
여	-4744
8	-4745
j	-4746
신	-4747
조	-4748
며	-4749
q	-4750
오	-4751
동	-4752
생	-4753
경	-4754
G	-4755
질	-4756
미	-4757
z	-4758
통	-4759
결	-4760
소	-4761
단	-4762
중	-4763
공	-4764
물	-4765
된	-4766
세	-4767
간	-4768
비	-4769
#	-4770
우	-4771
때	-4772
연	-4773
방	-4774
;	-4775
속	-4776
거	-4777
각	-4778
차	-4779
선	-4780
재	-4781
르	-4782
러	-4783
명	-4784
내	-4785
답	-4786
실	-4787
개	-4788
치	-4789
작	-4790
않	-4791
드	-4792
트	-4793
진	-4794
산	-4795
반	-4796
함	-4797
번	-4798
U	-4799
설	-4800
원	-4801
엇	-4802
느	-4803
파	-4804
려	-4805
마	-4806
야	-4807
행	-4808
까	-4809
데	-4810
현	-4811
종	-4812
법	-4813
등	-4814
터	-4815
없	-4816
안	-4817
운	-4818
형	-4819
학	-4820
점	-4821
같	-4822
양	-4823
표	-4824
포	-4825
타	-4826
태	-4827
프	-4828
력	-4829
알	-4830
V	-4831
불	-4832
호	-4833
른	-4834
변	-4835
저	-4836
능	-4837
영	-4838
的	-4839
$	-4840
，	-4841
두	-4842
달	-4843
바	-4844
류	-4845
직	-4846
\	-4847
추	-4848
찰	-4849
따	-4850
었	-4851
확	-4852
델	-4853
금	-4854
히	-4855
예	-4856
출	-4857
당	-4858
감	-4859
크	-4860
약	-4861
더	-4862
별	-4863
배	-4864
참	-4865
름	-4866
래	-4867
떤	-4868
측	-4869
>	-4870
존	-4871
X	-4872
심	-4873
향	-4874
Y	-4875
료	-4876
템	-4877
회	-4878
교	-4879
강	-4880
순	-4881
레	-4882
건	-4883
{	-4884
}	-4885
열	-4886
처	-4887
색	-4888
준	-4889
키	-4890
메	-4891
피	-4892
근	-4893
또	-4894
술	-4895
토	-4896
험	-4897
떻	-4898
K	-4899
황	-4900
말	-4901
증	-4902
든	-4903
특	-4904
언	-4905
론	-4906
후	-4907
접	-4908
매	-4909
。	-4910
됩	-4911
%	-4912
록	-4913
많	-4914
년	-4915
본	-4916
했	-4917
남	-4918
루	-4919
코	-4920
임	-4921
~	-4922
판	-4923
링	-4924
카	-4925
최	-4926
절	-4927
업	-4928
환	-4929
충	-4930
택	-4931
응	-4932
J	-4933
품	-4934
낌	-4935
Φ	-4936
복	-4937
큰	-4938
람	-4939
<	-4940
초	-4941
억	-4942
격	-4943
귀	-4944
량	-4945
집	-4946
립	-4947
겠	-4948
디	-4949
션	-4950
새	-4951
목	-4952
é	-4953
활	-4954
필	-4955
좋	-4956
항	-4957
누	-4958
채	-4959
급	-4960
검	-4961
날	-4962
림	-4963
석	-4964
노	-4965
란	-4966
높	-4967
닌	-4968
외	-4969
껴	-4970
버	-4971
온	-4972
一	-4973
!	-4974
련	-4975
왜	-4976
받	-4977
독	-4978
효	-4979
널	-4980
솔	-4981
올	-4982
티	-4983
是	-4984
린	-4985
져	-4986
커	-4987
컵	-4988
였	-4989
축	-4990
곳	-4991
압	-4992
빨	-4993
민	-4994
평	-4995
→	-4996
줄	-4997
、	-4998
쓰	-4999
§	-5000
손	-5001
될	-5002
о	-5003
먹	-5004
취	-5005
슬	-5006
담	-5007
및	-5008
잘	-5009
킨	-5010
너	-5011
악	-5012
워	-5013
브	-5014
천	-5015
울	-5016
늘	-5017
규	-5018
살	-5019
못	-5020
싶	-5021
층	-5022
광	-5023
길	-5024
짓	-5025
我	-5026
Q	-5027
권	-5028
플	-5029
걸	-5030
얼	-5031
궁	-5032
네	-5033
以	-5034
잡	-5035
핵	-5036
편	-5037
а	-5038
액	-5039
움	-5040
병	-5041
았	-5042
청	-5043
머	-5044
패	-5045
므	-5046
렇	-5047
율	-5048
월	-5049
막	-5050
몇	-5051
육	-5052
밀	-5053
백	-5054
맞	-5055
철	-5056
페	-5057
께	-5058
갱	-5059
칭	-5060
테	-5061
е	-5062
탄	-5063
и	-5064
有	-5065
투	-5066
랑	-5067
끼	-5068
죽	-5069
×	-5070
던	-5071
극	-5072
т	-5073
침	-5074
≥	-5075
난	-5076
즈	-5077
친	-5078
졌	-5079
찾	-5080
흐	-5081
글	-5082
잠	-5083
염	-5084
훈	-5085
족	-5086
在	-5087
블	-5088
和	-5089
징	-5090
창	-5091
н	-5092
럼	-5093
用	-5094
완	-5095
착	-5096
값	-5097
쪽	-5098
个	-5099
군	-5100
균	-5101
뜻	-5102
먼	-5103
탐	-5104
갈	-5105
읽	-5106
송	-5107
벌	-5108
객	-5109
써	-5110
칙	-5111
얻	-5112
퍼	-5113
책	-5114
⭐	-5115
要	-5116
박	-5117
돌	-5118
볼	-5119
人	-5120
락	-5121
：	-5122
애	-5123
닫	-5124
승	-5125
겨	-5126
中	-5127
눈	-5128
범	-5129
不	-5130
짜	-5131
케	-5132
빛	-5133
베	-5134
숙	-5135
@	-5136
혼	-5137
可	-5138
下	-5139
삼	-5140
혈	-5141
긴	-5142
런	-5143
왕	-5144
럽	-5145
í	-5146
힘	-5147
풍	-5148
곡	-5149
폭	-5150
빈	-5151
р	-5152
с	-5153
붙	-5154
령	-5155
你	-5156
묻	-5157
농	-5158
ó	-5159
폐	-5160
째	-5161
클	-5162
망	-5163
á	-5164
빠	-5165
섹	-5166
·	-5167
了	-5168
 	-5169
힌	-5170
턴	-5171
틀	-5172
넣	-5173
の	-5174
긍	-5175
낮	-5176
─	-5177
콘	-5178
能	-5179
옵	-5180
례	-5181
롭	-5182
า	-5183
북	-5184
文	-5185
골	-5186
맛	-5187
씨	-5188
논	-5189
녹	-5190
획	-5191
허	-5192
렌	-5193
릴	-5194
탕	-5195
в	-5196
쳐	-5197
몸	-5198
즉	-5199
엔	-5200
흡	-5201
멈	-5202
념	-5203
탈	-5204
生	-5205
к	-5206
น	-5207
칼	-5208
&	-5209
릭	-5210
为	-5211
“	-5212
끊	-5213
램	-5214
윤	-5215
휴	-5216
꽃	-5217
랜	-5218
즘	-5219
作	-5220
렬	-5221
成	-5222
텍	-5223
쟁	-5224
켜	-5225
す	-5226
엄	-5227
を	-5228
옳	-5229
’	-5230
녀	-5231
익	-5232
략	-5233
”	-5234
률	-5235
쿨	-5236
암	-5237
앞	-5238
총	-5239
굴	-5240
콜	-5241
л	-5242
깊	-5243
如	-5244
à	-5245
м	-5246
上	-5247
갖	-5248
헤	-5249
ا	-5250
個	-5251
？	-5252
这	-5253
뒤	-5254
쉽	-5255
่	-5256
둘	-5257
묘	-5258
녕	-5259
떠	-5260
方	-5261
혀	-5262
칠	-5263
깨	-5264
늠	-5265
컴	-5266
김	-5267
い	-5268
봉	-5269
分	-5270
벽	-5271
맥	-5272
뿐	-5273
大	-5274
떨	-5275
끝	-5276
숫	-5277
到	-5278
뢰	-5279
놓	-5280
풀	-5281
学	-5282
で	-5283
님	-5284
อ	-5285
넘	-5286
캐	-5287
득	-5288
行	-5289
出	-5290
д	-5291
팔	-5292
롬	-5293
퓨	-5294
し	-5295
첫	-5296
理	-5297
뉴	-5298
п	-5299
팅	-5300
삶	-5301
他	-5302
好	-5303
您	-5304
밥	-5305
냉	-5306
Z	-5307
に	-5308
슷	-5309
у	-5310
욕	-5311
使	-5312
폰	-5313
홍	-5314
킬	-5315
地	-5316
십	-5317
팀	-5318
섭	-5319
찬	-5320
ร	-5321
촉	-5322
탁	-5323
넷	-5324
多	-5325
싸	-5326
⊥	-5327
낸	-5328
เ	-5329
렵	-5330
ل	-5331
협	-5332
뇌	-5333
왔	-5334
푸	-5335
츠	-5336
ä	-5337
즐	-5338
来	-5339
휘	-5340
곤	-5341
て	-5342
ม	-5343
は	-5344
年	-5345
提	-5346
냄	-5347
센	-5348
옥	-5349
^	-5350
家	-5351
납	-5352
껍	-5353
깔	-5354
웨	-5355
る	-5356
갑	-5357
于	-5358
흔	-5359
희	-5360
式	-5361
슨	-5362
털	-5363
슈	-5364
잔	-5365
ง	-5366
곱	-5367
덕	-5368
子	-5369
닥	-5370
自	-5371
些	-5372
法	-5373
쉬	-5374
้	-5375
面	-5376
킹	-5377
꺼	-5378
꾸	-5379
돈	-5380
섬	-5381
렸	-5382
옷	-5383
た	-5384
둥	-5385
ま	-5386
ー	-5387
죄	-5388
я	-5389
小	-5390
ย	-5391
릅	-5392
셔	-5393
ก	-5394
괴	-5395
è	-5396
定	-5397
程	-5398
之	-5399
뿌	-5400
力	-5401
同	-5402
척	-5403
对	-5404
と	-5405
밤	-5406
↔	-5407
쇄	-5408
其	-5409
빵	-5410
会	-5411
果	-5412
핑	-5413
ว	-5414
℃	-5415
数	-5416
ç	-5417
욱	-5418
们	-5419
뜨	-5420
혹	-5421
놀	-5422
닙	-5423
헌	-5424
么	-5425
ö	-5426
з	-5427
时	-5428
잎	-5429
ь	-5430
什	-5431
났	-5432
앙	-5433
밍	-5434
ี	-5435
因	-5436
字	-5437
需	-5438
י	-5439
解	-5440
本	-5441
ω	-5442
题	-5443
├	-5444
ê	-5445
性	-5446
ו	-5447
名	-5448
찍	-5449
톤	-5450
ы	-5451
좌	-5452
信	-5453
벨	-5454
學	-5455
ั	-5456
왼	-5457
表	-5458
씩	-5459
밝	-5460
–	-5461
が	-5462
콩	-5463
想	-5464
得	-5465
첨	-5466
흰	-5467
這	-5468
常	-5469
问	-5470
몰	-5471
语	-5472
（	-5473
写	-5474
通	-5475
高	-5476
컨	-5477
）	-5478
돼	-5479
な	-5480
ã	-5481
م	-5482
所	-5483
工	-5484
物	-5485
知	-5486
б	-5487
닦	-5488
줘	-5489
컬	-5490
홀	-5491
•	-5492
合	-5493
等	-5494
딩	-5495
主	-5496
쌍	-5497
웹	-5498
建	-5499
日	-5500
붕	-5501
ي	-5502
짧	-5503
섯	-5504
멍	-5505
헥	-5506
《	-5507
请	-5508
꼬	-5509
ㆍ	-5510
춘	-5511
者	-5512
或	-5513
뒷	-5514
땅	-5515
짝	-5516
并	-5517
》	-5518
何	-5519
뼈	-5520
쿠	-5521
딸	-5522
밖	-5523
新	-5524
릿	-5525
픽	-5526
ü	-5527
뮤	-5528
섞	-5529
줍	-5530
時	-5531
最	-5532
现	-5533
삭	-5534
发	-5535
넓	-5536
쇠	-5537
公	-5538
求	-5539
덜	-5540
싱	-5541
容	-5542
멀	-5543
벗	-5544
맨	-5545
붉	-5546
빙	-5547
튼	-5548
앉	-5549
内	-5550
情	-5551
랫	-5552
흥	-5553
й	-5554
种	-5555
셀	-5556
숨	-5557
틴	-5558
륙	-5559
都	-5560
벤	-5561
為	-5562
큼	-5563
ท	-5564
事	-5565
뭐	-5566
핀	-5567
加	-5568
意	-5569
퀴	-5570
폴	-5571
它	-5572
明	-5573
쳤	-5574
끄	-5575
홈	-5576
体	-5577
랍	-5578
몬	-5579
量	-5580
롯	-5581
낙	-5582
г	-5583
問	-5584
쌀	-5585
ห	-5586
更	-5587
혁	-5588
件	-5589
品	-5590
≤	-5591
前	-5592
化	-5593
国	-5594
렴	-5595
代	-5596
回	-5597
型	-5598
重	-5599
빌	-5600
틱	-5601
就	-5602
目	-5603
也	-5604
很	-5605
然	-5606
來	-5607
而	-5608
팬	-5609
过	-5610
道	-5611
水	-5612
答	-5613
請	-5614
进	-5615
젝	-5616
ל	-5617
天	-5618
냅	-5619
Δ	-5620
ر	-5621
ไ	-5622
밸	-5623
供	-5624
곰	-5625
낼	-5626
콤	-5627
텔	-5628
后	-5629
教	-5630
活	-5631
相	-5632
멘	-5633
か	-5634
格	-5635
꼭	-5636
죠	-5637
度	-5638
「	-5639
」	-5640
륨	-5641
헬	-5642
入	-5643
将	-5644
짐	-5645
心	-5646
셨	-5647
텐	-5648
퇴	-5649
实	-5650
듭	-5651
뛰	-5652
动	-5653
즌	-5654
칸	-5655
펴	-5656
픈	-5657
ะ	-5658
딱	-5659
帮	-5660
닝	-5661
좀	-5662
톱	-5663
흑	-5664
关	-5665
끌	-5666
但	-5667
模	-5668
캔	-5669
탑	-5670
こ	-5671
接	-5672
位	-5673
做	-5674
會	-5675
냐	-5676
닐	-5677
덩	-5678
具	-5679
原	-5680
示	-5681
言	-5682
둔	-5683
ч	-5684
ת	-5685
끗	-5686
융	-5687
핸	-5688
і	-5689
ت	-5690
ล	-5691
ン	-5692
息	-5693
겹	-5694
꿀	-5695
됨	-5696
뚜	-5697
밑	-5698
จ	-5699
及	-5700
랙	-5701
り	-5702
感	-5703
流	-5704
롤	-5705
엘	-5706
さ	-5707
겼	-5708
例	-5709
系	-5710
튀	-5711
全	-5712
助	-5713
取	-5714
开	-5715
点	-5716
ด	-5717
被	-5718
れ	-5719
色	-5720
đ	-5721
看	-5722
部	-5723
썬	-5724
业	-5725
特	-5726
닉	-5727
少	-5728
룬	-5729
ב	-5730
三	-5731
指	-5732
说	-5733
那	-5734
듬	-5735
렉	-5736
ה	-5737
ต	-5738
考	-5739
設	-5740
멸	-5741
包	-5742
ป	-5743
資	-5744
뀌	-5745
و	-5746
う	-5747
動	-5748
갔	-5749
꿈	-5750
끈	-5751
빗	-5752
쌓	-5753
펜	-5754
х	-5755
服	-5756
ú	-5757
话	-5758
计	-5759
걀	-5760
깃	-5761
옆	-5762
틸	-5763
‘	-5764
月	-5765
計	-5766
낳	-5767
앨	-5768
据	-5769
经	-5770
끓	-5771
슘	-5772
ж	-5773
ن	-5774
ส	-5775
片	-5776
題	-5777
궤	-5778
냥	-5779
셜	-5780
춰	-5781
팽	-5782
د	-5783
与	-5784
웃	-5785
젤	-5786
ค	-5787
く	-5788
司	-5789
應	-5790
每	-5791
第	-5792
띠	-5793
쇼	-5794
튜	-5795
แ	-5796
次	-5797
由	-5798
닭	-5799
맡	-5800
잉	-5801
룩	-5802
폼	-5803
只	-5804
安	-5805
쓴	-5806
엽	-5807
保	-5808
手	-5809
案	-5810
比	-5811
间	-5812
듯	-5813
컷	-5814
對	-5815
应	-5816
类	-5817
룹	-5818
ě	-5819
あ	-5820
展	-5821
켓	-5822
η	-5823
ス	-5824
現	-5825
老	-5826
첩	-5827
ب	-5828
任	-5829
列	-5830
去	-5831
美	-5832
굽	-5833
台	-5834
己	-5835
듣	-5836
탱	-5837
ใ	-5838
됐	-5839
멜	-5840
펌	-5841
ר	-5842
ื	-5843
影	-5844
數	-5845
金	-5846
制	-5847
מ	-5848
此	-5849
起	-5850
겪	-5851
잃	-5852
市	-5853
벼	-5854
혜	-5855
띄	-5856
앗	-5857
팡	-5858
ש	-5859
户	-5860
期	-5861
춤	-5862
쿼	-5863
客	-5864
끔	-5865
듈	-5866
쥐	-5867
°	-5868
並	-5869
务	-5870
基	-5871
给	-5872
麼	-5873
걱	-5874
믹	-5875
옛	-5876
흙	-5877
…	-5878
无	-5879
述	-5880
흘	-5881
א	-5882
步	-5883
英	-5884
č	-5885
技	-5886
だ	-5887
뷰	-5888
씻	-5889
世	-5890
們	-5891
整	-5892
算	-5893
굳	-5894
與	-5895
눌	-5896
샘	-5897
ة	-5898
告	-5899
於	-5900
봇	-5901
솜	-5902
外	-5903
後	-5904
正	-5905
體	-5906
늬	-5907
졸	-5908
ト	-5909
完	-5910
덮	-5911
믿	-5912
얇	-5913
ら	-5914
且	-5915
食	-5916
땀	-5917
商	-5918
思	-5919
管	-5920
묶	-5921
빼	-5922
웠	-5923
き	-5924
利	-5925
形	-5926
持	-5927
ı	-5928
š	-5929
ю	-5930
两	-5931
设	-5932
身	-5933
펙	-5934
哪	-5935
캡	-5936
！	-5937
っ	-5938
女	-5939
根	-5940
굵	-5941
앤	-5942
엉	-5943
찌	-5944
칩	-5945
里	-5946
ル	-5947
存	-5948
段	-5949
路	-5950
랐	-5951
숭	-5952
ช	-5953
当	-5954
機	-5955
非	-5956
ข	-5957
บ	-5958
밴	-5959
켰	-5960
料	-5961
机	-5962
種	-5963
낄	-5964
│	-5965
元	-5966
向	-5967
图	-5968
發	-5969
直	-5970
立	-5971
봄	-5972
å	-5973
過	-5974
늄	-5975
햇	-5976
区	-5977
游	-5978
뉘	-5979
샤	-5980
톨	-5981
ñ	-5982
ه	-5983
句	-5984
平	-5985
語	-5986
點	-5987
랭	-5988
맹	-5989
븐	-5990
셋	-5991
쾌	-5992
ิ	-5993
吗	-5994
没	-5995
킵	-5996
팩	-5997
界	-5998
냈	-5999
젖	-6000
좁	-6001
书	-6002
묵	-6003
씬	-6004
횡	-6005
ý	-6006
王	-6007
科	-6008
网	-6009
進	-6010
곧	-6011
떡	-6012
变	-6013
國	-6014
素	-6015
结	-6016
間	-6017
關	-6018
集	-6019
덤	-6020
돕	-6021
얀	-6022
큐	-6023
ž	-6024
各	-6025
業	-6026
爱	-6027
电	-6028
长	-6029
녁	-6030
렀	-6031
뭔	-6032
ع	-6033
产	-6034
改	-6035
說	-6036
该	-6037
괄	-6038
깥	-6039
룡	-6040
싼	-6041
훨	-6042
α	-6043
口	-6044
開	-6045
겐	-6046
뱀	-6047
ô	-6048
も	-6049
受	-6050
已	-6051
论	-6052
让	-6053
슴	-6054
팁	-6055
ư	-6056
交	-6057
描	-6058
空	-6059
质	-6060
从	-6061
密	-6062
把	-6063
组	-6064
え	-6065
先	-6066
器	-6067
西	-6068
랄	-6069
イ	-6070
再	-6071
民	-6072
确	-6073
究	-6074
떼	-6075
랩	-6076
럴	-6077
벳	-6078
뵙	-6079
쓸	-6080
â	-6081
㎜	-6082
快	-6083
怎	-6084
望	-6085
注	-6086
研	-6087
碼	-6088
音	-6089
덱	-6090
힐	-6091
τ	-6092
ш	-6093
⬛	-6094
ド	-6095
リ	-6096
师	-6097
析	-6098
着	-6099
码	-6100
翻	-6101
项	-6102
걷	-6103
껑	-6104
뽑	-6105
ц	-6106
็	-6107
创	-6108
效	-6109
节	-6110
몽	-6111
共	-6112
功	-6113
始	-6114
收	-6115
當	-6116
章	-6117
统	-6118
ف	-6119
ی	-6120
ッ	-6121
角	-6122
诗	-6123
둑	-6124
윈	-6125
젓	-6126
촬	-6127
境	-6128
幫	-6129
样	-6130
运	-6131
덴	-6132
뚝	-6133
几	-6134
试	-6135
롱	-6136
옮	-6137
＞	-6138
ộ	-6139
よ	-6140
プ	-6141
內	-6142
景	-6143
未	-6144
标	-6145
首	-6146
뚫	-6147
룰	-6148
봤	-6149
つ	-6150
含	-6151
四	-6152
社	-6153
认	-6154
닿	-6155
똑	-6156
め	-6157
习	-6158
十	-6159
符	-6160
造	-6161
電	-6162
릇	-6163
씀	-6164
ק	-6165
や	-6166
ん	-6167
ク	-6168
二	-6169
别	-6170
喜	-6171
场	-6172
处	-6173
序	-6174
查	-6175
神	-6176
花	-6177
號	-6178
融	-6179
识	-6180
س	-6181
像	-6182
將	-6183
還	-6184
닷	-6185
μ	-6186
命	-6187
必	-6188
括	-6189
白	-6190
겉	-6191
值	-6192
師	-6193
源	-6194
编	-6195
넛	-6196
נ	-6197
专	-6198
单	-6199
号	-6200
겁	-6201
껌	-6202
럭	-6203
웅	-6204
⬜	-6205
お	-6206
员	-6207
导	-6208
才	-6209
推	-6210
網	-6211
펀	-6212
ำ	-6213
义	-6214
圖	-6215
她	-6216
猫	-6217
真	-6218
삽	-6219
ą	-6220
ę	-6221
כ	-6222
戶	-6223
找	-6224
故	-6225
清	-6226
画	-6227
线	-6228
观	-6229
뮬	-6230
잇	-6231
캠	-6232
ם	-6233
ุ	-6234
嗎	-6235
放	-6236
族	-6237
春	-6238
术	-6239
著	-6240
还	-6241
렛	-6242
봅	-6243
쁜	-6244
쏘	-6245
∼	-6246
ど	-6247
ア	-6248
否	-6249
照	-6250
视	-6251
象	-6252
近	-6253
셰	-6254
윗	-6255
젠	-6256
찐	-6257
펠	-6258
²	-6259
¿	-6260
ф	-6261
优	-6262
参	-6263
校	-6264
촌	-6265
õ	-6266
ř	-6267
✅	-6268
气	-6269
端	-6270
識	-6271
윌	-6272
ك	-6273
√	-6274
マ	-6275
希	-6276
球	-6277
男	-6278
词	-6279
꽂	-6280
늦	-6281
랗	-6282
샐	-6283
숲	-6284
ạ	-6285
∈	-6286
介	-6287
場	-6288
站	-6289
译	-6290
運	-6291
넌	-6292
슐	-6293
ć	-6294
據	-6295
称	-6296
證	-6297
资	-6298
选	-6299
뇨	-6300
찮	-6301
ע	-6302
光	-6303
卡	-6304
复	-6305
構	-6306
確	-6307
置	-6308
超	-6309
앱	-6310
ł	-6311
└	-6312
传	-6313
味	-6314
失	-6315
深	-6316
統	-6317
習	-6318
質	-6319
速	-6320
類	-6321
엑	-6322
햄	-6323
헨	-6324
ả	-6325
便	-6326
別	-6327
南	-6328
引	-6329
投	-6330
短	-6331
經	-6332
股	-6333
议	-6334
괜	-6335
낍	-6336
ج	-6337
ق	-6338
พ	-6339
カ	-6340
寫	-6341
易	-6342
밟	-6343
봐	-6344
찹	-6345
¡	-6346
π	-6347
け	-6348
五	-6349
友	-6350
呢	-6351
太	-6352
山	-6353
沒	-6354
联	-6355
讓	-6356
读	-6357
맺	-6358
ถ	-6359
历	-6360
海	-6361
產	-6362
至	-6363
记	-6364
넬	-6365
멋	-6366
벡	-6367
썼	-6368
핫	-6369
ă	-6370
щ	-6371
خ	-6372
ラ	-6373
反	-6374
域	-6375
演	-6376
维	-6377
덧	-6378
켈	-6379
；	-6380
ד	-6381
ح	-6382
コ	-6383
ロ	-6384
候	-6385
周	-6386
满	-6387
状	-6388
简	-6389
該	-6390
调	-6391
限	-6392
깝	-6393
듀	-6394
셈	-6395
씹	-6396
콥	-6397
팝	-6398
ס	-6399
ệ	-6400
タ	-6401
㎝	-6402
今	-6403
价	-6404
古	-6405
态	-6406
母	-6407
結	-6408
術	-6409
转	-6410
앵	-6411
힙	-6412
ص	-6413
ジ	-6414
准	-6415
差	-6416
政	-6417
智	-6418
標	-6419
欢	-6420
风	-6421
눅	-6422
찜	-6423
팥	-6424
そ	-6425
シ	-6426
テ	-6427
份	-6428
微	-6429
玩	-6430
篇	-6431
致	-6432
議	-6433
证	-6434
꾼	-6435
댐	-6436
ח	-6437
ủ	-6438
フ	-6439
史	-6440
吃	-6441
备	-6442
尽	-6443
构	-6444
病	-6445
院	-6446
꼼	-6447
딜	-6448
딪	-6449
밭	-6450
컫	-6451
פ	-6452
北	-6453
又	-6454
報	-6455
恋	-6456
打	-6457
某	-6458
消	-6459
率	-6460
级	-6461
課	-6462
갓	-6463
댄	-6464
둡	-6465
멕	-6466
빅	-6467
썩	-6468
웰	-6469
헹	-6470
ế	-6471
嗯	-6472
士	-6473
州	-6474
概	-6475
见	-6476
記	-6477
连	-6478
붓	-6479
빔	-6480
싫	-6481
펭	-6482
혔	-6483
Ω	-6484
ش	-6485
・	-6486
住	-6487
获	-6488
選	-6489
驗	-6490
렷	-6491
볍	-6492
잭	-6493
챙	-6494
ì	-6495
ט	-6496
ố	-6497
星	-6498
書	-6499
樣	-6500
簡	-6501
認	-6502
깎	-6503
깜	-6504
땡	-6505
찢	-6506
흉	-6507
ο	-6508
ち	-6509
况	-6510
划	-6511
務	-6512
單	-6513
增	-6514
头	-6515
总	-6516
拉	-6517
林	-6518
無	-6519
組	-6520
红	-6521
除	-6522
꼽	-6523
쁘	-6524
얹	-6525
줌	-6526
쭉	-6527
펼	-6528
ε	-6529
せ	-6530
切	-6531
策	-6532
装	-6533
話	-6534
诉	-6535
输	-6536
边	-6537
频	-6538
귄	-6539
낭	-6540
얕	-6541
젊	-6542
짤	-6543
팸	-6544
핏	-6545
э	-6546
ط	-6547
充	-6548
即	-6549
實	-6550
念	-6551
治	-6552
環	-6553
變	-6554
솟	-6555
횟	-6556
	-6557
Ω	-6558
决	-6559
幾	-6560
强	-6561
排	-6562
樂	-6563
給	-6564
细	-6565
赛	-6566
車	-6567
领	-6568
꿔	-6569
맑	-6570
텀	-6571
튤	-6572
ợ	-6573
张	-6574
房	-6575
操	-6576
支	-6577
架	-6578
米	-6579
訊	-6580
足	-6581
车	-6582
낀	-6583
딥	-6584
렁	-6585
뿜	-6586
±	-6587
ể	-6588
亲	-6589
戏	-6590
测	-6591
练	-6592
裡	-6593
長	-6594
딕	-6595
뤄	-6596
뿔	-6597
콧	-6598
픔	-6599
î	-6600
则	-6601
從	-6602
核	-6603
略	-6604
难	-6605
뜬	-6606
퀵	-6607
ù	-6608
ρ	-6609
函	-6610
吧	-6611
土	-6612
城	-6613
广	-6614
抱	-6615
死	-6616
福	-6617
輸	-6618
较	-6619
配	-6620
错	-6621
門	-6622
곽	-6623
긋	-6624
맵	-6625
숟	-6626
왁	-6627
첼	-6628
킷	-6629
펄	-6630
レ	-6631
修	-6632
够	-6633
岁	-6634
探	-6635
旅	-6636
朋	-6637
毛	-6638
評	-6639
费	-6640
越	-6641
释	-6642
뺀	-6643
얘	-6644
ż	-6645
ム	-6646
居	-6647
灣	-6648
甲	-6649
精	-6650
育	-6651
般	-6652
落	-6653
곁	-6654
샴	-6655
썰	-6656
훼	-6657
ů	-6658
ụ	-6659
ㄹ	-6660
令	-6661
則	-6662
富	-6663
录	-6664
条	-6665
留	-6666
細	-6667
透	-6668
適	-6669
香	-6670
꾹	-6671
릎	-6672
뱅	-6673
뻐	-6674
섀	-6675
쯤	-6676
풋	-6677
θ	-6678
П	-6679
​	-6680
兩	-6681
判	-6682
張	-6683
报	-6684
控	-6685
续	-6686
製	-6687
麦	-6688
굉	-6689
눠	-6690
얽	-6691
촘	-6692
킥	-6693
ν	-6694
צ	-6695
串	-6696
低	-6697
假	-6698
兴	-6699
右	-6700
專	-6701
布	-6702
愛	-6703
氣	-6704
索	-6705
論	-6706
达	-6707
门	-6708
队	-6709
갚	-6710
꼈	-6711
낫	-6712
돋	-6713
렐	-6714
뻗	-6715
쁨	-6716
칫	-6717
캘	-6718
탭	-6719
ู	-6720
ờ	-6721
ㄴ	-6722
健	-6723
响	-6724
早	-6725
決	-6726
準	-6727
私	-6728
群	-6729
脑	-6730
评	-6731
课	-6732
适	-6733
達	-6734
际	-6735
響	-6736
갤	-6737
볕	-6738
얗	-6739
ớ	-6740
„	-6741
㎏	-6742
乐	-6743
互	-6744
初	-6745
導	-6746
尔	-6747
座	-6748
康	-6749
曲	-6750
江	-6751
热	-6752
百	-6753
笔	-6754
義	-6755
追	-6756
겔	-6757
뉩	-6758
짠	-6759
헐	-6760
み	-6761
デ	-6762
冠	-6763
吸	-6764
員	-6765
濟	-6766
独	-6767
环	-6768
異	-6769
络	-6770
處	-6771
规	-6772
觉	-6773
验	-6774
骤	-6775
긁	-6776
볶	-6777
뾰	-6778
샌	-6779
쌈	-6780
쥬	-6781
혐	-6782
ภ	-6783
东	-6784
京	-6785
備	-6786
减	-6787
店	-6788
按	-6789
播	-6790
火	-6791
繁	-6792
约	-6793
缺	-6794
良	-6795
营	-6796
键	-6797
귤	-6798
넥	-6799
늑	-6800
뷔	-6801
챗	-6802
ß	-6803
ś	-6804
أ	-6805
グ	-6806
似	-6807
傳	-6808
六	-6809
團	-6810
妈	-6811
季	-6812
带	-6813
扮	-6814
断	-6815
材	-6816
檔	-6817
歉	-6818
止	-6819
父	-6820
献	-6821
票	-6822
积	-6823
視	-6824
遊	-6825
防	-6826
뎅	-6827
뱉	-6828
즙	-6829
턱	-6830
ェ	-6831
セ	-6832
企	-6833
係	-6834
價	-6835
团	-6836
室	-6837
左	-6838
库	-6839
彩	-6840
拟	-6841
移	-6842
绍	-6843
训	-6844
许	-6845
走	-6846
轉	-6847
驟	-6848
눔	-6849
륜	-6850
빡	-6851
잼	-6852
탠	-6853
γ	-6854
ๆ	-6855
➕	-6856
メ	-6857
九	-6858
優	-6859
军	-6860
創	-6861
換	-6862
波	-6863
艺	-6864
茶	-6865
規	-6866
調	-6867
阿	-6868
青	-6869
页	-6870
돔	-6871
릉	-6872
샷	-6873
엠	-6874
윙	-6875
잊	-6876
퉁	-6877
û	-6878
ι	-6879
К	-6880
،	-6881
围	-6882
址	-6883
底	-6884
律	-6885
晚	-6886
申	-6887
送	-6888
黄	-6889
낯	-6890
덥	-6891
딘	-6892
럿	-6893
짙	-6894
큽	-6895
텝	-6896
틈	-6897
ø	-6898
О	-6899
儿	-6900
升	-6901
另	-6902
套	-6903
属	-6904
往	-6905
志	-6906
東	-6907
歌	-6908
烂	-6909
狗	-6910
省	-6911
眼	-6912
續	-6913
見	-6914
觀	-6915
訴	-6916
詞	-6917
較	-6918
連	-6919
黑	-6920
닛	-6921
숍	-6922
옇	-6923
켤	-6924
퀸	-6925
ฉ	-6926
　	-6927
チ	-6928
叫	-6929
困	-6930
墊	-6931
夜	-6932
夠	-6933
夫	-6934
宇	-6935
官	-6936
宮	-6937
尚	-6938
戲	-6939
施	-6940
款	-6941
気	-6942
济	-6943
班	-6944
節	-6945
級	-6946
职	-6947
若	-6948
讀	-6949
谁	-6950
谢	-6951
項	-6952
鲜	-6953
겸	-6954
깅	-6955
댓	-6956
돗	-6957
뻥	-6958
쉴	-6959
＜	-6960
＝	-6961
σ	-6962
ג	-6963
ศ	-6964
ษ	-6965
ョ	-6966
万	-6967
仍	-6968
克	-6969
医	-6970
叙	-6971
待	-6972
显	-6973
條	-6974
範	-6975
终	-6976
羲	-6977
趣	-6978
跟	-6979
饭	-6980
魚	-6981
龙	-6982
둠	-6983
벅	-6984
빚	-6985
쏟	-6986
짚	-6987
쪼	-6988
튬	-6989
푼	-6990
ş	-6991
ז	-6992
バ	-6993
ペ	-6994
享	-6995
免	-6996
养	-6997
啊	-6998
孩	-6999
擇	-7000
极	-7001
洲	-7002
糖	-7003
草	-7004
血	-7005
酒	-7006
際	-7007
顯	-7008
깁	-7009
숯	-7010
짱	-7011
쫓	-7012
퐁	-7013
핍	-7014
훔	-7015
휠	-7016
์	-7017
わ	-7018
估	-7019
停	-7020
八	-7021
射	-7022
庫	-7023
承	-7024
检	-7025
版	-7026
皮	-7027
稱	-7028
總	-7029
误	-7030
迎	-7031
返	-7032
邊	-7033
鄉	-7034
阅	-7035
阳	-7036
預	-7037
닮	-7038
똥	-7039
찻	-7040
톰	-7041
펑	-7042
ề	-7043
ℓ	-7044
○	-7045
ば	-7046
ウ	-7047
乘	-7048
办	-7049
千	-7050
協	-7051
卷	-7052
參	-7053
媒	-7054
德	-7055
择	-7056
普	-7057
框	-7058
沟	-7059
登	-7060
積	-7061
背	-7062
藏	-7063
虑	-7064
裝	-7065
详	-7066
費	-7067
関	-7068
餐	-7069
꼴	-7070
딧	-7071
맘	-7072
밋	-7073
샀	-7074
잣	-7075
켄	-7076
쿤	-7077
흩	-7078
β	-7079
λ	-7080
Н	-7081
ผ	-7082
ị	-7083
ィ	-7084
サ	-7085
ブ	-7086
善	-7087
坐	-7088
弃	-7089
招	-7090
换	-7091
採	-7092
桥	-7093
溪	-7094
灵	-7095
离	-7096
笑	-7097
粒	-7098
肉	-7099
莓	-7100
菜	-7101
蛋	-7102
許	-7103
講	-7104
護	-7105
轮	-7106
遇	-7107
邦	-7108
鐘	-7109
갛	-7110
딴	-7111
뜯	-7112
콰	-7113
️	-7114
É	-7115
ò	-7116
Д	-7117
ز	-7118
ض	-7119
ấ	-7120
ữ	-7121
仅	-7122
众	-7123
佛	-7124
典	-7125
刻	-7126
固	-7127
忙	-7128
急	-7129
拍	-7130
斯	-7131
朝	-7132
牌	-7133
田	-7134
畫	-7135
益	-7136
签	-7137
線	-7138
绘	-7139
询	-7140
轻	-7141
辑	-7142
辦	-7143
顾	-7144
预	-7145
马	-7146
鱼	-7147
녔	-7148
렘	-7149
뭉	-7150
솥	-7151
촛	-7152
－	-7153
ā	-7154
υ	-7155
ן	-7156
ى	-7157
ک	-7158
ณ	-7159
ậ	-7160
∙	-7161
⊕	-7162
ゲ	-7163
ユ	-7164
乙	-7165
佳	-7166
変	-7167
局	-7168
府	-7169
异	-7170
抽	-7171
李	-7172
楼	-7173
歲	-7174
汉	-7175
況	-7176
添	-7177
症	-7178
础	-7179
維	-7180
複	-7181
讲	-7182
逐	-7183
野	-7184
销	-7185
附	-7186
頭	-7187
갯	-7188
궈	-7189
멤	-7190
뭇	-7191
뱃	-7192
옹	-7193
왈	-7194
쭈	-7195
æ	-7196
إ	-7197
ा	-7198
ご	-7199
ょ	-7200
ナ	-7201
㎡	-7202
举	-7203
争	-7204
亚	-7205
區	-7206
半	-7207
奖	-7208
実	-7209
尊	-7210
岛	-7211
巴	-7212
帶	-7213
庭	-7214
強	-7215
拥	-7216
檢	-7217
沉	-7218
激	-7219
疑	-7220
稿	-7221
衣	-7222
買	-7223
跑	-7224
邮	-7225
領	-7226
챔	-7227
ך	-7228
‰	-7229
€	-7230
パ	-7231
ㅠ	-7232
临	-7233
亮	-7234
余	-7235
倫	-7236
凡	-7237
击	-7238
吉	-7239
售	-7240
夏	-7241
害	-7242
察	-7243
执	-7244
授	-7245
敬	-7246
植	-7247
温	-7248
測	-7249
漫	-7250
營	-7251
礼	-7252
腐	-7253
詳	-7254
譯	-7255
购	-7256
鐵	-7257
链	-7258
龄	-7259
꽤	-7260
돛	-7261
뭘	-7262
썹	-7263
쫄	-7264
찔	-7265
푹	-7266
ς	-7267
◦	-7268
ズ	-7269
ダ	-7270
ツ	-7271
ミ	-7272
冷	-7273
努	-7274
午	-7275
华	-7276
听	-7277
哥	-7278
唯	-7279
圣	-7280
声	-7281
审	-7282
島	-7283
径	-7284
战	-7285
木	-7286
板	-7287
涉	-7288
石	-7289
破	-7290
祝	-7291
筑	-7292
紹	-7293
編	-7294
練	-7295
绩	-7296
范	-7297
華	-7298
蘋	-7299
親	-7300
访	-7301
酸	-7302
采	-7303
順	-7304
風	-7305
겟	-7306
늙	-7307
뎀	-7308
맷	-7309
뭄	-7310
씁	-7311
앓	-7312
엎	-7313
콕	-7314
탔	-7315
헷	-7316
ő	-7317
κ	-7318
ซ	-7319
ึ	-7320
ồ	-7321
ự	-7322
≠	-7323
キ	-7324
久	-7325
买	-7326
依	-7327
俗	-7328
孔	-7329
層	-7330
態	-7331
懂	-7332
拿	-7333
欧	-7334
润	-7335
減	-7336
爸	-7337
発	-7338
盒	-7339
秋	-7340
穿	-7341
突	-7342
绝	-7343
聚	-7344
聲	-7345
腦	-7346
訓	-7347
贴	-7348
贵	-7349
远	-7350
避	-7351
雪	-7352
養	-7353
갇	-7354
깐	-7355
뚱	-7356
랏	-7357
뻔	-7358
삐	-7359
엌	-7360
춥	-7361
춧	-7362
칵	-7363
킴	-7364
툼	-7365
	-7366
В	-7367
М	-7368
△	-7369
【	-7370
】	-7371
じ	-7372
エ	-7373
オ	-7374
ザ	-7375
付	-7376
储	-7377
僅	-7378
刘	-7379
劳	-7380
却	-7381
双	-7382
叶	-7383
君	-7384
哲	-7385
园	-7386
奥	-7387
姓	-7388
干	-7389
幸	-7390
担	-7391
杂	-7392
梦	-7393
沙	-7394
油	-7395
泛	-7396
浪	-7397
爲	-7398
瓜	-7399
築	-7400
約	-7401
試	-7402
订	-7403
途	-7404
遠	-7405
醒	-7406
鍵	-7407
随	-7408
顺	-7409
룸	-7410
쑤	-7411
엷	-7412
텅	-7413
«	-7414
»	-7415
ή	-7416
С	-7417
↪	-7418
●	-7419
ろ	-7420
ポ	-7421
乡	-7422
冒	-7423
势	-7424
勢	-7425
坏	-7426
奇	-7427
宝	-7428
巨	-7429
帳	-7430
幣	-7431
弯	-7432
征	-7433
循	-7434
忆	-7435
批	-7436
掉	-7437
搜	-7438
摄	-7439
斷	-7440
曾	-7441
柚	-7442
柳	-7443
泳	-7444
灯	-7445
痛	-7446
簽	-7447
終	-7448
羊	-7449
興	-7450
舉	-7451
茄	-7452
虚	-7453
街	-7454
補	-7455
覺	-7456
財	-7457
软	-7458
銷	-7459
錢	-7460
银	-7461
降	-7462
難	-7463
雨	-7464
頁	-7465
궐	-7466
꽉	-7467
넨	-7468
댑	-7469
섰	-7470
썸	-7471
캥	-7472
쾨	-7473
펫	-7474
흠	-7475
＋	-7476
ğ	-7477
ń	-7478
ơ	-7479
ί	-7480
Ч	-7481
े	-7482
โ	-7483
ọ	-7484
≈	-7485
ネ	-7486
ビ	-7487
ュ	-7488
丽	-7489
亡	-7490
偏	-7491
哈	-7492
圈	-7493
圾	-7494
垃	-7495
媽	-7496
孤	-7497
尝	-7498
憶	-7499
扩	-7500
措	-7501
攻	-7502
杯	-7503
權	-7504
池	-7505
混	-7506
獲	-7507
租	-7508
箱	-7509
籍	-7510
縣	-7511
聞	-7512
臺	-7513
苦	-7514
负	-7515
责	-7516
辨	-7517
迷	-7518
醫	-7519
錄	-7520
闻	-7521
险	-7522
귓	-7523
깬	-7524
껏	-7525
놈	-7526
둬	-7527
땜	-7528
싹	-7529
읍	-7530
췄	-7531
톡	-7532
퓸	-7533
헛	-7534
ĩ	-7535
δ	-7536
न	-7537
ल	-7538
ฐ	-7539
ฟ	-7540
ặ	-7541
ỗ	-7542
〈	-7543
〉	-7544
丰	-7545
乎	-7546
兰	-7547
兵	-7548
农	-7549
勇	-7550
卑	-7551
印	-7552
块	-7553
堆	-7554
填	-7555
対	-7556
尾	-7557
席	-7558
废	-7559
怕	-7560
搭	-7561
旨	-7562
替	-7563
权	-7564
束	-7565
柔	-7566
柯	-7567
極	-7568
樹	-7569
歡	-7570
永	-7571
滿	-7572
産	-7573
监	-7574
盘	-7575
盡	-7576
秒	-7577
縫	-7578
织	-7579
绕	-7580
署	-7581
聊	-7582
聘	-7583
苹	-7584
袋	-7585
詩	-7586
讨	-7587
貨	-7588
财	-7589
货	-7590
距	-7591
輯	-7592
载	-7593
逻	-7594
釋	-7595
險	-7596
離	-7597
鸡	-7598
깍	-7599
눕	-7600
뽁	-7601
샵	-7602
숏	-7603
슛	-7604
싣	-7605
쏠	-7606
씌	-7607
옐	-7608
옴	-7609
욥	-7610
캉	-7611
컸	-7612
쿰	-7613
팜	-7614
팠	-7615
퍅	-7616
Ç	-7617
ț	-7618
ئ	-7619
ً	-7620
क	-7621
ở	-7622
ニ	-7623
ャ	-7624
予	-7625
倒	-7626
兔	-7627
冬	-7628
压	-7629
厘	-7630
呈	-7631
呼	-7632
均	-7633
央	-7634
妻	-7635
层	-7636
幻	-7637
惠	-7638
慮	-7639
截	-7640
抖	-7641
抗	-7642
挑	-7643
損	-7644
摘	-7645
散	-7646
棋	-7647
歷	-7648
河	-7649
派	-7650
液	-7651
淡	-7652
渡	-7653
硕	-7654
秀	-7655
竞	-7656
粉	-7657
紧	-7658
纸	-7659
继	-7660
罗	-7661
聯	-7662
脚	-7663
芒	-7664
蘭	-7665
討	-7666
註	-7667
載	-7668
针	-7669
零	-7670
顧	-7671
飞	-7672
꽁	-7673
뀔	-7674
낱	-7675
밧	-7676
뽀	-7677
앰	-7678
쪄	-7679
켠	-7680
ș	-7681
φ	-7682
ї	-7683
ث	-7684
ầ	-7685
↑	-7686
−	-7687
ず	-7688
ゴ	-7689
七	-7690
乾	-7691
云	-7692
休	-7693
伴	-7694
儲	-7695
凝	-7696
剪	-7697
卫	-7698
吨	-7699
圆	-7700
坚	-7701
宗	-7702
封	-7703
尋	-7704
彼	-7705
护	-7706
援	-7707
擬	-7708
晰	-7709
村	-7710
松	-7711
染	-7712
楚	-7713
殊	-7714
氏	-7715
氧	-7716
灰	-7717
煤	-7718
爾	-7719
牙	-7720
猜	-7721
番	-7722
矩	-7723
祖	-7724
稍	-7725
笼	-7726
紅	-7727
続	-7728
纪	-7729
肖	-7730
腳	-7731
舞	-7732
触	-7733
談	-7734
贡	-7735
跳	-7736
铸	-7737
隻	-7738
静	-7739
靠	-7740
飯	-7741
饮	-7742
馈	-7743
馬	-7744
骨	-7745
魔	-7746
麻	-7747
鼠	-7748
龍	-7749
놔	-7750
눗	-7751
닻	-7752
딤	-7753
륭	-7754
믈	-7755
뻣	-7756
샹	-7757
엣	-7758
잖	-7759
찡	-7760
핌	-7761
훌	-7762
휨	-7763
º	-7764
З	-7765
ذ	-7766
ㅅ	-7767
严	-7768
促	-7769
偉	-7770
偶	-7771
刚	-7772
劣	-7773
协	-7774
博	-7775
咪	-7776
唐	-7777
喝	-7778
喫	-7779
圍	-7780
執	-7781
塔	-7782
塞	-7783
墨	-7784
姿	-7785
威	-7786
宫	-7787
役	-7788
慢	-7789
慧	-7790
擊	-7791
昏	-7792
末	-7793
树	-7794
梁	-7795
森	-7796
汗	-7797
濠	-7798
熱	-7799
珠	-7800
甚	-7801
疗	-7802
皇	-7803
硬	-7804
筋	-7805
荐	-7806
萬	-7807
蓝	-7808
蓮	-7809
蕉	-7810
警	-7811
谜	-7812
貸	-7813
赵	-7814
軍	-7815
軟	-7816
退	-7817
逆	-7818
遵	-7819
邏	-7820
锅	-7821
陆	-7822
階	-7823
障	-7824
隨	-7825
韓	-7826
颗	-7827
館	-7828
饰	-7829
馆	-7830
낚	-7831
떫	-7832
띤	-7833
룻	-7834
맙	-7835
뺏	-7836
잦	-7837
툴	-7838
¦	-7839
Ü	-7840
ð	-7841
Đ	-7842
ň	-7843
Є	-7844
Р	-7845
є	-7846
ắ	-7847
ổ	-7848
ứ	-7849
ử	-7850
‖	-7851
ぞ	-7852
ソ	-7853
ハ	-7854
モ	-7855
丝	-7856
亦	-7857
亭	-7858
仁	-7859
伦	-7860
勒	-7861
妹	-7862
委	-7863
宣	-7864
宽	-7865
寶	-7866
屋	-7867
屏	-7868
屬	-7869
帝	-7870
廣	-7871
御	-7872
怀	-7873
恢	-7874
戰	-7875
插	-7876
搏	-7877
搞	-7878
既	-7879
晶	-7880
曼	-7881
株	-7882
欲	-7883
武	-7884
残	-7885
汽	-7886
浓	-7887
港	-7888
湖	-7889
税	-7890
穩	-7891
紫	-7892
耀	-7893
聽	-7894
胞	-7895
膜	-7896
臨	-7897
荣	-7898
药	-7899
蔓	-7900
裂	-7901
谈	-7902
賣	-7903
贝	-7904
跨	-7905
針	-7906
钱	-7907
镜	-7908
陣	-7909
陽	-7910
隔	-7911
須	-7912
願	-7913
갠	-7914
겆	-7915
곶	-7916
굿	-7917
꽹	-7918
꿰	-7919
넉	-7920
뎁	-7921
듐	-7922
땋	-7923
뜰	-7924
벚	-7925
뺄	-7926
뻑	-7927
뽕	-7928
삿	-7929
셸	-7930
쇘	-7931
왓	-7932
줬	-7933
쨌	-7934
쩍	-7935
쬐	-7936
핥	-7937
	-7938
１	-7939
�	-7940
ά	-7941
ό	-7942
ि	-7943
ธ	-7944
ừ	-7945
․	-7946
ぐ	-7947
び	-7948
ォ	-7949
ボ	-7950
ヤ	-7951
丹	-7952
伝	-7953
劃	-7954
卖	-7955
占	-7956
危	-7957
厚	-7958
启	-7959
咖	-7960
啡	-7961
坡	-7962
妥	-7963
孙	-7964
宙	-7965
寒	-7966
岗	-7967
徒	-7968
復	-7969
悠	-7970
振	-7971
敘	-7972
敢	-7973
斤	-7974
晨	-7975
浏	-7976
渴	-7977
熟	-7978
爬	-7979
狼	-7980
獻	-7981
疾	-7982
痴	-7983
睡	-7984
秘	-7985
竹	-7986
籠	-7987
繼	-7988
纲	-7989
耐	-7990
耕	-7991
耗	-7992
