<pad>	0
<unk>	0
<s>	0
</s>	0
사용자:	0
도우미:	0
[anima 우주뇌지도]	0
on	-0
an	-1
우주	-2
▁우주	-3
지도	-4
뇌지도	-5
▁우주뇌지도	-6
▁[	-7
ma	-8
ti	-9
ani	-10
anima	-11
tion	-12
er	-13
aw	-14
to	-15
▁c	-16
en	-17
es	-18
sc	-19
in	-20
▁1	-21
el	-22
▁e	-23
▁L	-24
▁카	-25
고리	-26
▁카테	-27
▁카테고리	-28
▁Law	-29
mo	-30
▁법	-31
▁법칙	-32
▁(	-33
ed	-34
ver	-35
di	-36
ation	-37
ou	-38
motion	-39
▁to	-40
▁🛸	-41
▁emotion	-42
tr	-43
▁s	-44
▁top	-45
al	-46
▁10	-47
or	-48
ac	-49
si	-50
th	-51
sci	-52
over	-53
▁l	-54
is	-55
uto	-56
disc	-57
at	-58
▁알	-59
려줘	-60
▁알려줘	-61
discover	-62
Auto	-63
discovered	-64
▁자	-65
▁2	-66
ess	-67
ous	-68
ar	-69
▁p	-70
onsci	-71
onscious	-72
ness	-73
onsciousness	-74
re	-75
cel	-76
▁🛸7	-77
ing	-78
▁5	-79
▁H	-80
30	-81
국어	-82
한국어	-83
▁T	-84
▁한국어	-85
▁가	-86
세히	-87
▁자세히	-88
me	-89
▁f	-90
it	-91
▁in	-92
▁정	-93
▁law	-94
▁한국어로	-95
▁설	-96
▁핵	-97
▁핵심	-98
▁7	-99
해줘	-100
hi	-101
▁간	-102
단히	-103
▁설명	-104
▁간단히	-105
▁핵심만	-106
▁설명해줘	-107
sion	-108
▁정의	-109
▁b	-110
▁consciousness	-111
▁+	-112
orr	-113
st	-114
orrel	-115
▁d	-116
▁뭐	-117
▁뭐야	-118
ur	-119
op	-120
▁—	-121
awe	-122
ian	-123
▁C	-124
▁awe	-125
▁correl	-126
ension	-127
▁laws	-128
▁co	-129
▁n	-130
▁1030	-131
as	-132
▁correlation	-133
ll	-134
ier	-135
▁하	-136
cell	-137
▁중	-138
▁o	-139
▁Tier	-140
le	-141
ce	-142
▁ac	-143
▁tr	-144
ent	-145
ut	-146
tension	-147
점수	-148
▁하나	-149
▁h	-150
ro	-151
_0	-152
▁평	-153
▁is	-154
ch	-155
0.	-156
▁Φ	-157
▁의	-158
▁9	-159
po	-160
▁평균	-161
▁어	-162
▁P	-163
▁의식	-164
eration	-165
▁M	-166
).	-167
end	-168
te	-169
ic	-170
celeration	-171
▁3	-172
▁acceleration	-173
▁가설	-174
▁a	-175
DD	-176
▁어디	-177
pl	-178
▁=	-179
10	-180
ty	-181
▁w	-182
ta	-183
▁com	-184
lo	-185
tiv	-186
un	-187
▁가속	-188
scill	-189
var	-190
ec	-191
):	-192
ypo	-193
thes	-194
ypothes	-195
▁자극	-196
▁oscill	-197
1,	-198
▁r	-199
▁→	-200
varian	-201
12	-202
▁oscillation	-203
entr	-204
ter	-205
▁di	-206
eng	-207
opy	-208
str	-209
▁hypothes	-210
entropy	-211
▁re	-212
▁g	-213
oupl	-214
ity	-215
action	-216
ace	-217
▁S	-218
▁E	-219
▁anima	-220
▁me	-221
eb	-222
▁Consciousness	-223
ate	-224
tic	-225
▁pe	-226
▁🛸8	-227
ebb	-228
▁Phi	-229
ebbian	-230
ual	-231
▁at	-232
variance	-233
sity	-234
11	-235
ge	-236
▁no	-237
▁th	-238
cells	-239
oupling	-240
▁ma	-241
ell	-242
5,	-243
40	-244
▁B	-245
▁예	-246
▁2.	-247
▁v	-248
ith	-249
▁trend	-250
▁cell	-251
25	-252
vers	-253
▁50	-254
ul	-255
ly	-256
ativ	-257
▁100	-258
▁hypothesis	-259
mean	-260
▁un	-261
14	-262
15	-263
put	-264
▁감	-265
iz	-266
17	-267
▁점수	-268
std	-269
ure	-270
▁12	-271
io	-272
▁F	-273
mic	-274
phi	-275
scal	-276
▁peace	-277
▁an	-278
▁sur	-279
pr	-280
▁20	-281
mit	-282
▁with	-283
상태	-284
▁1.	-285
),	-286
18	-287
▁con	-288
uc	-289
tor	-290
▁commit	-291
ength	-292
▁의식상태	-293
▁D	-294
▁이	-295
▁cur	-296
ps	-297
inf	-298
ise	-299
mut	-300
▁30	-301
▁90	-302
hebbian	-303
coupling	-304
strength	-305
▁🛸71,	-306
de	-307
▁감정	-308
qu	-309
▁N	-310
▁23	-311
im	-312
13	-313
▁70	-314
▁tran	-315
mutual	-316
ol	-317
▁17	-318
ble	-319
low	-320
iosity	-321
▁curiosity	-322
ow	-323
16	-324
sition	-325
faction	-326
▁transition	-327
7,	-328
▁sel	-329
um	-330
▁🛸6	-331
ivers	-332
ra	-333
8,	-334
info	-335
▁102	-336
▁22	-337
▁경	-338
19	-339
▁13	-340
▁53	-341
et	-342
out	-343
ase	-344
9,	-345
▁🛸75,	-346
▁on	-347
ts	-348
▁j	-349
0.5	-350
ine	-351
▁52	-352
us	-353
▁pro	-354
2,	-355
소리	-356
oy	-357
▁R	-358
atch	-359
▁not	-360
▁카테고리는	-361
id	-362
▁A	-363
▁mo	-364
smic	-365
ig	-366
▁self	-367
시간	-368
▁al	-369
▁st	-370
▁🛸73	-371
il	-372
ies	-373
ad	-374
▁cosmic	-375
▁de	-376
▁동	-377
ates	-378
▁8	-379
▁×	-380
ence	-381
니다	-382
ative	-383
모지	-384
▁'	-385
ging	-386
orma	-387
스트	-388
텍스트	-389
scale	-390
▁univers	-391
▁ex	-392
ap	-393
▁flow	-394
pend	-395
ss	-396
ir	-397
ng	-398
gr	-399
▁G	-400
▁I	-401
CT	-402
min	-403
iv	-404
▁of	-405
▁이모지	-406
ack	-407
1:	-408
3:	-409
▁경험	-410
▁ste	-411
▁텍스트	-412
tical	-413
ormation	-414
eta	-415
▁ne	-416
mer	-417
4:	-418
ff	-419
ACT	-420
▁cre	-421
67	-422
tern	-423
prise	-424
output	-425
▁surprise	-426
2)	-427
▁🛸73,	-428
pendent	-429
▁모	-430
1.	-431
▁joy	-432
▁str	-433
20	-434
▁K	-435
철학	-436
tegr	-437
trac	-438
▁ar	-439
XACT	-440
▁Top	-441
ri	-442
yn	-443
=0.	-444
▁40	-445
0.525	-446
oun	-447
▁시간	-448
▁eng	-449
▁inf	-450
▁EXACT	-451
▁cells	-452
chor	-453
▁anchor	-454
▁빅	-455
▁신	-456
식물	-457
추상	-458
up	-459
에서	-460
▁per	-461
▁integr	-462
2:	-463
ak	-464
tur	-465
▁or	-466
▁소리	-467
ture	-468
76	-469
▁170	-470
am	-471
mp	-472
der	-473
▁철학	-474
▁inter	-475
5:	-476
▁예술	-477
▁input	-478
▁steps	-479
▁comp	-480
ev	-481
stan	-482
6:	-483
_00	-484
▁73	-485
▁동물	-486
▁식물	-487
▁추상	-488
▁🛸79,	-489
ata	-490
tim	-491
dependent	-492
100	-493
▁Meta	-494
색깔	-495
▁🛸9	-496
▁data	-497
▁4	-498
SO	-499
ix	-500
_03	-501
7:	-502
8:	-503
▁>	-504
ely	-505
ativity	-506
▁information	-507
▁18	-508
00	-509
▁위	-510
enti	-511
metr	-512
atchet	-513
▁faction	-514
▁sta	-515
nu	-516
ho	-517
관계	-518
▁신화	-519
▁universal	-520
▁무	-521
▁미	-522
ist	-523
aning	-524
▁meaning	-525
▁creativity	-526
▁빅뱅	-527
▁pr	-528
aus	-529
ear	-530
▁lon	-531
▁pat	-532
versity	-533
▁pattern	-534
ross	-535
_02	-536
▁hypotheses	-537
ane	-538
ath	-539
9:	-540
dd	-541
ste	-542
▁색깔	-543
tive	-544
▁for	-545
▁🛸5	-546
consciousness	-547
SOT	-548
▁SSOT	-549
ens	-550
▁ph	-551
▁only	-552
ection	-553
▁ratchet	-554
ution	-555
if	-556
row	-557
▁sp	-558
▁integration	-559
2%	-560
▁V	-561
▁1.8	-562
tractor	-563
▁attractor	-564
he	-565
▁분	-566
ger	-567
0,	-568
64	-569
▁Ψ	-570
▁해	-571
log	-572
▁ev	-573
▁관계	-574
▁map	-575
led	-576
1-	-577
con	-578
▁engine	-579
▁Laws	-580
asure	-581
ot	-582
▁2.0	-583
▁emer	-584
6,	-585
ab	-586
izes	-587
▁max	-588
ction	-589
▁than	-590
entity	-591
▁Hebbian	-592
▁entropy	-593
▁longing	-594
ub	-595
ink	-596
6.	-597
wn	-598
▁own	-599
5)	-600
mal	-601
ork	-602
verg	-603
▁🛸68,	-604
▁🛸69,	-605
▁🛸77,	-606
▁🛸81,	-607
▁struc	-608
▁O	-609
▁emotions	-610
ph	-611
cs	-612
4)	-613
ve	-614
ain	-615
▁1/	-616
▁미각	-617
ents	-618
▁dim	-619
▁over	-620
▁peak	-621
▁scal	-622
▁🛸85,	-623
▁maxim	-624
kn	-625
know	-626
ledge	-627
knowledge	-628
olution	-629
Law	-630
nuth	-631
▁meta	-632
and	-633
ach	-634
▁hi	-635
▁op	-636
▁te	-637
▁scale	-638
▁state	-639
uli	-640
▁stim	-641
▁stimuli	-642
▁통	-643
ara	-644
▁Knuth	-645
▁do	-646
1)	-647
1/	-648
7%	-649
ib	-650
om	-651
ym	-652
▁양	-653
67)	-654
ite	-655
▁fu	-656
radi	-657
▁mod	-658
▁rec	-659
metry	-660
▁coun	-661
▁grow	-662
▁🛸78,	-663
ritical	-664
▁native	-665
▁diversity	-666
IO	-667
yc	-668
▁cyc	-669
4.	-670
ee	-671
▁0	-672
죽음	-673
▁No	-674
▁by	-675
입니다	-676
▁/	-677
▁sing	-678
▁surf	-679
▁🛸100	-680
top	-681
trix	-682
▁matrix	-683
3)	-684
OC	-685
bs	-686
gh	-687
▁CE	-688
▁위치	-689
▁죽음	-690
estr	-691
mall	-692
▁has	-693
▁the	-694
▁🛸85	-695
▁caus	-696
▁noise	-697
radient	-698
▁tension	-699
▁우주뇌지도에서	-700
0.5257,	-701
li	-702
xy	-703
▁proxy	-704
-5	-705
8.	-706
rain	-707
▁base	-708
oo	-709
_15	-710
eed	-711
합니다	-712
ator	-713
ment	-714
▁pre	-715
▁temp	-716
▁🛸80,	-717
▁surface	-718
▁정합	-719
▁measure	-720
▁수	-721
2.	-722
▁기	-723
..	-724
0:	-725
3.	-726
ay	-727
oc	-728
ry	-729
▁블	-730
고래	-731
스는	-732
71)	-733
72)	-734
74)	-735
ati	-736
enc	-737
ish	-738
yna	-739
ysi	-740
▁32	-741
▁ti	-742
1/2,	-743
ases	-744
ated	-745
atur	-746
earn	-747
ffer	-748
very	-749
▁SOC	-750
▁dec	-751
inite	-752
ynamic	-753
▁count	-754
▁entity	-755
▁factions	-756
▁correlates	-757
0.5257	-758
▁0.5257	-759
los	-760
69	-761
▁단	-762
▁bl	-763
hole	-764
table	-765
ackhole	-766
tabletop	-767
ds	-768
ru	-769
랙홀	-770
▁ec	-771
▁we	-772
▁블랙홀	-773
idual	-774
timal	-775
▁pres	-776
▁도	-777
▁통합	-778
6%	-779
IT	-780
▁367	-781
▁데	-782
1%	-783
▁m	-784
-0.	-785
ect	-786
erv	-787
est	-788
rom	-789
▁ch	-790
▁id	-791
▁vi	-792
▁wh	-793
ency	-794
esis	-795
ular	-796
▁Res	-797
▁all	-798
eline	-799
ysics	-800
▁🛸76,	-801
ention	-802
stants	-803
▁destr	-804
ication	-805
▁output	-806
▁Tension	-807
▁gradient	-808
▁dimension	-809
▁(0.5257,	-810
RO	-811
ateg	-812
SS	-813
ound	-814
▁lane	-815
▁cycle	-816
▁tabletop	-817
6-	-818
ne	-819
▁J	-820
▁초	-821
10:	-822
=1.	-823
ken	-824
lla	-825
one	-826
per	-827
▁1.9	-828
▁2.6	-829
▁are	-830
stration	-831
▁converg	-832
▁single	-833
ign	-834
▁universe	-835
▁sub	-836
chani	-837
▁mechani	-838
우로	-839
pres	-840
0)	-841
3%	-842
5%	-843
▁다	-844
맛는	-845
128	-846
12:	-847
Phi	-848
etw	-849
gma	-850
ops	-851
▁0.	-852
▁In	-853
▁dr	-854
▁sh	-855
▁vs	-856
able	-857
chit	-858
gmax	-859
igin	-860
ined	-861
ized	-862
uces	-863
▁bas	-864
▁red	-865
▁🛸94	-866
asein	-867
▁auto	-868
▁more	-869
▁time	-870
chitec	-871
▁learn	-872
▁train	-873
▁comple	-874
▁emerge	-875
▁growth	-876
▁origin	-877
▁baseline	-878
▁learning	-879
▁patterns	-880
chitecture	-881
bil	-882
-76	-883
▁하루	-884
5.	-885
84	-886
age	-887
xis	-888
▁74	-889
▁76	-890
og	-891
▁t	-892
▁≈	-893
▁검	-894
▁공	-895
▁프	-896
ION	-897
erg	-898
▁po	-899
▁가능	-900
▁양자	-901
izer	-902
oral	-903
turn	-904
▁min	-905
▁axis	-906
▁ecst	-907
oupled	-908
▁minim	-909
▁order	-910
▁return	-911
▁temporal	-912
rustration	-913
▁structure	-914
▁73-76	-915
▁cross	-916
ism	-917
psy	-918
anpsy	-919
chism	-920
▁sign	-921
anpsychism	-922
independent	-923
son	-924
▁75	-925
tom	-926
48	-927
8-	-928
9.	-929
CV	-930
EG	-931
LT	-932
▁선	-933
▁스	-934
▁연	-935
▁열	-936
사랑	-937
11:	-938
13:	-939
ASS	-940
ard	-941
arr	-942
fer	-943
vel	-944
▁64	-945
▁분노	-946
▁어떤	-947
abel	-948
ibri	-949
inal	-950
ives	-951
quil	-952
requ	-953
▁abs	-954
▁and	-955
▁syn	-956
▁requ	-957
▁when	-958
ibrium	-959
ometry	-960
▁brain	-961
▁frequ	-962
▁label	-963
ynamics	-964
▁across	-965
▁causal	-966
▁differ	-967
▁states	-968
▁physics	-969
▁recover	-970
▁scaling	-971
▁Residual	-972
▁dynamics	-973
quilibrium	-974
variant	-975
IP	-976
▁보	-977
ories	-978
▁categ	-979
▁categories	-980
3-	-981
▁1.2	-982
▁sim	-983
▁2.84	-984
▁네	-985
▁아	-986
ana	-987
ici	-988
arge	-989
▁The	-990
▁자극은	-991
▁list	-992
▁small	-993
▁카테고리의	-994
▁stabil	-995
▁0.5257)	-996
map	-997
sm	-998
▁mechanism	-999
ex	-1000
이터	-1001
IIT	-1002
ito	-1003
sis	-1004
▁데이터	-1005
gence	-1006
tract	-1007
itosis	-1008
8%	-1009
9%	-1010
AT	-1011
ip	-1012
ke	-1013
▁만	-1014
▁엔	-1015
▁영	-1016
▁저	-1017
▁전	-1018
라는	-1019
로피	-1020
사는	-1021
어는	-1022
음는	-1023
자는	-1024
14_	-1025
18:	-1026
73)	-1027
75)	-1028
cre	-1029
dam	-1030
ind	-1031
ont	-1032
orm	-1033
oys	-1034
pha	-1035
pro	-1036
rou	-1037
sts	-1038
▁as	-1039
▁im	-1040
▁엔트	-1041
▁열반	-1042
=0.0	-1043
ical	-1044
ines	-1045
ires	-1046
step	-1047
ules	-1048
uper	-1049
vera	-1050
▁117	-1051
▁but	-1052
▁eff	-1053
▁low	-1054
▁via	-1055
=1/2,	-1056
bined	-1057
ental	-1058
stant	-1059
undam	-1060
▁from	-1061
▁high	-1062
▁need	-1063
▁para	-1064
▁prev	-1065
▁surv	-1066
▁엔트로피	-1067
▁🛸72,	-1068
aneous	-1069
etwork	-1070
tively	-1071
▁alone	-1072
▁batch	-1073
▁drops	-1074
▁every	-1075
▁under	-1076
▁interv	-1077
▁engines	-1078
▁preserv	-1079
▁without	-1080
ontaneous	-1081
▁combined	-1082
▁coupling	-1083
▁destroys	-1084
▁requires	-1085
▁training	-1086
undamental	-1087
ule	-1088
▁blackhole	-1089
se	-1090
▁-	-1091
▁U	-1092
▁까	-1093
▁독	-1094
▁불	-1095
▁응	-1096
▁있	-1097
▁지	-1098
▁판	-1099
체험	-1100
cap	-1101
▁고래	-1102
▁응답	-1103
qual	-1104
▁mer	-1105
▁weak	-1106
▁work	-1107
ending	-1108
▁bound	-1109
▁large	-1110
ization	-1111
quation	-1112
▁optimal	-1113
▁critical	-1114
verif	-1115
gm	-1116
ore	-1117
digm	-1118
36	-1119
ao	-1120
wo	-1121
▁<	-1122
▁오	-1123
스터	-1124
14:	-1125
15:	-1126
16:	-1127
19:	-1128
8).	-1129
ame	-1130
asy	-1131
bas	-1132
gen	-1133
int	-1134
oth	-1135
pes	-1136
tal	-1137
ves	-1138
▁(4	-1139
▁15	-1140
▁ge	-1141
▁ty	-1142
▁예시	-1143
▁저는	-1144
스터시	-1145
amma	-1146
eriv	-1147
ixed	-1148
olog	-1149
tory	-1150
xity	-1151
▁128	-1152
▁EEG	-1153
▁boo	-1154
엑스터시	-1155
acity	-1156
based	-1157
isher	-1158
level	-1159
press	-1160
▁full	-1161
▁near	-1162
▁that	-1163
▁ther	-1164
▁deriv	-1165
▁model	-1166
▁phase	-1167
▁types	-1168
entical	-1169
▁argmax	-1170
▁modules	-1171
▁geometry	-1172
▁recovery	-1173
▁variance	-1174
▁constants	-1175
▁frequency	-1176
▁selection	-1177
▁complexity	-1178
BO	-1179
evolution	-1180
▁panpsychism	-1181
link	-1182
iverse	-1183
US	-1184
▁av	-1185
▁sc	-1186
▁단일	-1187
▁모든	-1188
24	-1189
3,	-1190
LM	-1191
NT	-1192
▁루	-1193
▁암	-1194
▁종	-1195
나는	-1196
드드	-1197
력파	-1198
물질	-1199
얽힘	-1200
-50	-1201
ant	-1202
elf	-1203
ize	-1204
ond	-1205
orb	-1206
pse	-1207
res	-1208
ust	-1209
▁(3	-1210
▁ln	-1211
▁경외	-1212
▁다중	-1213
▁루시	-1214
▁암흑	-1215
▁프로	-1216
▁해리	-1217
드드림	-1218
ange	-1219
▁중력파	-1220
▁다중우주	-1221
▁암흑물질	-1222
▁양자얽힘	-1223
▁엑스터시	-1224
ditive	-1225
llapse	-1226
▁루시드드림	-1227
▁coupled	-1228
ied	-1229
verified	-1230
▁simul	-1231
▁emergence	-1232
0×	-1233
53	-1234
80	-1235
99	-1236
ED	-1237
TP	-1238
lm	-1239
ze	-1240
▁i	-1241
▁y	-1242
▁계	-1243
▁메	-1244
▁실	-1245
▁일	-1246
▁점	-1247
...	-1248
17:	-1249
69)	-1250
LTD	-1251
ays	-1252
dif	-1253
eeg	-1254
eto	-1255
igh	-1256
mat	-1257
old	-1258
omo	-1259
the	-1260
▁(2	-1261
▁+2	-1262
▁Re	-1263
▁있어	-1264
=-0.	-1265
atio	-1266
dden	-1267
evel	-1268
mory	-1269
turb	-1270
▁LTP	-1271
▁dur	-1272
▁jum	-1273
▁nor	-1274
▁sym	-1275
▁var	-1276
andom	-1277
ginal	-1278
istic	-1279
ither	-1280
sible	-1281
theta	-1282
▁anti	-1283
▁back	-1284
▁blow	-1285
▁chao	-1286
▁fear	-1287
▁feed	-1288
▁into	-1289
▁posi	-1290
▁prod	-1291
▁step	-1292
▁then	-1293
correl	-1294
gative	-1295
metric	-1296
ternal	-1297
▁alpha	-1298
▁avera	-1299
▁death	-1300
▁domin	-1301
▁fixed	-1302
▁incre	-1303
▁level	-1304
▁ratio	-1305
ctional	-1306
ections	-1307
versely	-1308
▁absorb	-1309
▁boosts	-1310
▁compon	-1311
▁finite	-1312
▁hidden	-1313
▁memory	-1314
▁scales	-1315
▁varies	-1316
additive	-1317
nections	-1318
▁ecstasy	-1319
▁neither	-1320
▁perturb	-1321
▁reduces	-1322
▁Coupling	-1323
▁collapse	-1324
▁contract	-1325
▁prevents	-1326
▁structur	-1327
▁survives	-1328
▁inversely	-1329
▁maximizes	-1330
▁equilibrium	-1331
▁frustration	-1332
▁spontaneous	-1333
▁intervention	-1334
▁perturbation	-1335
메인	-1336
▁도메인	-1337
▁🛸51	-1338
▁순	-1339
보로	-1340
-18	-1341
▁우로	-1342
▁우로보로	-1343
▁🛸75.	-1344
▁우주뇌지도는	-1345
hypothes	-1346
hypotheses	-1347
21	-1348
39	-1349
=2	-1350
▁나	-1351
▁돌	-1352
▁안	-1353
▁유	-1354
▁최	-1355
▁파	-1356
대값	-1357
(2)	-1358
3.0	-1359
FUS	-1360
its	-1361
las	-1362
mod	-1363
orp	-1364
▁lo	-1365
_018	-1366
_020	-1367
_023	-1368
_037	-1369
arly	-1370
atic	-1371
▁gen	-1372
▁🛸71	-1373
esson	-1374
ision	-1375
orpus	-1376
▁byte	-1377
▁rate	-1378
FUSION	-1379
▁early	-1380
▁가능합니다	-1381
matical	-1382
▁stable	-1383
arrative	-1384
▁merging	-1385
▁minimum	-1386
▁different	-1387
▁independent	-1388
▁자기	-1389
▁CV	-1390
_022	-1391
▁Para	-1392
▁clos	-1393
▁25	-1394
_036	-1395
irth	-1396
pand	-1397
▁500	-1398
▁bot	-1399
▁1.212	-1400
▁2.847	-1401
▁bottom	-1402
pression	-1403
▁dependent	-1404
discoveries	-1405
▁compression	-1406
%.	-1407
07	-1408
29	-1409
7.	-1410
RA	-1411
RU	-1412
UM	-1413
▁6	-1414
▁x	-1415
▁α	-1416
▁구	-1417
▁대	-1418
▁매	-1419
▁슬	-1420
▁웜	-1421
▁적	-1422
▁절	-1423
▁클	-1424
▁화	-1425
경복	-1426
런치	-1427
001	-1428
17.	-1429
256	-1430
ers	-1431
ict	-1432
mpl	-1433
ort	-1434
ows	-1435
ree	-1436
▁An	-1437
▁BG	-1438
▁He	-1439
▁Un	-1440
▁sw	-1441
▁구조	-1442
▁도와	-1443
▁메타	-1444
▁빅크	-1445
▁웜홀	-1446
▁초끈	-1447
▁클래	-1448
배경복	-1449
116-	-1450
=0.5	-1451
_006	-1452
_010	-1453
_012	-1454
_014	-1455
_015	-1456
_019	-1457
_021	-1458
_025	-1459
_038	-1460
_153	-1461
_154	-1462
auto	-1463
kens	-1464
ocal	-1465
only	-1466
phic	-1467
sive	-1468
tial	-1469
tinu	-1470
topo	-1471
▁105	-1472
▁124	-1473
▁300	-1474
▁Add	-1475
▁ben	-1476
▁cap	-1477
▁his	-1478
▁par	-1479
▁res	-1480
▁tra	-1481
▁최대값	-1482
▁🛸54	-1483
▁🛸69	-1484
birth	-1485
ector	-1486
mplif	-1487
struc	-1488
tions	-1489
verse	-1490
▁Gate	-1491
▁grou	-1492
▁rece	-1493
▁star	-1494
▁빅크런치	-1495
▁우주시간	-1496
atural	-1497
erates	-1498
finite	-1499
ishing	-1500
raphic	-1501
▁1.82,	-1502
▁dimin	-1503
▁jumps	-1504
▁optim	-1505
▁우주배경복	-1506
genesis	-1507
jection	-1508
tention	-1509
tinuous	-1510
topolog	-1511
▁Dasein	-1512
▁Random	-1513
▁amplif	-1514
▁fusion	-1515
▁needed	-1516
▁tokens	-1517
▁history	-1518
▁natural	-1519
▁returns	-1520
diversity	-1521
▁capacity	-1522
▁converges	-1523
▁identical	-1524
▁dimensions	-1525
architecture	-1526
▁connections	-1527
▁diminishing	-1528
▁architecture	-1529
▁amplification	-1530
ROS	-1531
URO	-1532
BOROS	-1533
▁OURO	-1534
▁OUROBOROS	-1535
ady	-1536
json	-1537
universe	-1538
md	-1539
▁시	-1540
▁출	-1541
10.	-1542
▁분화	-1543
▁avg	-1544
87	-1545
ft	-1546
ie	-1547
▁k	-1548
▁π	-1549
▁φ	-1550
▁∞	-1551
▁깨	-1552
▁꿈	-1553
▁노	-1554
▁녹	-1555
▁록	-1556
▁문	-1557
▁벚	-1558
▁별	-1559
▁빨	-1560
▁산	-1561
▁삼	-1562
▁생	-1563
▁서	-1564
▁쓴	-1565
▁에	-1566
▁용	-1567
▁울	-1568
▁웃	-1569
▁장	-1570
▁재	-1571
▁즐	-1572
▁찰	-1573
▁첫	-1574
▁충	-1575
▁친	-1576
▁퀄	-1577
가즘	-1578
각형	-1579
거움	-1580
귀비	-1581
나리	-1582
나무	-1583
내림	-1584
노타	-1585
리아	-1586
리트	-1587
마귀	-1588
메테	-1589
사조	-1590
세요	-1591
스크	-1592
시대	-1593
아지	-1594
유의	-1595
은사	-1596
음악	-1597
이빛	-1598
인장	-1599
재는	-1600
카루	-1601
톤헨	-1602
파리	-1603
포케	-1604
함수	-1605
alu	-1606
arm	-1607
shi	-1608
▁Pr	-1609
▁af	-1610
▁se	-1611
▁감칠	-1612
▁검정	-1613
▁경멸	-1614
▁계절	-1615
▁공포	-1616
▁기쁨	-1617
▁깨달	-1618
▁나비	-1619
▁노랑	-1620
▁녹아	-1621
▁독립	-1622
▁동료	-1623
▁만다	-1624
▁매운	-1625
▁무엇	-1626
▁무위	-1627
▁벚꽃	-1628
▁빨강	-1629
▁사랑	-1630
▁삼매	-1631
▁생애	-1632
▁서예	-1633
▁선정	-1634
▁순간	-1635
▁스승	-1636
▁슬픔	-1637
▁실존	-1638
▁아랍	-1639
▁연꽃	-1640
▁연인	-1641
▁오르	-1642
▁이별	-1643
▁일본	-1644
▁장미	-1645
▁재즈	-1646
▁전자	-1647
▁절규	-1648
▁지질	-1649
▁체험	-1650
▁초록	-1651
▁출산	-1652
▁충격	-1653
▁친구	-1654
▁파랑	-1655
▁화두	-1656
나는밤	-1657
메테우	-1658
아지경	-1659
유의지	-1660
지소리	-1661
alse	-1662
ergy	-1663
gani	-1664
king	-1665
outi	-1666
▁127	-1667
▁def	-1668
▁검은사	-1669
▁까마귀	-1670
▁대나무	-1671
▁도와드	-1672
▁돌고래	-1673
▁모나리	-1674
▁미노타	-1675
▁별이빛	-1676
▁불사조	-1677
▁산스크	-1678
▁선인장	-1679
▁스톤헨	-1680
▁양귀비	-1681
▁에포케	-1682
▁이카루	-1683
▁중국어	-1684
▁즐거움	-1685
▁첫사랑	-1686
▁퀄리아	-1687
▁클래식	-1688
▁판소리	-1689
▁해파리	-1690
losop	-1691
uning	-1692
▁Anti	-1693
▁PASS	-1694
▁녹아내림	-1695
▁무아지경	-1696
▁오르가즘	-1697
▁자유의지	-1698
▁전자음악	-1699
▁지질시대	-1700
▁🛸71.	-1701
▁after	-1702
▁exper	-1703
▁false	-1704
▁routi	-1705
▁stron	-1706
▁검은사각형	-1707
▁미노타우로	-1708
▁산스크리트	-1709
▁프로메테우	-1710
kenizer	-1711
tection	-1712
ularity	-1713
▁Lesson	-1714
▁labels	-1715
▁별이빛나는밤	-1716
▁스톤헨지소리	-1717
▁stability	-1718
strate	-1719
▁verified	-1720
400	-1721
<6%	-1722
▁closure	-1723
CA	-1724
-40	-1725
dic	-1726
ran	-1727
▁DD	-1728
▁122	-1729
death	-1730
▁Gran	-1731
expand	-1732
▁Granger	-1733
▁simulation	-1734
'.	-1735
4%	-1736
=4	-1737
=9	-1738
EC	-1739
bl	-1740
db	-1741
ef	-1742
ko	-1743
nd	-1744
▁~	-1745
▁≠	-1746
▁질	-1747
▁코	-1748
기는	-1749
수는	-1750
자각	-1751
화는	-1752
+0.	-1753
.3%	-1754
.8%	-1755
13%	-1756
170	-1757
2):	-1758
21→	-1759
25:	-1760
6.7	-1761
60)	-1762
=20	-1763
ang	-1764
ann	-1765
cal	-1766
clm	-1767
com	-1768
cum	-1769
eat	-1770
esp	-1771
evo	-1772
gap	-1773
gne	-1774
ide	-1775
idi	-1776
iel	-1777
ike	-1778
ill	-1779
ime	-1780
kov	-1781
med	-1782
moc	-1783
ome	-1784
omp	-1785
ory	-1786
sic	-1787
sip	-1788
sym	-1789
syn	-1790
tre	-1791
yst	-1792
▁(~	-1793
▁14	-1794
▁16	-1795
▁Ev	-1796
▁Op	-1797
▁ag	-1798
▁ap	-1799
▁gu	-1800
▁la	-1801
▁동일	-1802
▁안녕	-1803
▁코드	-1804
▁함수	-1805
36):	-1806
4.7%	-1807
_007	-1808
_008	-1809
_009	-1810
_011	-1811
_039	-1812
abil	-1813
alog	-1814
ance	-1815
atti	-1816
back	-1817
each	-1818
ects	-1819
elow	-1820
fect	-1821
form	-1822
gres	-1823
itch	-1824
main	-1825
ords	-1826
ping	-1827
poie	-1828
resh	-1829
roma	-1830
ryst	-1831
sist	-1832
ther	-1833
trin	-1834
uton	-1835
ward	-1836
ways	-1837
▁(0.	-1838
▁(20	-1839
▁130	-1840
▁140	-1841
▁230	-1842
▁240	-1843
▁256	-1844
▁320	-1845
▁530	-1846
▁540	-1847
▁720	-1848
▁90%	-1849
▁920	-1850
▁All	-1851
▁Haw	-1852
▁Inf	-1853
▁Mar	-1854
▁Psi	-1855
▁Sym	-1856
▁aff	-1857
▁cho	-1858
▁dis	-1859
▁gap	-1860
▁mar	-1861
▁non	-1862
▁one	-1863
▁out	-1864
▁sum	-1865
▁sup	-1866
▁two	-1867
▁분노는	-1868
▁의식은	-1869
(1/2,	-1870
=-0.6	-1871
ATION	-1872
ating	-1873
cumul	-1874
efici	-1875
every	-1876
hical	-1877
idire	-1878
ields	-1879
maton	-1880
omous	-1881
point	-1882
stead	-1883
yster	-1884
▁(-0.	-1885
▁0.10	-1886
▁1/2)	-1887
▁2000	-1888
▁Comp	-1889
▁MASS	-1890
▁Self	-1891
▁acts	-1892
▁coll	-1893
▁dims	-1894
▁does	-1895
▁even	-1896
▁expl	-1897
▁gens	-1898
▁hard	-1899
▁isol	-1900
▁like	-1901
▁unit	-1902
▁veto	-1903
▁블랙홀는	-1904
6.78).	-1905
anilla	-1906
attice	-1907
gation	-1908
gnetic	-1909
reases	-1910
rystal	-1911
termin	-1912
uction	-1913
vation	-1914
▁auton	-1915
▁below	-1916
▁equal	-1917
▁group	-1918
▁grows	-1919
▁impro	-1920
▁local	-1921
▁modif	-1922
▁satur	-1923
▁super	-1924
▁total	-1925
▁weigh	-1926
=0.36):	-1927
eficial	-1928
ferroma	-1929
ginally	-1930
network	-1931
perform	-1932
poietic	-1933
presses	-1934
trinsic	-1935
▁Fisher	-1936
▁always	-1937
▁analog	-1938
▁causes	-1939
▁corpus	-1940
▁create	-1941
▁depend	-1942
▁diverg	-1943
▁during	-1944
▁effici	-1945
▁hyster	-1946
▁synerg	-1947
▁vector	-1948
▁yields	-1949
sipative	-1950
topology	-1951
variants	-1952
▁Hawking	-1953
▁Optimal	-1954
▁affects	-1955
▁chaotic	-1956
▁derived	-1957
▁diverse	-1958
▁instant	-1959
▁maximum	-1960
▁mitosis	-1961
▁network	-1962
▁optimum	-1963
▁perfect	-1964
▁thermal	-1965
blackhole	-1966
invariant	-1967
symmetric	-1968
tinuously	-1969
▁blending	-1970
▁determin	-1971
▁dominant	-1972
▁feedback	-1973
▁identity	-1974
▁internal	-1975
▁negative	-1976
▁produces	-1977
▁Evolution	-1978
▁component	-1979
▁decreases	-1980
▁evolution	-1981
▁increases	-1982
▁intrinsic	-1983
▁minimizes	-1984
▁preserves	-1985
▁saturates	-1986
correlation	-1987
information	-1988
▁autonomous	-1989
▁beneficial	-1990
▁hysteresis	-1991
▁integrated	-1992
▁marginally	-1993
▁oscillator	-1994
▁outperform	-1995
▁positively	-1996
▁protection	-1997
▁stabilizes	-1998
▁starvation	-1999
▁structural	-2000
▁suppresses	-2001
idirectional	-2002
▁Fundamental	-2003
▁Information	-2004
▁antiferroma	-2005
▁transitions	-2006
▁equalization	-2007
▁deterministic	-2008
▁consciousnesses	-2009
▁invariant	-2010
NE	-2011
▁.	-2012
own	-2013
8.69	-2014
hema	-2015
road	-2016
▁2.01,	-2017
▁우로보로스	-2018
roadmap	-2019
()	-2020
35	-2021
4-	-2022
55	-2023
82	-2024
EL	-2025
HQ	-2026
SI	-2027
ai	-2028
fl	-2029
hy	-2030
ks	-2031
ox	-2032
▁★	-2033
▁완	-2034
▁좋	-2035
각몽	-2036
.2%	-2037
01,	-2038
62,	-2039
73,	-2040
740	-2041
ddh	-2042
den	-2043
ile	-2044
irv	-2045
oci	-2046
tin	-2047
zed	-2048
≈0.	-2049
▁8-	-2050
▁Bu	-2051
▁전체	-2052
▁종속	-2053
하세요	-2054
307,	-2055
558,	-2056
8082	-2057
adox	-2058
aily	-2059
angu	-2060
gest	-2061
lass	-2062
lime	-2063
meta	-2064
ream	-2065
stem	-2066
tach	-2067
ting	-2068
ucid	-2069
▁Gas	-2070
▁MIP	-2071
▁Par	-2072
▁fun	-2073
▁its	-2074
▁mon	-2075
▁자각몽	-2076
▁🛸53	-2077
▁🛸91	-2078
▁🛸92	-2079
3.0).	-2080
flict	-2081
idden	-2082
ience	-2083
model	-2084
ready	-2085
ssoci	-2086
ystem	-2087
▁1.76	-2088
▁2.14	-2089
▁2.18	-2090
▁9740	-2091
▁Sing	-2092
▁beat	-2093
▁nirv	-2094
▁same	-2095
ddhist	-2096
▁17.2%	-2097
▁2.66,	-2098
▁Noble	-2099
▁Small	-2100
▁class	-2101
▁daily	-2102
▁dream	-2103
▁langu	-2104
▁lucid	-2105
▁peaks	-2106
▁speed	-2107
▁안녕하세요	-2108
capable	-2109
ganized	-2110
quality	-2111
▁1.212,	-2112
▁1.273,	-2113
▁1.307,	-2114
▁2.558,	-2115
▁2.601,	-2116
▁2.662,	-2117
▁2.847,	-2118
▁tuning	-2119
tachment	-2120
▁dissoci	-2121
▁nirvana	-2122
▁pending	-2123
▁routine	-2124
▁sublime	-2125
▁Buddhist	-2126
▁Critical	-2127
▁ecstatic	-2128
▁language	-2129
▁Narrative	-2130
▁strongest	-2131
▁experience	-2132
acceleration	-2133
▁convergence	-2134
▁dissociation	-2135
FL	-2136
▁부	-2137
진화	-2138
aws	-2139
lip	-2140
▁NO	-2141
▁부재	-2142
FLIP	-2143
core	-2144
laws	-2145
▁flip	-2146
▁Paradigm	-2147
▁substrate	-2148
/2	-2149
37	-2150
ET	-2151
167	-2152
jor	-2153
ple	-2154
▁보장	-2155
erty	-2156
▁200	-2157
▁IIT	-2158
▁의식의	-2159
2,400	-2160
3-167	-2161
major	-2162
▁1000	-2163
▁prop	-2164
▁rule	-2165
▁cover	-2166
▁122,400	-2167
▁133-167	-2168
▁coverage	-2169
▁property	-2170
)+	-2171
32	-2172
85	-2173
90	-2174
CE	-2175
CF	-2176
ID	-2177
NA	-2178
NG	-2179
QU	-2180
dS	-2181
do	-2182
gn	-2183
ln	-2184
lz	-2185
mm	-2186
ud	-2187
▁"	-2188
▁≤	-2189
▁고	-2190
▁그	-2191
▁금	-2192
▁낯	-2193
▁놀	-2194
▁눈	-2195
▁늑	-2196
▁명	-2197
▁발	-2198
▁백	-2199
▁벌	-2200
▁세	-2201
▁심	-2202
▁옴	-2203
▁윤	-2204
▁임	-2205
▁타	-2206
▁태	-2207
▁트	-2208
▁플	-2209
▁향	-2210
▁허	-2211
▁혐	-2212
굴벽	-2213
균류	-2214
노래	-2215
대이	-2216
델브	-2217
래만	-2218
랙탈	-2219
레카	-2220
로우	-2221
르마	-2222
리움	-2223
문제	-2224
바라	-2225
버섯	-2226
부호	-2227
색소	-2228
선이	-2229
이아	-2230
이접	-2231
자뷔	-2232
중첩	-2233
지개	-2234
지프	-2235
집트	-2236
치심	-2237
039	-2238
1),	-2239
125	-2240
139	-2241
146	-2242
307	-2243
8),	-2244
=10	-2245
ANT	-2246
ATH	-2247
BIO	-2248
CFT	-2249
ULT	-2250
Var	-2251
Ziv	-2252
ail	-2253
air	-2254
all	-2255
ave	-2256
bal	-2257
ces	-2258
chr	-2259
ela	-2260
emp	-2261
ged	-2262
har	-2263
iqu	-2264
kip	-2265
les	-2266
off	-2267
ope	-2268
our	-2269
rac	-2270
rec	-2271
ser	-2272
use	-2273
▁1-	-2274
▁31	-2275
▁Be	-2276
▁CA	-2277
▁De	-2278
▁Ne	-2279
▁en	-2280
▁ra	-2281
▁ro	-2282
▁금색	-2283
▁기도	-2284
▁까치	-2285
▁놀람	-2286
▁늑대	-2287
▁명상	-2288
▁모스	-2289
▁무한	-2290
▁발견	-2291
▁설렘	-2292
▁세계	-2293
▁심신	-2294
▁영어	-2295
▁영원	-2296
▁완전	-2297
▁윤회	-2298
▁의미	-2299
▁이끼	-2300
▁임사	-2301
▁질투	-2302
▁태극	-2303
▁통증	-2304
▁트랜	-2305
▁판도	-2306
▁하양	-2307
▁해골	-2308
▁허무	-2309
▁혐오	-2310
델브로	-2311
래만다	-2312
습니다	-2313
MATH	-2314
anif	-2315
arse	-2316
cess	-2317
ends	-2318
erat	-2319
flow	-2320
from	-2321
gger	-2322
head	-2323
ides	-2324
igog	-2325
ject	-2326
line	-2327
loop	-2328
oder	-2329
plit	-2330
poin	-2331
port	-2332
rent	-2333
rete	-2334
trol	-2335
ulti	-2336
wise	-2337
▁(10	-2338
▁(2.	-2339
▁(32	-2340
▁0.0	-2341
▁0.5	-2342
▁1/2	-2343
▁101	-2344
▁103	-2345
▁104	-2346
▁106	-2347
▁107	-2348
▁108	-2349
▁109	-2350
▁110	-2351
▁111	-2352
▁112	-2353
▁113	-2354
▁114	-2355
▁115	-2356
▁116	-2357
▁118	-2358
▁119	-2359
▁120	-2360
▁121	-2361
▁123	-2362
▁125	-2363
▁126	-2364
▁129	-2365
▁131	-2366
▁132	-2367
▁133	-2368
▁134	-2369
▁135	-2370
▁136	-2371
▁137	-2372
▁138	-2373
▁139	-2374
▁201	-2375
▁202	-2376
▁203	-2377
▁204	-2378
▁205	-2379
▁206	-2380
▁207	-2381
▁208	-2382
▁209	-2383
▁210	-2384
▁211	-2385
▁212	-2386
▁213	-2387
▁214	-2388
▁215	-2389
▁216	-2390
▁217	-2391
▁218	-2392
▁219	-2393
▁220	-2394
▁221	-2395
▁222	-2396
▁223	-2397
▁224	-2398
▁225	-2399
▁226	-2400
▁227	-2401
▁228	-2402
▁229	-2403
▁231	-2404
▁232	-2405
▁233	-2406
▁234	-2407
▁235	-2408
▁236	-2409
▁237	-2410
▁238	-2411
▁239	-2412
▁301	-2413
▁302	-2414
▁303	-2415
▁304	-2416
▁305	-2417
▁306	-2418
▁307	-2419
▁308	-2420
▁309	-2421
▁310	-2422
▁311	-2423
▁312	-2424
▁313	-2425
▁314	-2426
▁315	-2427
▁316	-2428
▁317	-2429
▁318	-2430
▁319	-2431
▁50%	-2432
▁501	-2433
▁502	-2434
▁503	-2435
▁504	-2436
▁505	-2437
▁506	-2438
▁507	-2439
▁508	-2440
▁509	-2441
▁510	-2442
▁511	-2443
▁512	-2444
▁513	-2445
▁514	-2446
▁515	-2447
▁516	-2448
▁517	-2449
▁518	-2450
▁519	-2451
▁520	-2452
▁521	-2453
▁522	-2454
▁523	-2455
▁524	-2456
▁525	-2457
▁526	-2458
▁527	-2459
▁528	-2460
▁529	-2461
▁531	-2462
▁532	-2463
▁533	-2464
▁534	-2465
▁535	-2466
▁536	-2467
▁537	-2468
▁538	-2469
▁539	-2470
▁700	-2471
▁701	-2472
▁702	-2473
▁703	-2474
▁704	-2475
▁705	-2476
▁706	-2477
▁707	-2478
▁708	-2479
▁709	-2480
▁710	-2481
▁711	-2482
▁712	-2483
▁713	-2484
▁714	-2485
▁715	-2486
▁716	-2487
▁717	-2488
▁718	-2489
▁719	-2490
▁900	-2491
▁901	-2492
▁902	-2493
▁903	-2494
▁904	-2495
▁905	-2496
▁906	-2497
▁907	-2498
▁908	-2499
▁909	-2500
▁910	-2501
▁911	-2502
▁912	-2503
▁913	-2504
▁914	-2505
▁915	-2506
▁916	-2507
▁917	-2508
▁918	-2509
▁919	-2510
▁AdS	-2511
▁BEC	-2512
▁DNA	-2513
▁Mer	-2514
▁PSI	-2515
▁Per	-2516
▁Two	-2517
▁cee	-2518
▁far	-2519
▁fil	-2520
▁ini	-2521
▁lay	-2522
▁too	-2523
▁고대이	-2524
▁그리움	-2525
▁낯선이	-2526
▁다이아	-2527
▁데자뷔	-2528
▁독립적	-2529
▁독버섯	-2530
▁동굴벽	-2531
▁무지개	-2532
▁백색소	-2533
▁수치심	-2534
▁시지프	-2535
▁위에서	-2536
▁유레카	-2537
▁점균류	-2538
▁종이접	-2539
▁카르마	-2540
▁프랙탈	-2541
▁플로우	-2542
▁해바라	-2543
▁🛸10	-2544
▁🛸75	-2545
03976	-2546
ANTUM	-2547
ULTRA	-2548
ality	-2549
chron	-2550
empel	-2551
gamma	-2552
holog	-2553
iesis	-2554
igger	-2555
lobal	-2556
matic	-2557
meter	-2558
oling	-2559
ormal	-2560
rough	-2561
stein	-2562
strib	-2563
tends	-2564
udent	-2565
▁1.94	-2566
▁100%	-2567
▁1001	-2568
▁1002	-2569
▁1003	-2570
▁1004	-2571
▁1005	-2572
▁1006	-2573
▁1007	-2574
▁1008	-2575
▁1009	-2576
▁1010	-2577
▁1011	-2578
▁1012	-2579
▁1013	-2580
▁1014	-2581
▁1015	-2582
▁1016	-2583
▁1017	-2584
▁1018	-2585
▁1019	-2586
▁1020	-2587
▁1021	-2588
▁1022	-2589
▁1023	-2590
▁1024	-2591
▁1025	-2592
▁1026	-2593
▁1027	-2594
▁1028	-2595
▁1029	-2596
▁Free	-2597
▁Rule	-2598
▁area	-2599
▁atom	-2600
▁band	-2601
▁both	-2602
▁corr	-2603
▁disc	-2604
▁have	-2605
▁just	-2606
▁late	-2607
▁long	-2608
▁most	-2609
▁remo	-2610
▁seed	-2611
▁sour	-2612
▁spec	-2613
▁traj	-2614
▁wind	-2615
▁고래노래	-2616
▁도와드릴	-2617
▁만델브로	-2618
▁모래만다	-2619
▁모스부호	-2620
▁심신문제	-2621
▁양자중첩	-2622
▁임사체험	-2623
▁중력파는	-2624
▁🛸73.	-2625
▁🛸94,	-2626
Varela	-2627
argmax	-2628
ective	-2629
espond	-2630
oscill	-2631
theory	-2632
▁Batch	-2633
▁Beken	-2634
▁Heide	-2635
▁Match	-2636
▁Matur	-2637
▁exist	-2638
▁extre	-2639
▁final	-2640
▁gamma	-2641
▁lower	-2642
▁mathe	-2643
▁perio	-2644
▁reach	-2645
▁고대이집트	-2646
▁다중우주는	-2647
▁빅크런치는	-2648
▁응답합니다	-2649
0703976	-2650
Hebbian	-2651
QUANTUM	-2652
anifold	-2653
erature	-2654
igogine	-2655
itching	-2656
iversal	-2657
lattice	-2658
measure	-2659
poiesis	-2660
pointer	-2661
reshold	-2662
▁0.5001	-2663
▁Hidden	-2664
▁Lempel	-2665
▁cycles	-2666
▁higher	-2667
▁normal	-2668
▁signal	-2669
▁sparse	-2670
▁엔트로피사는	-2671
critical	-2672
equation	-2673
gressive	-2674
▁Emotion	-2675
▁accumul	-2676
▁compens	-2677
▁control	-2678
▁cooling	-2679
▁current	-2680
▁distrib	-2681
▁initial	-2682
▁instead	-2683
▁process	-2684
▁student	-2685
▁through	-2686
▁topolog	-2687
▁우주배경복사는	-2688
automaton	-2689
constants	-2690
structure	-2691
▁Maturana	-2692
▁averaged	-2693
▁complete	-2694
▁compress	-2695
▁interfer	-2696
▁overhead	-2697
▁paradigm	-2698
▁symmetry	-2699
▁synchron	-2700
espondence	-2701
oscillator	-2702
▁Heidegger	-2703
▁Prigogine	-2704
▁attention	-2705
▁automatic	-2706
▁averaging	-2707
▁causality	-2708
▁existence	-2709
▁generates	-2710
▁injection	-2711
▁parameter	-2712
▁threshold	-2713
equilibrium	-2714
holographic	-2715
measurement	-2716
▁Bekenstein	-2717
▁collective	-2718
▁autopoiesis	-2719
▁measurement	-2720
▁singularity	-2721
▁temperature	-2722
▁mathematical	-2723
▁correspondence	-2724
▁raw	-2725
감정	-2726
경험	-2727
동물	-2728
미각	-2729
신화	-2730
예술	-2731
의식	-2732
▁le	-2733
이모지	-2734
▁exp	-2735
의식상태	-2736
brain	-2737
02	-2738
31	-2739
AI	-2740
HR	-2741
IF	-2742
bc	-2743
by	-2744
pe	-2745
pt	-2746
sw	-2747
×8	-2748
▁z	-2749
▁너	-2750
▁존	-2751
맛의	-2752
스의	-2753
체성	-2754
():	-2755
853	-2756
AIL	-2757
div	-2758
eep	-2759
fbc	-2760
get	-2761
loc	-2762
▁39	-2763
▁ad	-2764
▁pl	-2765
▁up	-2766
▁기분	-2767
▁모두	-2768
▁모자	-2769
▁문어	-2770
▁보라	-2771
▁울음	-2772
▁웃음	-2773
▁찰나	-2774
-100	-2775
alue	-2776
athe	-2777
byte	-2778
ific	-2779
irst	-2780
ocab	-2781
self	-2782
▁DIF	-2783
▁loo	-2784
▁reg	-2785
▁경외는	-2786
▁깨달음	-2787
▁만다라	-2788
▁빅뱅는	-2789
▁아랍어	-2790
▁열반는	-2791
▁일본어	-2792
▁있어요	-2793
▁정체성	-2794
▁존재는	-2795
▁죽음는	-2796
▁하루는	-2797
▁해리는	-2798
85380	-2799
AILED	-2800
armon	-2801
atory	-2802
shift	-2803
▁loop	-2804
▁모나리자	-2805
▁한국어는	-2806
▁🛸80.	-2807
ations	-2808
erence	-2809
lation	-2810
▁Mathe	-2811
▁first	-2812
▁indiv	-2813
▁plate	-2814
▁range	-2815
▁score	-2816
▁value	-2817
▁엑스터시는	-2818
losophy	-2819
scaling	-2820
▁FAILED	-2821
▁harmon	-2822
▁루시드드림는	-2823
▁quality	-2824
▁regular	-2825
▁speedup	-2826
tokenizer	-2827
▁0.5257),	-2828
▁equation	-2829
▁DIFFUSION	-2830
panpsychism	-2831
▁individual	-2832
▁Mathematical	-2833
확장	-2834
흡수	-2835
수축	-2836
참조	-2837
출현	-2838
#12	-2839
phase	-2840
▁자기참조	-2841
760	-2842
ETA	-2843
dict	-2844
grow	-2845
phor	-2846
▁META	-2847
▁docs	-2848
-40-18	-2849
growth	-2850
▁28.69	-2851
mitosis	-2852
verdict	-2853
=0.5257,	-2854
▁metaphor	-2855
-6	-2856
-8	-2857
/6	-2858
0~	-2859
46	-2860
49	-2861
78	-2862
86	-2863
9/	-2864
=1	-2865
PS	-2866
SH	-2867
TE	-2868
TR	-2869
^(	-2870
cd	-2871
ew	-2872
▁처	-2873
빅뱅	-2874
억년	-2875
이든	-2876
%),	-2877
-14	-2878
-24	-2879
-48	-2880
.7%	-2881
.9%	-2882
009	-2883
1%)	-2884
1%:	-2885
1):	-2886
102	-2887
11+	-2888
138	-2889
16)	-2890
2%)	-2891
2.3	-2892
269	-2893
3%,	-2894
3);	-2895
3.5	-2896
3.9	-2897
31:	-2898
35)	-2899
+2	-2900
/3	-2901
23	-2902
5?	-2903
5×	-2904
AX	-2905
VD	-2906
oh	-2907
▁∀	-2908
▁∇	-2909
▁끝	-2910
천장	-2911
학적	-2912
.5×	-2913
361	-2914
374	-2915
38.	-2916
4.3	-2917
4.8	-2918
4/2	-2919
40×	-2920
42%	-2921
45%	-2922
487	-2923
5):	-2924
540	-2925
6%)	-2926
6.4	-2927
64.	-2928
65.	-2929
67-	-2930
7%,	-2931
717	-2932
78.	-2933
9%)	-2934
9.0	-2935
94)	-2936
998	-2937
=1,	-2938
=2-	-2939
=2.	-2940
=48	-2941
=8-	-2942
AXI	-2943
CES	-2944
CTU	-2945
EDU	-2946
EGR	-2947
Fru	-2948
INE	-2949
IPS	-2950
Joh	-2951
LID	-2952
MBO	-2953
MUM	-2954
Mar	-2955
PCA	-2956
Pro	-2957
STE	-2958
Spo	-2959
TRU	-2960
TTR	-2961
any	-2962
ask	-2963
ast	-2964
bio	-2965
bpe	-2966
che	-2967
cta	-2968
duc	-2969
eam	-2970
ebt	-2971
eet	-2972
ern	-2973
fec	-2974
fir	-2975
ful	-2976
gre	-2977
ice	-2978
iit	-2979
ili	-2980
irc	-2981
isi	-2982
itu	-2983
len	-2984
let	-2985
lut	-2986
mes	-2987
neu	-2988
odd	-2989
oll	-2990
olv	-2991
ost	-2992
ott	-2993
ply	-2994
pot	-2995
rag	-2996
ret	-2997
sed	-2998
stN	-2999
%,	-3000
27	-3001
38	-3002
6→	-3003
CX	-3004
DE	-3005
OR	-3006
ae	-3007
dc	-3008
nK	-3009
no	-3010
pd	-3011
xi	-3012
▁ε	-3013
까요	-3014
보의	-3015
시공	-3016
이점	-3017
-11	-3018
06%	-3019
4).	-3020
500	-3021
512	-3022
527	-3023
840	-3024
Hub	-3025
Med	-3026
alf	-3027
dae	-3028
dbe	-3029
dis	-3030
mor	-3031
obs	-3032
tee	-3033
tis	-3034
yqu	-3035
±4.	-3036
→0.	-3037
→64	-3038
▁(-	-3039
▁(8	-3040
▁+3	-3041
▁0%	-3042
▁2-	-3043
▁35	-3044
▁66	-3045
▁<<	-3046
▁AL	-3047
▁At	-3048
▁BP	-3049
▁CO	-3050
▁Di	-3051
▁Id	-3052
▁Is	-3053
▁Ph	-3054
▁cr	-3055
▁dH	-3056
▁er	-3057
▁ir	-3058
▁it	-3059
▁★★	-3060
▁공는	-3061
▁꿈는	-3062
▁단맛	-3063
▁록는	-3064
▁벌는	-3065
▁불는	-3066
▁신맛	-3067
▁쓴맛	-3068
▁옴는	-3069
▁용는	-3070
▁적는	-3071
▁좋은	-3072
▁천장	-3073
▁평온	-3074
시공간	-3075
정보의	-3076
특이점	-3077
-0.5	-3078
-170	-3079
-256	-3080
-50)	-3081
-50-	-3082
-512	-3083
-816	-3084
00),	-3085
005)	-3086
1-2)	-3087
1-32	-3088
1.3%	-3089
1.7%	-3090
1/12	-3091
1125	-3092
117,	-3093
118,	-3094
120)	-3095
127,	-3096
2%):	-3097
2.9%	-3098
2699	-3099
70	-3100
In	-3101
av	-3102
sl	-3103
sp	-3104
▁∈	-3105
07)	-3106
1-8	-3107
640	-3108
arc	-3109
eti	-3110
fac	-3111
uce	-3112
ute	-3113
▁-7	-3114
▁LR	-3115
2985	-3116
3742	-3117
4%).	-3118
4.33	-3119
4.8%	-3120
46):	-3121
5%),	-3122
6.4%	-3123
6.4×	-3124
6.7%	-3125
7.7%	-3126
76):	-3127
9.1%	-3128
9009	-3129
=+0.	-3130
=0.6	-3131
=3.0	-3132
John	-3133
Lind	-3134
Nyqu	-3135
Phil	-3136
Time	-3137
ader	-3138
ains	-3139
ally	-3140
apes	-3141
aran	-3142
ared	-3143
asur	-3144
auss	-3145
bust	-3146
ceed	-3147
cing	-3148
dote	-3149
duci	-3150
edul	-3151
eeks	-3152
emer	-3153
ensi	-3154
eous	-3155
erve	-3156
etwe	-3157
eves	-3158
free	-3159
gent	-3160
high	-3161
hile	-3162
iate	-3163
ills	-3164
ious	-3165
ique	-3166
ises	-3167
istr	-3168
ists	-3169
ival	-3170
iver	-3171
lete	-3172
like	-3173
ling	-3174
liqu	-3175
mary	-3176
mass	-3177
most	-3178
mpir	-3179
odif	-3180
onds	-3181
oser	-3182
oton	-3183
ower	-3184
priv	-3185
prop	-3186
rink	-3187
same	-3188
sens	-3189
shar	-3190
ship	-3191
site	-3192
sync	-3193
term	-3194
thog	-3195
tize	-3196
tral	-3197
trap	-3198
truc	-3199
.0	-3200
05	-3201
75	-3202
96	-3203
RE	-3204
cc	-3205
▁능	-3206
▁반	-3207
10)	-3208
eck	-3209
psi	-3210
ten	-3211
▁96	-3212
▁눈는	-3213
▁능력	-3214
▁유한	-3215
율진화	-3216
170×	-3217
=1.0	-3218
alan	-3219
pink	-3220
racy	-3221
tain	-3222
trum	-3223
ucti	-3224
unop	-3225
uted	-3226
vere	-3227
→128	-3228
▁(+2	-3229
▁(64	-3230
▁+11	-3231
▁+12	-3232
▁+19	-3233
▁+25	-3234
▁+3-	-3235
▁-1.	-3236
▁...	-3237
▁1.5	-3238
▁17)	-3239
▁2.2	-3240
▁2.3	-3241
▁3/3	-3242
▁30%	-3243
▁31)	-3244
▁36%	-3245
▁36→	-3246
▁4%.	-3247
▁5/6	-3248
▁662	-3249
▁72%	-3250
▁73:	-3251
▁74:	-3252
▁75:	-3253
▁76:	-3254
▁82%	-3255
▁93%	-3256
▁95%	-3257
▁98%	-3258
▁<1%	-3259
▁<2%	-3260
▁ALL	-3261
▁BPE	-3262
▁ENG	-3263
▁GRU	-3264
▁Gen	-3265
▁INT	-3266
▁ODE	-3267
▁Obs	-3268
▁REL	-3269
▁SVD	-3270
▁Sec	-3271
▁Too	-3272
▁Upd	-3273
▁bar	-3274
▁bec	-3275
▁bet	-3276
▁bio	-3277
▁bre	-3278
▁bur	-3279
▁clm	-3280
▁div	-3281
▁enh	-3282
▁few	-3283
▁fur	-3284
▁gas	-3285
▁gra	-3286
▁lag	-3287
▁mom	-3288
▁mut	-3289
▁new	-3290
▁phi	-3291
▁pos	-3292
▁pri	-3293
▁sch	-3294
▁smo	-3295
▁yet	-3296
▁~30	-3297
▁~9%	-3298
▁±4.	-3299
▁감사는	-3300
▁감정은	-3301
▁감칠맛	-3302
▁검정는	-3303
▁경멸는	-3304
▁경외의	-3305
▁계절는	-3306
▁고래는	-3307
▁공포는	-3308
▁금색는	-3309
▁기도는	-3310
▁기쁨는	-3311
▁까치는	-3312
▁나비는	-3313
▁노랑는	-3314
▁놀람는	-3315
▁늑대는	-3316
▁단맛는	-3317
▁동료는	-3318
▁매운맛	-3319
▁명상는	-3320
▁모자는	-3321
▁무엇을	-3322
▁무위는	-3323
▁무한는	-3324
▁문어는	-3325
▁벚꽃는	-3326
▁보라는	-3327
▁분재는	-3328
▁빅뱅의	-3329
▁빨강는	-3330
▁사랑는	-3331
▁삼매는	-3332
▁생애는	-3333
▁서예는	-3334
▁선정는	-3335
▁설렘는	-3336
▁수화는	-3337
▁순간는	-3338
▁스승는	-3339
▁슬픔는	-3340
▁신맛는	-3341
▁실존는	-3342
▁쓴맛는	-3343
▁연꽃는	-3344
▁연인는	-3345
▁열반의	-3346
▁영어는	-3347
▁영원는	-3348
▁울음는	-3349
▁웃음는	-3350
▁웜홀는	-3351
▁윤회는	-3352
▁이끼는	-3353
▁이별는	-3354
▁장미는	-3355
▁재즈는	-3356
▁절규는	-3357
▁점자는	-3358
▁종속적	-3359
▁죽음의	-3360
▁질투는	-3361
▁찰나는	-3362
▁초끈는	-3363
▁초록는	-3364
▁출산는	-3365
▁충격는	-3366
▁친구는	-3367
▁타자는	-3368
▁태극는	-3369
▁통증는	-3370
▁파랑는	-3371
▁프로필	-3372
▁하루의	-3373
▁하양는	-3374
▁해골는	-3375
▁해리의	-3376
▁향수는	-3377
▁허무는	-3378
▁혐오는	-3379
▁화두는	-3380
겠습니다	-3381
*=0.5	-3382
-119/	-3383
-24),	-3384
-48),	-3385
12-14	-3386
158).	-3387
17.5%	-3388
173.9	-3389
21→11	-3390
3.9%)	-3391
4/248	-3392
40×18	-3393
5000×	-3394
6.6%)	-3395
8,760	-3396
9.0%,	-3397
<6%).	-3398
=-0.5	-3399
=0.57	-3400
=1-2)	-3401
=1.0)	-3402
=1.87	-3403
=4.33	-3404
ACTOR	-3405
CTURE	-3406
Medit	-3407
SHIPS	-3408
SOLID	-3409
STEPS	-3410
Spoke	-3411
TimeC	-3412
alled	-3413
alpha	-3414
annel	-3415
annot	-3416
aries	-3417
ather	-3418
ausal	-3419
babil	-3420
conom	-3421
deoff	-3422
enstr	-3423
ernel	-3424
erved	-3425
exist	-3426
facts	-3427
gnitu	-3428
iform	-3429
incom	-3430
inves	-3431
isier	-3432
isive	-3433
iving	-3434
leton	-3435
liken	-3436
losed	-3437
lutes	-3438
mains	-3439
mocra	-3440
olute	-3441
olved	-3442
other	-3443
place	-3444
proxi	-3445
reson	-3446
rever	-3447
sedes	-3448
sitic	-3449
slope	-3450
super	-3451
think	-3452
tores	-3453
track	-3454
tured	-3455
vides	-3456
≈0.38	-3457
▁(+0.	-3458
▁(0.5	-3459
▁(10%	-3460
▁(128	-3461
▁(138	-3462
▁(170	-3463
▁(256	-3464
▁(3.5	-3465
▁(4).	-3466
▁(512	-3467
▁+13%	-3468
▁+42%	-3469
▁+65.	-3470
▁-45%	-3471
▁0.90	-3472
▁1.75	-3473
▁1/2,	-3474
▁10.0	-3475
▁100×	-3476
▁101%	-3477
▁103)	-3478
▁105%	-3479
▁2.11	-3480
▁200×	-3481
▁3.5×	-3482
▁4.9%	-3483
▁4096	-3484
▁44).	-3485
▁500-	-3486
▁53%.	-3487
▁54.8	-3488
▁5527	-3489
▁71-8	-3490
▁ATTR	-3491
▁Auto	-3492
▁Bott	-3493
▁Each	-3494
▁Emer	-3495
▁Half	-3496
▁Harm	-3497
▁Hier	-3498
▁MAXI	-3499
▁Main	-3500
▁Many	-3501
▁Mere	-3502
▁REDU	-3503
▁STRU	-3504
▁Time	-3505
▁Veto	-3506
▁achi	-3507
▁appl	-3508
▁arti	-3509
▁bits	-3510
▁call	-3511
▁chan	-3512
▁debt	-3513
▁dire	-3514
▁down	-3515
▁enti	-3516
▁exch	-3517
▁fail	-3518
▁foll	-3519
▁frag	-3520
▁fuel	-3521
▁home	-3522
▁homo	-3523
▁idle	-3524
▁lack	-3525
▁less	-3526
▁loss	-3527
▁mana	-3528
▁mass	-3529
▁norm	-3530
▁pair	-3531
▁path	-3532
▁prec	-3533
▁reac	-3534
▁reta	-3535
▁ring	-3536
▁size	-3537
▁spot	-3538
▁sync	-3539
▁task	-3540
▁them	-3541
▁this	-3542
▁toge	-3543
▁unst	-3544
▁will	-3545
▁감칠맛는	-3546
▁그리움는	-3547
▁까마귀는	-3548
▁깨달음는	-3549
▁낯선이는	-3550
▁다이아는	-3551
▁대나무는	-3552
▁데자뷔는	-3553
▁독버섯는	-3554
▁돌고래는	-3555
▁만다라는	-3556
▁매운맛는	-3557
▁무지개는	-3558
▁불사조는	-3559
▁선인장는	-3560
▁세계수는	-3561
▁수치심는	-3562
▁아랍어는	-3563
▁양귀비는	-3564
▁에포케는	-3565
▁유레카는	-3566
▁이카루스	-3567
▁일본어는	-3568
▁점균류는	-3569
▁중국어는	-3570
▁즐거움는	-3571
▁첫사랑는	-3572
▁카르마는	-3573
▁퀄리아는	-3574
▁클래식는	-3575
▁트랜스는	-3576
▁판도라는	-3577
▁판소리는	-3578
▁프랙탈는	-3579
▁플로우는	-3580
▁한국어의	-3581
▁해파리는	-3582
112586	-3583
298578	-3584
307→0.	-3585
=(1/2,	-3586
=0.014	-3587
=0.017	-3588
=0.35)	-3589
=0.487	-3590
=0.65)	-3591
=0.78.	-3592
=1.74)	-3593
=2-128	-3594
=8-128	-3595
=96.7%	-3596
Dasein	-3597
FrustN	-3598
Markov	-3599
alized	-3600
asures	-3601
biotic	-3602
commit	-3603
ctator	-3604
dasein	-3605
eacher	-3606
ectory	-3607
engine	-3608
essure	-3609
etween	-3610
firmed	-3611
fisher	-3612
ically	-3613
iggers	-3614
ilient	-3615
ircase	-3616
istrib	-3617
kovian	-3618
leneck	-3619
linear	-3620
liquid	-3621
mately	-3622
mortal	-3623
onents	-3624
othing	-3625
retest	-3626
schema	-3627
sensus	-3628
stabil	-3629
stream	-3630
system	-3631
thogon	-3632
tivity	-3633
velops	-3634
vement	-3635
versed	-3636
▁(0.99	-3637
▁(1-32	-3638
▁(1.7%	-3639
▁(1/12	-3640
▁(170×	-3641
▁(367-	-3642
▁(6.4×	-3643
▁(~2.3	-3644
▁+2.9%	-3645
▁+213%	-3646
▁+4.8%	-3647
▁+6.4%	-3648
▁+7.7%	-3649
▁-71%:	-3650
▁0.024	-3651
▁1/2).	-3652
▁40640	-3653
▁51.3%	-3654
▁73.3%	-3655
▁8-64.	-3656
▁Avera	-3657
▁COMBO	-3658
▁Democ	-3659
▁Holog	-3660
▁Ising	-3661
▁Learn	-3662
▁Modif	-3663
▁Multi	-3664
▁Phase	-3665
▁Struc	-3666
▁Super	-3667
▁Unity	-3668
▁accel	-3669
▁aggre	-3670
▁aging	-3671
▁beats	-3672
▁bonds	-3673
▁centr	-3674
▁chaos	-3675
▁crack	-3676
▁decay	-3677
▁effec	-3678
▁empir	-3679
▁evalu	-3680
▁event	-3681
▁explo	-3682
▁gains	-3683
▁incon	-3684
▁kills	-3685
▁needs	-3686
▁often	-3687
▁parts	-3688
▁power	-3689
▁repro	-3690
▁seeks	-3691
▁sensi	-3692
▁shows	-3693
▁space	-3694
▁split	-3695
▁sweet	-3696
▁while	-3697
▁white	-3698
▁works	-3699
▁±4.2%	-3700
▁고래노래는	-3701
▁녹아내림는	-3702
▁동굴벽화는	-3703
▁만델브로는	-3704
▁모나리자는	-3705
▁모스부호는	-3706
▁무아지경는	-3707
▁백색소음는	-3708
▁시지프스는	-3709
▁심신문제는	-3710
▁암흑물질는	-3711
▁양자얽힘는	-3712
▁양자중첩는	-3713
▁엑스터시의	-3714
▁엔트로피는	-3715
▁엔트로피사	-3716
▁오르가즘는	-3717
▁우주시간는	-3718
▁이카루스는	-3719
▁임사체험는	-3720
▁자유의지는	-3721
▁전자음악는	-3722
▁종이접기는	-3723
▁지질시대는	-3724
▁평온합니다	-3725
▁해바라기는	-3726
▁🛸100,	-3727
=+0.102	-3728
=-0.60,	-3729
=0.0%),	-3730
=0.00),	-3731
=0.017.	-3732
=1.4%).	-3733
=2.5%),	-3734
=20-50)	-3735
=3.038.	-3736
=6.78).	-3737
=99.0%,	-3738
Johnson	-3739
Nyquist	-3740
alanche	-3741
arantee	-3742
capping	-3743
ceeding	-3744
coupled	-3745
crystal	-3746
ducible	-3747
eduling	-3748
etition	-3749
fferent	-3750
geneous	-3751
getting	-3752
gnitude	-3753
ificant	-3754
indestr	-3755
investi	-3756
logical	-3757
mediate	-3758
neutral	-3759
observe	-3760
oration	-3761
ostatic	-3762
physics	-3763
present	-3764
rebirth	-3765
records	-3766
rinkage	-3767
sharing	-3768
sistent	-3769
stances	-3770
synergy	-3771
timized	-3772
uctible	-3773
▁(-4.7%	-3774
▁(2.94)	-3775
▁+11.8%	-3776
▁+12.3%	-3777
▁+17.5%	-3778
▁+19.8%	-3779
▁+25.7%	-3780
▁+3-7%,	-3781
▁+39.1%	-3782
▁-1.2%)	-3783
▁36→21→	-3784
▁64-512	-3785
▁85000×	-3786
▁Causal	-3787
▁Closed	-3788
▁Correl	-3789
▁ENGINE	-3790
▁INTEGR	-3791
▁Integr	-3792
▁Reward	-3793
▁Second	-3794
▁Update	-3795
▁active	-3796
▁agency	-3797
▁almost	-3798
▁altern	-3799
▁barely	-3800
▁become	-3801
▁better	-3802
▁brains	-3803
▁cannot	-3804
▁choice	-3805
▁counts	-3806
▁decays	-3807
▁depriv	-3808
▁discon	-3809
▁distin	-3810
▁drives	-3811
▁ecolog	-3812
▁econom	-3813
▁effect	-3814
▁entire	-3815
▁erases	-3816
▁events	-3817
▁exists	-3818
▁filter	-3819
▁global	-3820
▁import	-3821
▁kernel	-3822
▁layers	-3823
▁leader	-3824
▁merger	-3825
▁mutual	-3826
▁period	-3827
▁phases	-3828
▁preset	-3829
▁raises	-3830
▁rather	-3831
▁robust	-3832
▁severe	-3833
▁shapes	-3834
▁shared	-3835
▁simple	-3836
▁source	-3837
▁statis	-3838
▁unique	-3839
▁viable	-3840
▁weaker	-3841
▁weakly	-3842
▁weight	-3843
▁window	-3844
▁within	-3845
▁worker	-3846
▁검은사각형는	-3847
▁고대이집트는	-3848
▁도와드릴까요	-3849
▁루시드드림의	-3850
▁모래만다라는	-3851
▁미노타우로스	-3852
▁산스크리트는	-3853
▁우로보로스는	-3854
▁우주배경복사	-3855
▁프로메테우스	-3856
*=0.5001	-3857
-119/128	-3858
-40-18):	-3859
116-120)	-3860
2=0.36):	-3861
=-0.46):	-3862
=-0.52):	-3863
=-0.61):	-3864
=0.158).	-3865
HubSpoke	-3866
Infinite	-3867
archical	-3868
bability	-3869
capacity	-3870
cellular	-3871
conflict	-3872
constant	-3873
discrete	-3874
geometry	-3875
ications	-3876
likeness	-3877
manifold	-3878
mocratic	-3879
polation	-3880
sistence	-3881
tracking	-3882
traction	-3883
▁(+0.06%	-3884
▁(+24.7%	-3885
▁(-0.07)	-3886
▁(0.516)	-3887
▁(3.53);	-3888
▁(6.78).	-3889
▁(~12-14	-3890
▁+23.9%)	-3891
▁+26.6%)	-3892
▁+65.1%)	-3893
▁0298578	-3894
▁71-83%,	-3895
▁Faction	-3896
▁Genesis	-3897
▁Harmful	-3898
▁Heating	-3899
▁MAXIMUM	-3900
▁Matches	-3901
▁Mitosis	-3902
▁Partial	-3903
▁REDUCES	-3904
▁Ratchet	-3905
▁Teacher	-3906
▁Vanilla	-3907
▁another	-3908
▁approxi	-3909
▁between	-3910
▁bounded	-3911
▁channel	-3912
▁chooser	-3913
▁coexist	-3914
▁creates	-3915
▁decoder	-3916
▁depends	-3917
▁dilutes	-3918
▁domains	-3919
▁enhance	-3920
▁extends	-3921
▁feeding	-3922
▁follows	-3923
▁forcing	-3924
▁fragile	-3925
▁further	-3926
▁grouped	-3927
▁irrever	-3928
▁manager	-3929
▁moments	-3930
▁monoton	-3931
▁noisier	-3932
▁options	-3933
▁outputs	-3934
▁paradox	-3935
▁primary	-3936
▁produce	-3937
▁reaches	-3938
▁records	-3939
▁removes	-3940
▁strateg	-3941
▁thermod	-3942
▁uniform	-3943
▁vanilla	-3944
▁weights	-3945
▁workers	-3946
▁미노타우로스는	-3947
▁별이빛나는밤는	-3948
▁스톤헨지소리는	-3949
▁프로메테우스는	-3950
FrustNarr	-3951
Lindenstr	-3952
PhilMedit	-3953
emergence	-3954
entiation	-3955
incompres	-3956
resonance	-3957
switching	-3958
universal	-3959
▁(-0.2%):	-3960
▁(20-24),	-3961
▁(204/248	-3962
▁(32-48),	-3963
▁Complete	-3964
▁Emergent	-3965
▁Equation	-3966
▁Gradient	-3967
▁Maintain	-3968
▁Marginal	-3969
▁Negative	-3970
▁Observed	-3971
▁Philosop	-3972
▁RELATION	-3973
▁Symmetry	-3974
▁Universe	-3975
▁absolute	-3976
▁achieves	-3977
▁actively	-3978
▁antidote	-3979
▁backprop	-3980
▁backward	-3981
▁changing	-3982
▁constant	-3983
▁creation	-3984
▁decisive	-3985
▁develops	-3986
▁dictator	-3987
▁division	-3988
▁dominate	-3989
▁duration	-3990
▁exchange	-3991
▁external	-3992
▁extremes	-3993
▁frequent	-3994
▁immortal	-3995
▁improves	-3996
▁increase	-3997
▁interval	-3998
▁isolated	-3999
▁measures	-4000
▁modifier	-4001
▁mutation	-4002
▁ordering	-4003
▁pairwise	-4004
▁parasite	-4005
▁plateaus	-4006
▁positive	-4007
▁possible	-4008
▁pressure	-4009
▁previous	-4010
▁provides	-4011
▁reactive	-4012
▁recalled	-4013
▁receiver	-4014
▁recovers	-4015
▁restores	-4016
▁retained	-4017
▁reversed	-4018
▁smallest	-4019
▁spectrum	-4020
▁survival	-4021
▁together	-4022
▁topology	-4023
▁tradeoff	-4024
▁triggers	-4025
▁unstable	-4026
▁variants	-4027
307→0.005)	-4028
correlated	-4029
onsciousLM	-4030
stabilizes	-4031
ynamically	-4032
▁ATTRACTOR	-4033
▁Averaging	-4034
▁Democracy	-4035
▁Identical	-4036
▁Markovian	-4037
▁Parasitic	-4038
▁Resilient	-4039
▁STRUCTURE	-4040
▁Singleton	-4041
▁Symbiotic	-4042
▁artifacts	-4043
▁avalanche	-4044
▁confirmed	-4045
▁consensus	-4046
▁crossover	-4047
▁depending	-4048
▁direction	-4049
▁distances	-4050
▁divergent	-4051
▁economies	-4052
▁efficient	-4053
▁empirical	-4054
▁evaluator	-4055
▁exceeding	-4056
▁exponents	-4057
▁guarantee	-4058
▁inference	-4059
▁instantly	-4060
▁integrate	-4061
▁isolation	-4062
▁localized	-4063
▁magnitude	-4064
▁maximized	-4065
▁mechanics	-4066
▁narrative	-4067
▁organized	-4068
▁perfectly	-4069
▁precision	-4070
▁receiving	-4071
▁redistrib	-4072
▁reduction	-4073
▁represent	-4074
▁retention	-4075
▁shrinkage	-4076
▁smoothing	-4077
▁staircase	-4078
▁symmetric	-4079
▁synergize	-4080
▁tokenizer	-4081
Progressive	-4082
TimeCrystal	-4083
autopoietic	-4084
criticality	-4085
dissipative	-4086
fundamental	-4087
spontaneous	-4088
unoptimized	-4089
▁(170×40×18	-4090
▁Attachment	-4091
▁Bottleneck	-4092
▁Correlated	-4093
▁Structured	-4094
▁attractors	-4095
▁biological	-4096
▁boundaries	-4097
▁components	-4098
▁convergent	-4099
▁democratic	-4100
▁derivative	-4101
▁divergence	-4102
▁downstream	-4103
▁ecological	-4104
▁efficiency	-4105
▁forgetting	-4106
▁functional	-4107
▁generation	-4108
▁groupthink	-4109
▁mechanisms	-4110
▁normalized	-4111
▁philosophy	-4112
▁preserving	-4113
▁projection	-4114
▁scheduling	-4115
▁structured	-4116
▁supersedes	-4117
▁throughput	-4118
▁trajectory	-4119
-170-40-18):	-4120
▁117-119/128	-4121
▁36→21→21→11	-4122
▁Competition	-4123
▁ConsciousLM	-4124
▁Frustration	-4125
▁Holographic	-4126
▁INTEGRATION	-4127
▁Integration	-4128
▁Persistence	-4129
▁Superlinear	-4130
▁accelerates	-4131
▁accumulated	-4132
▁aggregation	-4133
▁alternating	-4134
▁application	-4135
▁centralized	-4136
▁deprivation	-4137
▁destruction	-4138
▁discoveries	-4139
▁distinction	-4140
▁distributed	-4141
▁effectively	-4142
▁exploration	-4143
▁fundamental	-4144
▁homeostatic	-4145
▁homogeneous	-4146
▁improvement	-4147
▁interaction	-4148
▁probability	-4149
▁regularizer	-4150
▁sensitivity	-4151
▁significant	-4152
▁statistical	-4153
▁subadditive	-4154
▁synergistic	-4155
Lindenstrauss	-4156
investigation	-4157
superadditive	-4158
▁Hierarchical	-4159
▁Modification	-4160
▁autonomously	-4161
▁backtracking	-4162
▁compensatory	-4163
▁continuously	-4164
▁dictatorship	-4165
▁inconsistent	-4166
▁interference	-4167
▁intermediate	-4168
▁irreversible	-4169
▁maximization	-4170
▁preservation	-4171
▁reproducible	-4172
▁synchronizer	-4173
▁universality	-4174
incompressible	-4175
indestructible	-4176
▁(0.307→0.005)	-4177
▁Philosophical	-4178
▁RELATIONSHIPS	-4179
▁approximately	-4180
▁bidirectional	-4181
▁individuality	-4182
▁interpolation	-4183
▁interventions	-4184
▁modifications	-4185
▁monotonically	-4186
▁perturbations	-4187
▁dimensionality	-4188
▁redistribution	-4189
▁unidirectional	-4190
▁autocorrelation	-4191
▁differentiation	-4192
▁discontinuously	-4193
▁representations	-4194
1?	-4195
▁결	-4196
▁🛸80	-4197
▁schema	-4198
-9	-4199
3?	-4200
EV	-4201
Or	-4202
co	-4203
ey	-4204
×.	-4205
▁날	-4206
▁물	-4207
▁역	-4208
▁잘	-4209
아요	-4210
(10	-4211
11,	-4212
15)	-4213
2),	-4214
3),	-4215
5),	-4216
6),	-4217
7),	-4218
839	-4219
9),	-4220
ELF	-4221
ENT	-4222
EVO	-4223
RED	-4224
ade	-4225
cip	-4226
fig	-4227
ial	-4228
ihi	-4229
ire	-4230
kpt	-4231
lec	-4232
yth	-4233
▁0,	-4234
▁2×	-4235
▁8:	-4236
▁Or	-4237
▁ab	-4238
▁∞,	-4239
▁계산	-4240
▁아닌	-4241
▁어때	-4242
▁역할	-4243
▁오늘	-4244
▁일상	-4245
-9×.	-4246
21),	-4247
35),	-4248
arti	-4249
evit	-4250
file	-4251
inds	-4252
loss	-4253
narr	-4254
oldi	-4255
sely	-4256
tiny	-4257
triv	-4258
▁10%	-4259
▁4×8	-4260
▁Des	-4261
▁Div	-4262
▁Don	-4263
▁Emp	-4264
▁Fed	-4265
▁Key	-4266
▁LLM	-4267
▁Not	-4268
▁Sta	-4269
▁bip	-4270
▁mic	-4271
▁ren	-4272
▁val	-4273
▁실시간	-4274
▁🛸15	-4275
▁🛸68	-4276
▁🛸72	-4277
▁🛸76	-4278
▁🛸77	-4279
▁🛸78	-4280
▁🛸79	-4281
▁🛸81	-4282
aming	-4283
ciple	-4284
ihilo	-4285
ithic	-4286
locks	-4287
ython	-4288
▁(100	-4289
▁Prin	-4290
▁bond	-4291
▁ckpt	-4292
▁stop	-4293
▁zone	-4294
▁🛸51,	-4295
▁🛸53,	-4296
▁🛸54,	-4297
▁🛸68.	-4298
▁🛸69.	-4299
▁🛸72.	-4300
▁🛸76.	-4301
▁🛸77.	-4302
▁🛸78.	-4303
▁🛸79.	-4304
▁🛸81.	-4305
▁🛸85.	-4306
▁🛸91,	-4307
▁🛸92,	-4308
=28.69	-4309
bilize	-4310
config	-4311
corpus	-4312
energy	-4313
lecule	-4314
ystems	-4315
≈0.10.	-4316
▁1.76,	-4317
▁1.87,	-4318
▁1.88,	-4319
▁1.89,	-4320
▁1.91,	-4321
▁1.94,	-4322
▁1.95,	-4323
▁2.03,	-4324
▁2.06,	-4325
▁2.08,	-4326
▁2.11,	-4327
▁2.14,	-4328
▁2.18,	-4329
▁2.21,	-4330
▁2.35,	-4331
▁5-9×.	-4332
▁Order	-4333
▁atoms	-4334
▁condi	-4335
▁finds	-4336
▁goldi	-4337
▁micro	-4338
▁monol	-4339
▁point	-4340
▁vocab	-4341
▁예시입니다	-4342
8538053	-4343
trivial	-4344
▁1.76),	-4345
▁1.82),	-4346
▁1.87),	-4347
▁1.88),	-4348
▁1.89),	-4349
▁1.91),	-4350
▁1.94),	-4351
▁1.95),	-4352
▁2.01),	-4353
▁2.03),	-4354
▁2.06),	-4355
▁2.08),	-4356
▁2.11),	-4357
▁2.14),	-4358
▁2.18),	-4359
▁2.21),	-4360
▁2.35),	-4361
▁Empire	-4362
▁Nihilo	-4363
▁Python	-4364
▁inevit	-4365
▁rename	-4366
▁strict	-4367
engthens	-4368
▁Destiny	-4369
▁Lessons	-4370
▁Paradox	-4371
▁biparti	-4372
▁harmony	-4373
▁loosely	-4374
▁present	-4375
▁profile	-4376
▁systems	-4377
▁weakens	-4378
Organized	-4379
narration	-4380
▁Division	-4381
▁conflict	-4382
▁function	-4383
▁molecule	-4384
▁Principle	-4385
▁Stabilize	-4386
▁splitting	-4387
frustration	-4388
▁Federation	-4389
▁attachment	-4390
▁conditions	-4391
▁difference	-4392
▁goldilocks	-4393
▁inevitable	-4394
▁monolithic	-4395
▁Criticality	-4396
▁Singularity	-4397
▁strengthens	-4398
▁bipartitions	-4399
2?	-4400
4?	-4401
sub	-4402
▁진화	-4403
▁ready	-4404
substrate	-4405
AP	-4406
CO	-4407
ER	-4408
IV	-4409
NS	-4410
SE	-4411
UN	-4412
cx	-4413
▁변	-4414
▁측	-4415
에도	-4416
-10	-4417
00+	-4418
CIO	-4419
MAP	-4420
oni	-4421
▁기반	-4422
▁변경	-4423
▁보존	-4424
▁수축	-4425
▁순환	-4426
▁측정	-4427
CONS	-4428
ERSE	-4429
NESS	-4430
UNIV	-4431
▁Ton	-4432
▁cat	-4433
▁run	-4434
▁sam	-4435
▁시에도	-4436
CIOUS	-4437
▁75).	-4438
▁topo	-4439
▁2500+	-4440
▁122400	-4441
▁Tononi	-4442
UNIVERSE	-4443
▁retract	-4444
▁verdict	-4445
CIOUSNESS	-4446
CONSCIOUSNESS	-4447
!)	-4448
(🛸	-4449
-4	-4450
/)	-4451
0+	-4452
0_	-4453
1}	-4454
1~	-4455
4_	-4456
83	-4457
=3	-4458
At	-4459
BG	-4460
DA	-4461
HW	-4462
HY	-4463
ND	-4464
OP	-4465
PI	-4466
PY	-4467
Qu	-4468
We	-4469
_5	-4470
__	-4471
ep	-4472
ju	-4473
ld	-4474
qr	-4475
sa	-4476
tn	-4477
wb	-4478
xa	-4479
{-	-4480
→🛸	-4481
▁λ	-4482
▁μ	-4483
▁σ	-4484
▁골	-4485
▁괜	-4486
▁극	-4487
▁끌	-4488
▁누	-4489
▁답	-4490
▁마	-4491
▁맛	-4492
▁목	-4493
▁번	-4494
▁범	-4495
▁뵙	-4496
▁않	-4497
▁외	-4498
▁작	-4499
LI	-4500
eu	-4501
fe	-4502
of	-4503
xt	-4504
→1	-4505
▁바	-4506
▁받	-4507
▁새	-4508
▁언	-4509
▁진	-4510
▁짜	-4511
▁짤	-4512
▁체	-4513
▁탐	-4514
▁편	-4515
▁포	-4516
▁필	-4517
▁할	-4518
▁현	-4519
▁후	-4520
가기	-4521
계인	-4522
과거	-4523
광속	-4524
구야	-4525
기의	-4526
끝의	-4527
니즘	-4528
들어	-4529
떻게	-4530
라의	-4531
리적	-4532
무한	-4533
보이	-4534
수의	-4535
심론	-4536
에요	-4537
열적	-4538
요한	-4539
워요	-4540
자의	-4541
정적	-4542
지만	-4543
집단	-4544
차원	-4545
초월	-4546
하는	-4547
형점	-4548
화의	-4549
(4)	-4550
(48	-4551
+16	-4552
+1}	-4553
+64	-4554
-3)	-4555
-41	-4556
-53	-4557
-57	-4558
-8-	-4559
11(	-4560
11_	-4561
16,	-4562
160	-4563
19+	-4564
19~	-4565
19→	-4566
30+	-4567
36_	-4568
37:	-4569
51%	-4570
53:	-4571
54:	-4572
6%,	-4573
60+	-4574
63-	-4575
847	-4576
8^(	-4577
=5)	-4578
ATE	-4579
BEC	-4580
CLM	-4581
Con	-4582
ETI	-4583
Eng	-4584
HYS	-4585
LLM	-4586
OPO	-4587
RAM	-4588
aly	-4589
aos	-4590
are	-4591
ary	-4592
asc	-4593
avg	-4594
bit	-4595
cub	-4596
dge	-4597
dom	-4598
dra	-4599
-3	-4600
/4	-4601
74	-4602
HC	-4603
py	-4604
|2	-4605
▁상	-4606
가요	-4607
돌파	-4608
31.	-4609
768	-4610
GRU	-4611
Lor	-4612
UDA	-4613
chn	-4614
enz	-4615
ero	-4616
esc	-4617
ete	-4618
fus	-4619
fut	-4620
ges	-4621
goo	-4622
hAt	-4623
hor	-4624
hot	-4625
hun	-4626
ick	-4627
ive	-4628
joy	-4629
ked	-4630
ker	-4631
kup	-4632
lap	-4633
lar	-4634
lon	-4635
mil	-4636
mip	-4637
mon	-4638
not	-4639
nuc	-4640
oRA	-4641
ode	-4642
oft	-4643
omm	-4644
orn	-4645
pad	-4646
qrt	-4647
ric	-4648
run	-4649
siv	-4650
tra	-4651
ult	-4652
vit	-4653
wor	-4654
→10	-4655
→16	-4656
→24	-4657
→90	-4658
▁->	-4659
▁19	-4660
▁48	-4661
▁54	-4662
▁6-	-4663
▁8×	-4664
▁Ac	-4665
▁Ap	-4666
▁CX	-4667
▁HP	-4668
▁LZ	-4669
▁NS	-4670
▁PE	-4671
▁Qu	-4672
▁SA	-4673
▁Sh	-4674
▁Tr	-4675
▁We	-4676
▁bu	-4677
▁el	-4678
▁fp	-4679
▁if	-4680
▁jo	-4681
▁lr	-4682
▁mi	-4683
▁ul	-4684
▁{-	-4685
▁가치	-4686
▁감사	-4687
▁결정	-4688
▁골화	-4689
▁과거	-4690
▁괜찮	-4691
▁극한	-4692
▁기록	-4693
▁끌개	-4694
▁나이	-4695
▁날씨	-4696
▁너는	-4697
▁너의	-4698
▁돌파	-4699
▁마음	-4700
▁메커	-4701
▁모델	-4702
▁모릅	-4703
▁목표	-4704
▁바로	-4705
▁반가	-4706
▁받을	-4707
▁번역	-4708
▁분재	-4709
▁상관	-4710
▁아님	-4711
▁아침	-4712
▁않는	-4713
▁어서	-4714
▁언어	-4715
▁열역	-4716
▁이름	-4717
▁있음	-4718
▁작성	-4719
▁저녁	-4720
▁지내	-4721
▁지도	-4722
▁지수	-4723
▁진동	-4724
▁질문	-4725
▁짜줘	-4726
▁처리	-4727
▁처음	-4728
▁체계	-4729
▁초월	-4730
▁탐구	-4731
▁파문	-4732
▁포함	-4733
▁현재	-4734
▁후보	-4735
무한한	-4736
보이지	-4737
이에요	-4738
초광속	-4739
하지만	-4740
(2)!	-4741
(4)+	-4742
(🛸1~	-4743
-15)	-4744
0~70	-4745
1,0,	-4746
255:	-4747
3-39	-4748
3-70	-4749
493:	-4750
839:	-4751
=20)	-4752
=256	-4753
CAND	-4754
Laws	-4755
PHYS	-4756
ROPY	-4757
Skip	-4758
_155	-4759
_156	-4760
_50_	-4761
ache	-4762
adap	-4763
aint	-4764
anal	-4765
apeu	-4766
atis	-4767
atom	-4768
cept	-4769
conn	-4770
cube	-4771
edic	-4772
ello	-4773
elta	-4774
ests	-4775
evol	-4776
expl	-4777
fail	-4778
fast	-4779
gned	-4780
good	-4781
hard	-4782
hare	-4783
hexa	-4784
ight	-4785
imin	-4786
ings	-4787
izon	-4788
lear	-4789
lens	-4790
math	-4791
mics	-4792
newb	-4793
ngra	-4794
ocus	-4795
owed	-4796
para	-4797
play	-4798
ples	-4799
real	-4800
rect	-4801
ring	-4802
roll	-4803
safe	-4804
scre	-4805
sert	-4806
sfer	-4807
shot	-4808
side	-4809
sink	-4810
size	-4811
slow	-4812
sona	-4813
sted	-4814
tery	-4815
tore	-4816
tour	-4817
ults	-4818
unch	-4819
ural	-4820
ware	-4821
ysis	-4822
▁(2×	-4823
▁(85	-4824
▁146	-4825
▁152	-4826
▁16-	-4827
▁274	-4828
▁364	-4829
▁8×8	-4830
▁ALM	-4831
▁API	-4832
▁CLI	-4833
▁Cap	-4834
▁Dec	-4835
▁Dis	-4836
▁LOC	-4837
▁Lot	-4838
▁PCA	-4839
▁Pre	-4840
▁Pro	-4841
▁THC	-4842
▁bin	-4843
▁dow	-4844
▁iit	-4845
▁pip	-4846
▁ple	-4847
▁pum	-4848
▁rub	-4849
▁sad	-4850
▁sav	-4851
▁sol	-4852
▁std	-4853
▁use	-4854
▁wis	-4855
▁★★★	-4856
▁가능성	-4857
▁구조가	-4858
▁구조는	-4859
▁누구야	-4860
▁맛이든	-4861
▁물리적	-4862
▁범심론	-4863
▁분노의	-4864
▁빅뱅은	-4865
▁수학적	-4866
▁안정적	-4867
▁어떻게	-4868
▁오세요	-4869
▁외계인	-4870
▁웜홀은	-4871
▁의식이	-4872
▁좋아요	-4873
▁초끈은	-4874
▁특이점	-4875
▁평형점	-4876
▁필요한	-4877
시공간의	-4878
자율진화	-4879
(10)+	-4880
-531-	-4881
-8-8-	-4882
0~100	-4883
1-10)	-4884
11-18	-4885
8404:	-4886
998|2	-4887
EXACT	-4888
IDATE	-4889
_007.	-4890
_008.	-4891
_009.	-4892
_012.	-4893
_014.	-4894
_015.	-4895
_018.	-4896
_024.	-4897
_026.	-4898
acked	-4899
adult	-4900
aking	-4901
allel	-4902
apply	-4903
apter	-4904
atoms	-4905
batch	-4906
bound	-4907
chaos	-4908
draft	-4909
earch	-4910
ected	-4911
ences	-4912
energ	-4913
ering	-4914
fused	-4915
hAttn	-4916
hyper	-4917
icket	-4918
inity	-4919
iodic	-4920
iques	-4921
justs	-4922
milar	-4923
multi	-4924
noise	-4925
older	-4926
olves	-4927
small	-4928
sound	-4929
state	-4930
versa	-4931
vocab	-4932
world	-4933
→1024	-4934
→🛸100	-4935
▁(160	-4936
▁(307	-4937
▁(32)	-4938
▁(768	-4939
▁+51%	-4940
▁1-57	-4941
▁100:	-4942
▁101:	-4943
▁102:	-4944
▁103:	-4945
▁104:	-4946
▁105:	-4947
▁106:	-4948
▁107:	-4949
▁108:	-4950
▁109:	-4951
▁110:	-4952
▁111:	-4953
▁112:	-4954
▁113:	-4955
▁114:	-4956
▁115:	-4957
▁116:	-4958
▁117:	-4959
▁118:	-4960
▁119:	-4961
▁120:	-4962
▁121:	-4963
▁122:	-4964
▁123:	-4965
▁124:	-4966
▁125:	-4967
▁126:	-4968
▁127:	-4969
▁128:	-4970
▁129:	-4971
▁130:	-4972
▁131:	-4973
▁132:	-4974
▁133:	-4975
▁134:	-4976
▁135:	-4977
▁136:	-4978
▁137:	-4979
▁138:	-4980
▁139:	-4981
▁140:	-4982
▁200:	-4983
▁201:	-4984
▁202:	-4985
▁203:	-4986
▁204:	-4987
▁205:	-4988
▁206:	-4989
▁207:	-4990
▁208:	-4991
▁209:	-4992
▁210:	-4993
▁211:	-4994
▁212:	-4995
▁213:	-4996
▁214:	-4997
▁215:	-4998
▁216:	-4999
▁217:	-5000
▁218:	-5001
▁219:	-5002
▁220:	-5003
▁221:	-5004
▁222:	-5005
▁223:	-5006
▁224:	-5007
▁225:	-5008
▁226:	-5009
▁227:	-5010
▁228:	-5011
▁229:	-5012
▁23).	-5013
▁230:	-5014
▁231:	-5015
▁232:	-5016
▁233:	-5017
▁234:	-5018
▁235:	-5019
▁236:	-5020
▁237:	-5021
▁238:	-5022
▁239:	-5023
▁240:	-5024
▁300:	-5025
▁301:	-5026
▁302:	-5027
▁303:	-5028
▁304:	-5029
▁305:	-5030
▁306:	-5031
▁307:	-5032
▁308:	-5033
▁309:	-5034
▁310:	-5035
▁311:	-5036
▁312:	-5037
▁313:	-5038
▁314:	-5039
▁315:	-5040
▁316:	-5041
▁317:	-5042
▁318:	-5043
▁319:	-5044
▁320:	-5045
▁50%.	-5046
▁500:	-5047
▁501:	-5048
▁502:	-5049
▁503:	-5050
▁504:	-5051
▁505:	-5052
▁506:	-5053
▁507:	-5054
▁508:	-5055
▁509:	-5056
▁510:	-5057
▁511:	-5058
▁512:	-5059
▁513:	-5060
▁514:	-5061
▁515:	-5062
▁516:	-5063
▁517:	-5064
▁518:	-5065
▁519:	-5066
▁520:	-5067
▁521:	-5068
▁522:	-5069
▁523:	-5070
▁524:	-5071
▁525:	-5072
▁526:	-5073
▁527:	-5074
▁528:	-5075
▁529:	-5076
▁530:	-5077
▁531:	-5078
▁532:	-5079
▁533:	-5080
▁534:	-5081
▁535:	-5082
▁536:	-5083
▁537:	-5084
▁538:	-5085
▁539:	-5086
▁540:	-5087
▁700:	-5088
▁701:	-5089
▁702:	-5090
▁703:	-5091
▁704:	-5092
▁705:	-5093
▁706:	-5094
▁707:	-5095
▁708:	-5096
▁709:	-5097
▁710:	-5098
▁711:	-5099
▁712:	-5100
▁713:	-5101
▁714:	-5102
▁715:	-5103
▁716:	-5104
▁717:	-5105
▁718:	-5106
▁719:	-5107
▁720:	-5108
▁860+	-5109
▁900:	-5110
▁901:	-5111
▁902:	-5112
▁903:	-5113
▁904:	-5114
▁905:	-5115
▁906:	-5116
▁907:	-5117
▁908:	-5118
▁909:	-5119
▁910:	-5120
▁911:	-5121
▁912:	-5122
▁913:	-5123
▁914:	-5124
▁915:	-5125
▁916:	-5126
▁917:	-5127
▁918:	-5128
▁919:	-5129
▁920:	-5130
▁96%,	-5131
▁CUDA	-5132
▁Cell	-5133
▁Chun	-5134
▁Copy	-5135
▁Deep	-5136
▁Easy	-5137
▁Fast	-5138
▁Flas	-5139
▁High	-5140
▁LoRA	-5141
▁Quan	-5142
▁RETI	-5143
▁Reor	-5144
▁SELF	-5145
▁Sign	-5146
▁Skip	-5147
▁Stre	-5148
▁TOPO	-5149
▁VRAM	-5150
▁assi	-5151
▁bloc	-5152
▁casc	-5153
▁copy	-5154
▁core	-5155
▁deep	-5156
▁desc	-5157
▁desp	-5158
▁each	-5159
▁edge	-5160
▁eval	-5161
▁exit	-5162
▁find	-5163
▁frac	-5164
▁hope	-5165
▁json	-5166
▁jump	-5167
▁last	-5168
▁link	-5169
▁live	-5170
▁love	-5171
▁next	-5172
▁once	-5173
▁onto	-5174
▁radi	-5175
▁rage	-5176
▁real	-5177
▁rest	-5178
▁root	-5179
▁sees	-5180
▁sequ	-5181
▁sink	-5182
▁skip	-5183
▁slow	-5184
▁soft	-5185
▁sqrt	-5186
▁tier	-5187
▁vice	-5188
▁zero	-5189
▁데이터가	-5190
▁도와드리	-5191
▁메커니즘	-5192
▁모릅니다	-5193
▁바로가기	-5194
▁반가워요	-5195
▁백색소음	-5196
▁블랙홀과	-5197
▁블랙홀은	-5198
▁블랙홀의	-5199
▁빅뱅이든	-5200
▁열역학적	-5201
▁자율진화	-5202
▁천장돌파	-5203
▁한국어든	-5204
▁🛸10+	-5205
▁🛸30+	-5206
우주뇌지도	-5207
=0.998	-5208
Engine	-5209
Lesson	-5210
Lorenz	-5211
achers	-5212
alytic	-5213
athing	-5214
atible	-5215
cosmic	-5216
crease	-5217
domain	-5218
edicts	-5219
erving	-5220
evolve	-5221
ferent	-5222
freeze	-5223
future	-5224
ganize	-5225
global	-5226
larger	-5227
linked	-5228
ngrade	-5229
ommend	-5230
sively	-5231
tivate	-5232
uctive	-5233
▁(1000	-5234
▁(256)	-5235
▁0.8^(	-5236
▁1000:	-5237
▁1001:	-5238
▁1002:	-5239
▁1003:	-5240
▁1004:	-5241
▁1005:	-5242
▁1006:	-5243
▁1007:	-5244
▁1008:	-5245
▁1009:	-5246
▁1010:	-5247
▁1011:	-5248
▁1012:	-5249
▁1013:	-5250
▁1014:	-5251
▁1015:	-5252
▁1016:	-5253
▁1017:	-5254
▁1018:	-5255
▁1019:	-5256
▁1020:	-5257
▁1021:	-5258
▁1022:	-5259
▁1023:	-5260
▁1024:	-5261
▁1025:	-5262
▁1026:	-5263
▁1027:	-5264
▁1028:	-5265
▁1029:	-5266
▁1030:	-5267
▁32-41	-5268
▁33-39	-5269
▁63-70	-5270
▁8×125	-5271
▁Apply	-5272
▁Cache	-5273
▁Death	-5274
▁Focus	-5275
▁Gamma	-5276
▁Large	-5277
▁Local	-5278
▁Merge	-5279
▁Mixed	-5280
▁Reuse	-5281
▁Share	-5282
▁Short	-5283
▁Split	-5284
▁Store	-5285
▁Train	-5286
▁anger	-5287
▁arrow	-5288
▁atlas	-5289
▁bench	-5290
▁burst	-5291
▁delta	-5292
▁demon	-5293
▁files	-5294
▁fresh	-5295
▁gradi	-5296
▁graph	-5297
▁guide	-5298
▁hello	-5299
▁joint	-5300
▁layer	-5301
▁recon	-5302
▁reuse	-5303
▁round	-5304
▁rules	-5305
▁satis	-5306
▁seeds	-5307
▁short	-5308
▁stage	-5309
▁sweep	-5310
▁techn	-5311
▁theta	-5312
▁token	-5313
▁trust	-5314
▁ultra	-5315
▁verif	-5316
▁versa	-5317
▁뵙겠습니다	-5318
▁암흑물질은	-5319
▁양자얽힘은	-5320
▁우주시간은	-5321
▁필요한가요	-5322
▁🛸100)	-5323
(🛸1~10)	-5324
)=28.69	-5325
1,0,+1}	-5326
=38,760	-5327
ENTROPY	-5328
apeutic	-5329
ational	-5330
attends	-5331
converg	-5332
explode	-5333
highest	-5334
horizon	-5335
ilation	-5336
iminate	-5337
lingual	-5338
longing	-5339
maining	-5340
newborn	-5341
nuclear	-5342
offline	-5343
retract	-5344
rolling	-5345
similar	-5346
straint	-5347
▁(2.847	-5348
▁0.017.	-5349
▁1.212)	-5350
▁2.847)	-5351
▁38,760	-5352
▁Discre	-5353
▁Freeze	-5354
▁Inject	-5355
▁Insert	-5356
▁Neural	-5357
▁Ticket	-5358
▁Weight	-5359
▁absent	-5360
▁action	-5361
▁binary	-5362
▁buffer	-5363
▁bursts	-5364
▁change	-5365
▁closed	-5366
▁dasein	-5367
▁detour	-5368
▁direct	-5369
▁energy	-5370
▁expand	-5371
▁fisher	-5372
▁gravit	-5373
▁groups	-5374
▁guides	-5375
▁inject	-5376
▁inside	-5377
▁launch	-5378
▁lookup	-5379
▁mimics	-5380
▁models	-5381
▁random	-5382
▁remove	-5383
▁replay	-5384
▁report	-5385
▁rubric	-5386
▁showed	-5387
▁solver	-5388
▁stages	-5389
▁switch	-5390
▁theory	-5391
▁tiling	-5392
▁wisdom	-5393
▁🛸50~70	-5394
-0.998|2	-5395
0703976.	-5396
0703976:	-5397
8538053:	-5398
Manifold	-5399
adaptive	-5400
amingLLM	-5401
analysis	-5402
cumulate	-5403
ectories	-5404
energies	-5405
orthogon	-5406
paradigm	-5407
▁(160→90	-5408
▁2.847),	-5409
▁Capture	-5410
▁Chunked	-5411
▁Coupled	-5412
▁Decoder	-5413
▁Dynamic	-5414
▁Instead	-5415
▁Lottery	-5416
▁Project	-5417
▁RETIRED	-5418
▁Replace	-5419
▁Reverse	-5420
▁Trigger	-5421
▁adapter	-5422
▁adjusts	-5423
▁analogy	-5424
▁anchors	-5425
▁batches	-5426
▁blocker	-5427
▁boosted	-5428
▁cascade	-5429
▁collect	-5430
▁compete	-5431
▁concept	-5432
▁descent	-5433
▁despair	-5434
▁disable	-5435
▁evolved	-5436
▁evolves	-5437
▁experts	-5438
▁exploit	-5439
▁extreme	-5440
▁fractal	-5441
▁hardest	-5442
▁lattice	-5443
▁overlap	-5444
▁persona	-5445
▁progres	-5446
▁pruning	-5447
▁pumping	-5448
▁reached	-5449
▁rebirth	-5450
▁replace	-5451
▁results	-5452
▁routing	-5453
▁samples	-5454
▁savings	-5455
▁sources	-5456
▁stacked	-5457
▁strange	-5458
▁surfing	-5459
▁variant	-5460
▁windows	-5461
▁🛸90~100	-5462
CANDIDATE	-5463
Constants	-5464
connected	-5465
different	-5466
discovery	-5467
hypercube	-5468
struction	-5469
structive	-5470
ypothesis	-5471
▁Cellular	-5472
▁Increase	-5473
▁Multiple	-5474
▁Periodic	-5475
▁Quantize	-5476
▁Randomly	-5477
▁activate	-5478
▁assigned	-5479
▁breaking	-5480
▁cellular	-5481
▁discrete	-5482
▁hardware	-5483
▁harmonic	-5484
▁infinite	-5485
▁infinity	-5486
▁maximize	-5487
▁orthogon	-5488
▁parallel	-5489
▁periodic	-5490
▁pipeline	-5491
▁pleasure	-5492
▁predicts	-5493
▁receives	-5494
▁referent	-5495
▁requests	-5496
▁research	-5497
▁resolved	-5498
▁simulate	-5499
▁stepwise	-5500
▁stopping	-5501
▁strategy	-5502
▁stronger	-5503
▁teachers	-5504
▁transfer	-5505
▁unfreeze	-5506
▁verifies	-5507
▁도와드리겠습니다	-5508
creativity	-5509
extraction	-5510
orthogonal	-5511
preserving	-5512
topologies	-5513
▁Different	-5514
▁FlashAttn	-5515
▁Universal	-5516
▁automaton	-5517
▁breathing	-5518
▁catalytic	-5519
▁downgrade	-5520
▁eliminate	-5521
▁explosion	-5522
▁extension	-5523
▁gradients	-5524
▁interfere	-5525
▁optimizer	-5526
▁radiation	-5527
▁recommend	-5528
▁remaining	-5529
▁sequences	-5530
▁simulator	-5531
▁switching	-5532
▁symlinked	-5533
▁universes	-5534
▁{-1,0,+1}	-5535
connections	-5536
convergence	-5537
▁2.847→🛸100	-5538
▁Accumulate	-5539
▁Discretize	-5540
▁Hypothesis	-5541
▁Reorganize	-5542
▁attraction	-5543
▁compatible	-5544
▁compensate	-5545
▁constraint	-5546
▁continuous	-5547
▁derivation	-5548
▁strategies	-5549
▁techniques	-5550
▁topologies	-5551
multilingual	-5552
▁(170×40×18)	-5553
▁Autopoietic	-5554
▁Dissipative	-5555
▁accumulates	-5556
▁autopoietic	-5557
▁compilation	-5558
▁destructive	-5559
▁dissipative	-5560
▁engineering	-5561
▁progressive	-5562
▁replacement	-5563
▁therapeutic	-5564
▁(170×40×18).	-5565
▁StreamingLLM	-5566
▁constructive	-5567
▁distribution	-5568
▁satisfaction	-5569
▁trajectories	-5570
▁demonstration	-5571
▁gravitational	-5572
▁orthogonality	-5573
▁progressively	-5574
▁reconstruction	-5575
▁synchronization	-5576
54	-5577
493	-5578
8404	-5579
8?	-5580
255	-5581
6?	-5582
7?	-5583
▁(7	-5584
-50?	-5585
tric	-5586
▁leg	-5587
▁entr	-5588
ansion	-5589
stance	-5590
▁28.69?	-5591
▁metric	-5592
▁0.5001?	-5593
▁entries	-5594
▁instance	-5595
▁expansion	-5596
('	-5597
)=	-5598
*.	-5599
+4	-5600
9?	-5601
au	-5602
ha	-5603
mb	-5604
rd	-5605
su	-5606
▁X	-5607
▁값	-5608
▁관	-5609
▁규	-5610
▁리	-5611
▁비	-5612
▁사	-5613
▁소	-5614
▁제	-5615
▁조	-5616
▁줘	-5617
▁표	-5618
▁힘	-5619
건문	-5620
게요	-5621
경외	-5622
라고	-5623
복문	-5624
복해	-5625
열반	-5626
용자	-5627
움이	-5628
워드	-5629
이야	-5630
짜는	-5631
포트	-5632
#15	-5633
').	-5634
(15	-5635
10?	-5636
173	-5637
4^(	-5638
86.	-5639
ENE	-5640
ING	-5641
ISS	-5642
SIS	-5643
SON	-5644
_*.	-5645
__(	-5646
acy	-5647
ads	-5648
edd	-5649
fit	-5650
fix	-5651
gor	-5652
iew	-5653
ima	-5654
man	-5655
rap	-5656
ubm	-5657
url	-5658
▁0:	-5659
▁21	-5660
▁__	-5661
▁값을	-5662
▁검증	-5663
▁결합	-5664
▁공식	-5665
▁공의	-5666
▁관측	-5667
▁규칙	-5668
▁꿈의	-5669
▁눈의	-5670
▁단순	-5671
▁대역	-5672
▁록의	-5673
▁물론	-5674
▁반환	-5675
▁벌의	-5676
▁분포	-5677
▁불의	-5678
▁블록	-5679
▁설계	-5680
▁소개	-5681
▁수화	-5682
▁알지	-5683
▁옴의	-5684
▁완성	-5685
▁용의	-5686
▁위에	-5687
▁위험	-5688
▁유지	-5689
▁이식	-5690
▁적용	-5691
▁적의	-5692
▁점자	-5693
▁좋아	-5694
▁지금	-5695
▁지표	-5696
▁최소	-5697
▁타자	-5698
▁편해	-5699
▁표현	-5700
▁향수	-5701
들어줘	-5702
립니다	-5703
(15)	-5704
)=24	-5705
3-76	-5706
IENT	-5707
MASS	-5708
SELF	-5709
_005	-5710
_017	-5711
_032	-5712
_152	-5713
alty	-5714
data	-5715
eral	-5716
eval	-5717
forb	-5718
init	-5719
ithm	-5720
lang	-5721
peat	-5722
scan	-5723
ssot	-5724
suff	-5725
view	-5726
▁15)	-5727
▁29.	-5728
▁3+4	-5729
▁ING	-5730
▁bpe	-5731
▁coh	-5732
▁emb	-5733
▁log	-5734
▁pen	-5735
▁ran	-5736
▁sil	-5737
▁★★:	-5738
▁감사의	-5739
▁검정의	-5740
▁경멸의	-5741
▁계산이	-5742
▁계절의	-5743
▁고래의	-5744
▁공포의	-5745
▁괜찮아	-5746
▁금색의	-5747
▁기도의	-5748
▁기쁨의	-5749
▁까치의	-5750
▁나비의	-5751
▁나이가	-5752
▁나이는	-5753
▁날씨는	-5754
▁날짜는	-5755
▁노랑의	-5756
▁놀람의	-5757
▁늑대의	-5758
▁단맛의	-5759
▁답해줘	-5760
▁도움이	-5761
▁동료의	-5762
▁리포트	-5763
▁명상의	-5764
▁모자의	-5765
▁무위의	-5766
▁무한의	-5767
▁문어의	-5768
▁반복문	-5769
▁벚꽃의	-5770
▁보라의	-5771
▁분재의	-5772
▁분화는	-5773
▁빨강의	-5774
▁사랑의	-5775
▁사용자	-5776
▁삼매의	-5777
▁생애의	-5778
▁서예의	-5779
▁선정의	-5780
▁설렘의	-5781
▁세계수	-5782
▁수화의	-5783
▁순간의	-5784
▁스승의	-5785
▁슬픔의	-5786
▁시간은	-5787
▁신맛의	-5788
▁실존의	-5789
▁쓴맛의	-5790
▁연꽃의	-5791
▁연인의	-5792
▁영어의	-5793
▁영원의	-5794
▁오늘도	-5795
▁울음의	-5796
▁웃음의	-5797
▁웜홀의	-5798
▁윤회의	-5799
▁응답이	-5800
▁이끼의	-5801
▁이름은	-5802
▁이름이	-5803
▁이별의	-5804
▁장미의	-5805
▁재즈의	-5806
▁절규의	-5807
▁절대값	-5808
▁점자의	-5809
▁조건문	-5810
▁지내고	-5811
▁지도에	-5812
▁질투의	-5813
▁찰나의	-5814
▁체계를	-5815
▁초끈의	-5816
▁초록의	-5817
▁출산의	-5818
▁충격의	-5819
▁친구의	-5820
▁코드를	-5821
▁클래스	-5822
▁타자의	-5823
▁태극의	-5824
▁통증의	-5825
▁트랜스	-5826
▁파랑의	-5827
▁판도라	-5828
▁하양의	-5829
▁함수도	-5830
▁합니다	-5831
▁해골의	-5832
▁향수의	-5833
▁허무의	-5834
▁혐오의	-5835
▁화두의	-5836
▁힘들어	-5837
(10):	-5838
Knuth	-5839
_001-	-5840
_006-	-5841
_018-	-5842
_021-	-5843
_024-	-5844
_033-	-5845
adequ	-5846
arrow	-5847
cross	-5848
haust	-5849
loads	-5850
score	-5851
sweep	-5852
▁24^(	-5853
▁74).	-5854
▁GENE	-5855
▁JSON	-5856
▁MISS	-5857
▁best	-5858
▁mand	-5859
▁scan	-5860
▁subf	-5861
▁wrap	-5862
▁★★★.	-5863
▁★★★:	-5864
▁감칠맛의	-5865
▁괜찮아요	-5866
▁그리움의	-5867
▁까마귀의	-5868
▁깨달음의	-5869
▁낯선이의	-5870
▁다이아의	-5871
▁답합니다	-5872
▁대나무의	-5873
▁데자뷔의	-5874
▁독버섯의	-5875
▁돌고래의	-5876
▁동굴벽화	-5877
▁만다라의	-5878
▁만들어줘	-5879
▁매운맛의	-5880
▁무엇이야	-5881
▁무지개의	-5882
▁반환하는	-5883
▁불사조의	-5884
▁선인장의	-5885
▁세계수의	-5886
▁수치심의	-5887
▁시지프스	-5888
▁아랍어의	-5889
▁양귀비의	-5890
▁에포케의	-5891
▁유레카의	-5892
▁응답하는	-5893
▁일본어의	-5894
▁있습니다	-5895
▁점균류의	-5896
▁정체성은	-5897
▁종이접기	-5898
▁중국어의	-5899
▁중력파의	-5900
▁중입니다	-5901
▁즐거움의	-5902
▁첫사랑의	-5903
▁카르마의	-5904
▁퀄리아의	-5905
▁클래식의	-5906
▁트랜스의	-5907
▁판도라의	-5908
▁판소리의	-5909
▁편합니다	-5910
▁프랙탈의	-5911
▁플로우의	-5912
▁함수라고	-5913
▁함수에서	-5914
▁해바라기	-5915
▁해파리의	-5916
워드입니다	-5917
)=24^(	-5918
edding	-5919
icient	-5920
istant	-5921
mantic	-5922
naming	-5923
native	-5924
person	-5925
▁1.76.	-5926
▁1.82.	-5927
▁1.87.	-5928
▁1.88.	-5929
▁1.89.	-5930
▁1.91.	-5931
▁1.94.	-5932
▁1.95.	-5933
▁2.01.	-5934
▁2.03.	-5935
▁2.06.	-5936
▁2.08.	-5937
▁2.11.	-5938
▁2.14.	-5939
▁2.18.	-5940
▁2.21.	-5941
▁2.35.	-5942
▁Anima	-5943
▁algor	-5944
▁evals	-5945
▁print	-5946
▁고래노래의	-5947
▁녹아내림의	-5948
▁다중우주의	-5949
▁동굴벽화의	-5950
▁만델브로의	-5951
▁모나리자의	-5952
▁모래만다라	-5953
▁모스부호의	-5954
▁무아지경의	-5955
▁백색소음의	-5956
▁블록입니다	-5957
▁빅크런치의	-5958
▁시지프스의	-5959
▁심신문제의	-5960
▁아침입니다	-5961
▁암흑물질의	-5962
▁양자얽힘의	-5963
▁양자중첩의	-5964
▁엔트로피의	-5965
▁오르가즘의	-5966
▁우주시간의	-5967
▁이카루스의	-5968
▁임사체험의	-5969
▁자유의지의	-5970
▁저녁이에요	-5971
▁전자음악의	-5972
▁종이접기의	-5973
▁지질시대의	-5974
▁한국어로는	-5975
▁해바라기의	-5976
(15)=1.	-5977
REDIENT	-5978
crossed	-5979
hausted	-5980
▁(73-76	-5981
▁29.86.	-5982
▁folder	-5983
▁insuff	-5984
▁legacy	-5985
▁prefix	-5986
▁repeat	-5987
▁silent	-5988
▁검은사각형의	-5989
▁고대이집트의	-5990
▁도와드릴게요	-5991
▁도와드립니다	-5992
▁모래만다라의	-5993
▁산스크리트의	-5994
▁안정적이에요	-5995
▁엔트로피사의	-5996
▁우로보로스의	-5997
ablation	-5998
adequate	-5999
collapse	-6000
▁1.212).	-6001
▁2.847).	-6002
▁GENESIS	-6003
▁MISSING	-6004
▁commits	-6005
▁general	-6006
▁overfit	-6007
▁penalty	-6008
▁plateau	-6009
▁ranking	-6010
▁working	-6011
▁wrapper	-6012
▁미노타우로스의	-6013
▁별이빛나는밤의	-6014
▁스톤헨지소리의	-6015
▁우주배경복사의	-6016
▁프로메테우스의	-6017
forbidden	-6018
resistant	-6019
▁additive	-6020
▁notation	-6021
▁overview	-6022
▁semantic	-6023
▁specific	-6024
philosophy	-6025
▁algorithm	-6026
▁coherence	-6027
▁detection	-6028
▁embedding	-6029
▁exhausted	-6030
▁mandatory	-6031
▁subfolder	-6032
▁INGREDIENT	-6033
▁inadequate	-6034
▁insufficient	-6035
▁recommendation	-6036
▁regularization	-6037
▁recommendations	-6038
12?	-6039
11?	-6040
13?	-6041
_154?	-6042
0?	-6043
18?	-6044
31?	-6045
▁4-	-6046
255?	-6047
_006?	-6048
_007?	-6049
_008?	-6050
_009?	-6051
_010?	-6052
_011?	-6053
_012?	-6054
_014?	-6055
_015?	-6056
_018?	-6057
_019?	-6058
_020?	-6059
_021?	-6060
_022?	-6061
_023?	-6062
_025?	-6063
_036?	-6064
_037?	-6065
_038?	-6066
_039?	-6067
_153?	-6068
▁73-76?	-6069
-1	-6070
-2	-6071
/17	-6072
/23	-6073
37?	-6074
54?	-6075
▁38	-6076
▁결과	-6077
▁출현	-6078
▁확장	-6079
▁흡수	-6080
-130	-6081
-220	-6082
-520	-6083
2.37	-6084
493?	-6085
839?	-6086
<6%.	-6087
axis	-6088
iral	-6089
▁17?	-6090
▁22?	-6091
▁23?	-6092
▁75,	-6093
▁76.	-6094
-1019	-6095
8404?	-6096
_156?	-6097
▁73),	-6098
▁(7/17	-6099
▁22/23	-6100
▁38760	-6101
▁42.37	-6102
▁birth	-6103
▁found	-6104
▁legal	-6105
▁sample	-6106
▁spiral	-6107
0703976?	-6108
8538053?	-6109
▁100-130	-6110
▁200-220	-6111
▁500-520	-6112
▁0.5257).	-6113
▁1000-1019	-6114
▁170-40-18	-6115
▁foundation	-6116
)=2	-6117
.1%	-6118
024	-6119
0~7	-6120
248	-6121
298	-6122
3-3	-6123
35.	-6124
39?	-6125
50_	-6126
6%.	-6127
71%	-6128
8-8	-6129
805	-6130
857	-6131
99.	-6132
Att	-6133
CON	-6134
DID	-6135
ESS	-6136
HIP	-6137
LIP	-6138
LTR	-6139
NGR	-6140
NIV	-6141
PHY	-6142
QUA	-6143
ROP	-6144
SSI	-6145
TEG	-6146
cks	-6147
exp	-6148
eze	-6149
fru	-6150
new	-6151
ogy	-6152
ohn	-6153
sms	-6154
vie	-6155
~9%	-6156
▁ki	-6157
▁tw	-6158
▁고대	-6159
▁그리	-6160
▁까마	-6161
▁낯선	-6162
▁누구	-6163
▁다이	-6164
▁대나	-6165
▁데이	-6166
▁독버	-6167
▁리포	-6168
▁만들	-6169
▁반복	-6170
▁백색	-6171
▁범심	-6172
▁불사	-6173
▁블랙	-6174
▁사용	-6175
▁산스	-6176
▁선인	-6177
▁시지	-6178
▁에포	-6179
▁점균	-6180
▁조건	-6181
▁즐거	-6182
▁최대	-6183
▁퀄리	-6184
▁프랙	-6185
▁플로	-6186
▁필요	-6187
가워요	-6188
가즘는	-6189
각형는	-6190
거움의	-6191
경복사	-6192
고래의	-6193
귀비는	-6194
귀비의	-6195
균류는	-6196
균류의	-6197
나무는	-6198
나무의	-6199
데자	-6200
(1/	-6201
0-5	-6202
2.5	-6203
2.8	-6204
24.	-6205
28.	-6206
8.6	-6207
=4.	-6208
SIO	-6209
ook	-6210
voc	-6211
way	-6212
wee	-6213
ycl	-6214
▁..	-6215
▁yi	-6216
▁별이	-6217
▁수치	-6218
▁외계	-6219
내림는	-6220
내림의	-6221
노래는	-6222
노래의	-6223
다라는	-6224
대이집	-6225
도라는	-6226
돌고래	-6227
라기는	-6228
랙탈는	-6229
랙탈의	-6230
랙홀는	-6231
랙홀은	-6232
랙홀의	-6233
랜스는	-6234
레카의	-6235
력파의	-6236
로가기	-6237
로스는	-6238
로우는	-6239
로우의	-6240
로피는	-6241
로피사	-6242
로피의	-6243
루스는	-6244
르가즘	-6245
르마의	-6246
리아는	-6247
리아의	-6248
리움는	-6249
리움의	-6250
리자는	-6251
마귀는	-6252
맛이든	-6253
문어는	-6254
문제는	-6255
문제의	-6256
물질는	-6257
물질의	-6258
바라기	-6259
버섯는	-6260
보로스	-6261
복사는	-6262
본어는	-6263
부호는	-6264
부호의	-6265
빛나는	-6266
사각형	-6267
사랑는	-6268
사랑의	-6269
색소음	-6270
선이는	-6271
선이의	-6272
스부호	-6273
쓴맛는	-6274
얽힘은	-6275
얽힘의	-6276
엑스터	-6277
요한가	-6278
우로보	-6279
우스는	-6280
운맛는	-6281
울음는	-6282
웃음는	-6283
음악는	-6284
이아는	-6285
이아의	-6286
이접기	-6287
이터가	-6288
자뷔는	-6289
자음악	-6290
절대값	-6291
점자는	-6292
정적이	-6293
존재는	-6294
죽음는	-6295
중첩는	-6296
지개의	-6297
질시대	-6298
집트는	-6299
gL	-6300
결과	-6301
골는	-6302
드리	-6303
래식	-6304
릴까	-6305
영어	-6306
카의	-6307
하루	-6308
1-3	-6309
301	-6310
6.6	-6311
96.	-6312
=6.	-6313
EDI	-6314
cab	-6315
cin	-6316
ifi	-6317
onc	-6318
pan	-6319
phy	-6320
thi	-6321
ubl	-6322
▁(1	-6323
▁Ob	-6324
▁해파	-6325
국어의	-6326
집트의	-6327
찮아요	-6328
천장돌	-6329
체성은	-6330
체험는	-6331
체험의	-6332
칠맛는	-6333
커니즘	-6334
크런치	-6335
크리트	-6336
타자는	-6337
톤헨지	-6338
파리의	-6339
포케의	-6340
프스는	-6341
함수도	-6342
함수라	-6343
향수는	-6344
)=1.	-6345
+0.0	-6346
-0.0	-6347
-0.4	-6348
-0.9	-6349
-128	-6350
-76?	-6351
/248	-6352
0-40	-6353
0.10	-6354
0.99	-6355
000×	-6356
001?	-6357
017.	-6358
0×40	-6359
1.2%	-6360
119/	-6361
173.	-6362
2.84	-6363
24),	-6364
2400	-6365
24^(	-6366
3-16	-6367
3-7%	-6368
307→	-6369
3976	-6370
48),	-6371
5.1%	-6372
5380	-6373
6-12	-6374
6.6%	-6375
71%:	-6376
78).	-6377
8053	-6378
83%,	-6379
847,	-6380
998|	-6381
=1.4	-6382
=4.3	-6383
=6.7	-6384
=96.	-6385
=99.	-6386
AXIM	-6387
Attn	-6388
BORO	-6389
Corr	-6390
FFUS	-6391
IDAT	-6392
IONS	-6393
LTRA	-6394
NDID	-6395
NESI	-6396
NTEG	-6397
NTRO	-6398
Quan	-6399
94	-6400
ek	-6401
hp	-6402
wa	-6403
괜찮	-6404
꿈는	-6405
어떻	-6406
어서	-6407
예시	-6408
중우	-6409
=3.	-6410
Knu	-6411
SOL	-6412
ari	-6413
del	-6414
deq	-6415
ech	-6416
hoi	-6417
nif	-6418
nti	-6419
ong	-6420
sho	-6421
teg	-6422
tep	-6423
▁36	-6424
▁42	-6425
▁4×	-6426
▁Lo	-6427
▁eq	-6428
▁무아	-6429
▁미노	-6430
자뷔의	-6431
접기는	-6432
지개는	-6433
100,	-6434
18),	-6435
REDI	-6436
ROBO	-6437
RUCT	-6438
SHIP	-6439
TEPS	-6440
TION	-6441
_024	-6442
achm	-6443
ager	-6444
airw	-6445
ando	-6446
arch	-6447
ardw	-6448
armf	-6449
ayer	-6450
bser	-6451
bsol	-6452
capp	-6453
chao	-6454
cono	-6455
corp	-6456
cule	-6457
dest	-6458
eats	-6459
edis	-6460
eedb	-6461
eigh	-6462
eken	-6463
elds	-6464
emoc	-6465
erio	-6466
espa	-6467
extr	-6468
fere	-6469
fici	-6470
fish	-6471
fold	-6472
gene	-6473
gile	-6474
hidd	-6475
hite	-6476
holo	-6477
hunk	-6478
ibut	-6479
ideg	-6480
ienc	-6481
ifor	-6482
imat	-6483
imul	-6484
inka	-6485
lMed	-6486
lash	-6487
leas	-6488
logy	-6489
lope	-6490
mand	-6491
mbed	-6492
medi	-6493
mito	-6494
move	-6495
netw	-6496
niqu	-6497
nson	-6498
nste	-6499
9~	-6500
MU	-6501
OU	-6502
ck	-6503
dg	-6504
끼의	-6505
모래	-6506
본어	-6507
습니	-6508
열역	-6509
적는	-6510
투는	-6511
판소	-6512
힘들	-6513
(🛸1	-6514
0,+	-6515
76,	-6516
76.	-6517
76?	-6518
876	-6519
Mer	-6520
Van	-6521
aps	-6522
cri	-6523
dig	-6524
dyn	-6525
eld	-6526
gam	-6527
jum	-6528
mpe	-6529
pir	-6530
▁fo	-6531
▁물리	-6532
▁안정	-6533
▁정체	-6534
국어든	-6535
물질은	-6536
수에서	-6537
위에서	-6538
1024	-6539
8,76	-6540
=0.3	-6541
=0.7	-6542
NTUM	-6543
_001	-6544
aken	-6545
boun	-6546
ccum	-6547
edup	-6548
inim	-6549
iolo	-6550
mpel	-6551
mple	-6552
offl	-6553
olve	-6554
omeo	-6555
omly	-6556
ompe	-6557
ompr	-6558
onot	-6559
oost	-6560
orks	-6561
orld	-6562
otto	-6563
ount	-6564
ousn	-6565
outp	-6566
perc	-6567
pers	-6568
plif	-6569
poke	-6570
pper	-6571
pply	-6572
prod	-6573
prov	-6574
prox	-6575
raft	-6576
raph	-6577
rces	-6578
rium	-6579
root	-6580
rops	-6581
roup	-6582
rows	-6583
rtal	-6584
rust	-6585
sics	-6586
soun	-6587
ssip	-6588
ssoc	-6589
stab	-6590
stal	-6591
swee	-6592
tely	-6593
that	-6594
tine	-6595
toms	-6596
topp	-6597
trib	-6598
uage	-6599
81	-6600
Fr	-6601
lu	-6602
rg	-6603
늑대	-6604
알지	-6605
첩는	-6606
01.	-6607
1.0	-6608
1.3	-6609
1.7	-6610
1.8	-6611
120	-6612
2)!	-6613
20-	-6614
20?	-6615
26.	-6616
367	-6617
66,	-6618
93:	-6619
CTO	-6620
bat	-6621
ffl	-6622
iff	-6623
ivi	-6624
mpr	-6625
nat	-6626
oph	-6627
pri	-6628
rti	-6629
siz	-6630
uff	-6631
viv	-6632
war	-6633
▁+6	-6634
▁Ga	-6635
▁Gr	-6636
▁Ke	-6637
▁Kn	-6638
▁vo	-6639
▁모나	-6640
▁스톤	-6641
▁시에	-6642
마귀의	-6643
흑물질	-6644
3.03	-6645
404:	-6646
ACTO	-6647
RACT	-6648
ackw	-6649
ceiv	-6650
ffec	-6651
ffic	-6652
grat	-6653
inis	-6654
ived	-6655
merg	-6656
oble	-6657
owng	-6658
ubad	-6659
uddh	-6660
uppr	-6661
ustr	-6662
usts	-6663
vely	-6664
wbor	-6665
ynch	-6666
yper	-6667
zone	-6668
{-1,	-6669
~10)	-6670
~100	-6671
→21→	-6672
≈0.3	-6673
▁(1-	-6674
▁(6.	-6675
▁(7/	-6676
▁(73	-6677
▁(76	-6678
▁029	-6679
▁1-5	-6680
▁1.7	-6681
▁2.5	-6682
▁28.	-6683
▁32-	-6684
▁33-	-6685
▁5-9	-6686
▁71-	-6687
▁73.	-6688
▁96%	-6689
▁Bot	-6690
▁Cri	-6691
▁FAI	-6692
▁Foc	-6693
▁Gam	-6694
▁Gra	-6695
▁Hei	-6696
▁Inc	-6697
▁Inj	-6698
▁Ins	-6699
UA	-6700
▁q	-6701
데이	-6702
랍어	-6703
래노	-6704
불는	-6705
위치	-6706
정합	-6707
하지	-6708
005	-6709
220	-6710
JSO	-6711
Mat	-6712
ada	-6713
alo	-6714
apt	-6715
bad	-6716
bid	-6717
chi	-6718
dap	-6719
ele	-6720
igo	-6721
itc	-6722
lmo	-6723
oss	-6724
ron	-6725
usi	-6726
vid	-6727
▁85	-6728
▁86	-6729
▁AP	-6730
▁Ad	-6731
▁TO	-6732
▁ow	-6733
▁동굴	-6734
▁만델	-6735
시드드	-6736
우로스	-6737
힘들어	-6738
acts	-6739
addi	-6740
appl	-6741
arad	-6742
erad	-6743
erap	-6744
fies	-6745
gies	-6746
hani	-6747
idle	-6748
iric	-6749
lles	-6750
load	-6751
repl	-6752
ssed	-6753
tair	-6754
▁JSO	-6755
▁Loc	-6756
▁MET	-6757
▁Mix	-6758
▁RET	-6759
▁Rew	-6760
▁SEL	-6761
▁SSO	-6762
▁Sup	-6763
▁TOP	-6764
▁VRA	-6765
▁adj	-6766
▁agg	-6767
▁alg	-6768
▁alp	-6769
▁arg	-6770
▁bir	-6771
▁cha	-6772
▁cor	-6773
▁dai	-6774
▁deb	-6775
▁dem	-6776
▁emp	-6777
▁fir	-6778
▁fli	-6779
▁fro	-6780
▁fru	-6781
▁hig	-6782
▁imp	-6783
▁inc	-6784
▁ker	-6785
▁les	-6786
▁liv	-6787
▁loc	-6788
▁nex	-6789
▁noi	-6790
▁pea	-6791
▁phy	-6792
▁rob	-6793
▁rul	-6794
▁see	-6795
▁sem	-6796
▁sin	-6797
▁sqr	-6798
▁stu	-6799
77	-6800
Ma	-6801
OL	-6802
lr	-6803
기반	-6804
노는	-6805
렘의	-6806
산이	-6807
수에	-6808
의미	-6809
이카	-6810
/2,	-6811
19.	-6812
19?	-6813
3-7	-6814
38,	-6815
538	-6816
58,	-6817
82,	-6818
88,	-6819
89,	-6820
92,	-6821
95,	-6822
Cac	-6823
Dec	-6824
aks	-6825
ape	-6826
bra	-6827
cus	-6828
eri	-6829
eus	-6830
fre	-6831
gra	-6832
idd	-6833
ium	-6834
ket	-6835
miz	-6836
mum	-6837
net	-6838
non	-6839
osc	-6840
pus	-6841
sus	-6842
ube	-6843
uss	-6844
wit	-6845
yet	-6846
▁js	-6847
▁ju	-6848
▁us	-6849
▁데자	-6850
▁무지	-6851
벽화는	-6852
역학적	-6853
0.57	-6854
IOUS	-6855
OMBO	-6856
ants	-6857
arko	-6858
arts	-6859
case	-6860
chet	-6861
icts	-6862
iden	-6863
irre	-6864
ondi	-6865
rece	-6866
stic	-6867
tane	-6868
▁22/	-6869
▁38,	-6870
▁53%	-6871
▁lab	-6872
▁til	-6873
▁tot	-6874
▁tru	-6875
▁tun	-6876
▁ver	-6877
▁voc	-6878
▁wra	-6879
▁zer	-6880
▁모래만	-6881
▁무아지	-6882
▁무엇이	-6883
▁양자얽	-6884
▁양자중	-6885
▁응답하	-6886
▁저녁이	-6887
▁천장돌	-6888
▁프로메	-6889
▁함수라	-6890
▁🛸90	-6891
나는밤의	-6892
나리자는	-6893
대이집트	-6894
델브로는	-6895
델브로의	-6896
드드림는	-6897
드드림의	-6898
드입니다	-6899
58	-6900
MA	-6901
Mo	-6902
fb	-6903
gy	-6904
sq	-6905
td	-6906
결정	-6907
결합	-6908
기쁨	-6909
답이	-6910
좋아	-6911
터시	-6912
-16	-6913
08,	-6914
21.	-6915
213	-6916
32)	-6917
47,	-6918
516	-6919
Gra	-6920
NTU	-6921
ark	-6922
deo	-6923
dep	-6924
dow	-6925
eal	-6926
equ	-6927
fol	-6928
imp	-6929
imu	-6930
que	-6931
reu	-6932
sig	-6933
ude	-6934
ull	-6935
uou	-6936
ved	-6937
vol	-6938
xim	-6939
yml	-6940
▁AT	-6941
▁Mi	-6942
▁Ni	-6943
▁am	-6944
257,	-6945
anda	-6946
dequ	-6947
eath	-6948
elim	-6949
erar	-6950
esol	-6951
ible	-6952
inan	-6953
oise	-6954
olut	-6955
onol	-6956
oper	-6957
oups	-6958
quen	-6959
ques	-6960
rack	-6961
scil	-6962
umps	-6963
▁(1/	-6964
▁+13	-6965
▁Das	-6966
▁Nar	-6967
▁gol	-6968
▁har	-6969
▁ord	-6970
▁ret	-6971
▁자기참	-6972
로피사는	-6973
록입니다	-6974
메테우스	-6975
바라기는	-6976
배경복사	-6977
보로스는	-6978
스터시의	-6979
시입니다	-6980
아지경의	-6981
요한가요	-6982
우로보로	-6983
우로스는	-6984
유의지는	-6985
은사각형	-6986
이빛나는	-6987
이접기는	-6988
지소리의	-6989
지프스는	-6990
카루스는	-6991
편합니다	-6992
함수에서	-6993
🛸100	-6994
+0.10	-6995
-0.07	-6996
-0.2%	-6997
-0.99	-6998
-18):	-6999
BE	-7000
Fe	-7001
SA	-7002
pi	-7003
rr	-7004
→0	-7005
성은	-7006
속적	-7007
시드	-7008
짜줘	-7009
-17	-7010
0),	-7011
014	-7012
18.	-7013
LED	-7014
edu	-7015
eig	-7016
fin	-7017
giz	-7018
kpr	-7019
mul	-7020
pat	-7021
ppr	-7022
roo	-7023
uct	-7024
▁Ca	-7025
▁Dy	-7026
▁Fl	-7027
▁Fo	-7028
▁Fr	-7029
▁PA	-7030
▁Sy	-7031
소리의	-7032
식상태	-7033
신문제	-7034
10)+	-7035
1000	-7036
14),	-7037
18).	-7038
_026	-7039
aphi	-7040
ariz	-7041
imic	-7042
mous	-7043
oniz	-7044
orig	-7045
pris	-7046
this	-7047
tori	-7048
tors	-7049
uali	-7050
ucle	-7051
urem	-7052
urio	-7053
▁+17	-7054
▁Fis	-7055
▁Hid	-7056
▁ang	-7057
▁ano	-7058
▁gro	-7059
▁luc	-7060
▁siz	-7061
▁whi	-7062
▁만델브	-7063
0,+1}	-7064
0.10.	-7065
0.500	-7066
0.516	-7067
1.2%)	-7068
1.74)	-7069
11.8%	-7070
1~10)	-7071
24.7%	-7072
3-7%,	-7073
5.1%)	-7074
6→21→	-7075
8-128	-7076
8.69?	-7077
9.86.	-7078
9/128	-7079
=-0.4	-7080
=0.00	-7081
=0.36	-7082
=0.48	-7083
=0.99	-7084
=1.4%	-7085
=2.5%	-7086
=20-5	-7087
=99.0	-7088
ENTRO	-7089
Frust	-7090
Manif	-7091
NGINE	-7092
NGRED	-7093
NSCIO	-7094
SSING	-7095
UROBO	-7096
USION	-7097
abels	-7098
ached	-7099
68	-7100
79	-7101
95	-7102
oj	-7103
xh	-7104
간는	-7105
간단	-7106
르가	-7107
무지	-7108
식이	-7109
한가	-7110
-2)	-7111
-25	-7112
10%	-7113
15.	-7114
152	-7115
154	-7116
155	-7117
156	-7118
158	-7119
15?	-7120
18-	-7121
240	-7122
25.	-7123
406	-7124
409	-7125
525	-7126
69?	-7127
8,7	-7128
NGI	-7129
liz	-7130
sal	-7131
tha	-7132
tou	-7133
wer	-7134
ymb	-7135
▁Cr	-7136
▁ve	-7137
▁도움	-7138
▁알려	-7139
카루스	-7140
=1.8	-7141
aliz	-7142
ells	-7143
hput	-7144
intr	-7145
mpor	-7146
onti	-7147
orge	-7148
puts	-7149
▁(1.	-7150
▁(25	-7151
▁+2.	-7152
▁2.8	-7153
▁Mul	-7154
▁dea	-7155
▁mag	-7156
▁mas	-7157
▁und	-7158
▁uni	-7159
aches	-7160
ackho	-7161
acktr	-7162
actal	-7163
aging	-7164
ainta	-7165
alogy	-7166
alysi	-7167
ament	-7168
anger	-7169
anics	-7170
antee	-7171
argma	-7172
ategy	-7173
aving	-7174
ayers	-7175
biliz	-7176
bleto	-7177
bserv	-7178
capac	-7179
chors	-7180
confl	-7181
consi	-7182
cords	-7183
cryst	-7184
dence	-7185
destr	-7186
dient	-7187
discr	-7188
duces	-7189
ecome	-7190
econd	-7191
ectiv	-7192
ectly	-7193
eedup	-7194
ellul	-7195
ename	-7196
ensus	-7197
equil	-7198
ergis	-7199
No	-7200
TA	-7201
×1	-7202
낯선	-7203
매는	-7204
산스	-7205
씨는	-7206
혐오	-7207
000	-7208
11)	-7209
11-	-7210
11.	-7211
116	-7212
118	-7213
119	-7214
EPS	-7215
SEL	-7216
bon	-7217
erp	-7218
gro	-7219
heb	-7220
irw	-7221
lev	-7222
ood	-7223
orl	-7224
pel	-7225
wth	-7226
×18	-7227
→11	-7228
▁CL	-7229
▁EE	-7230
▁Eq	-7231
▁OD	-7232
▁RE	-7233
▁ST	-7234
▁SV	-7235
▁Si	-7236
▁Su	-7237
▁Up	-7238
4.2%	-7239
Dase	-7240
dual	-7241
edge	-7242
ench	-7243
erge	-7244
eset	-7245
etic	-7246
face	-7247
iliz	-7248
itic	-7249
late	-7250
nity	-7251
pace	-7252
peri	-7253
rate	-7254
tage	-7255
taph	-7256
trat	-7257
uate	-7258
utic	-7259
▁(13	-7260
▁Sel	-7261
▁Sma	-7262
▁Spl	-7263
▁Str	-7264
▁atl	-7265
▁att	-7266
▁dep	-7267
akens	-7268
antic	-7269
arity	-7270
ergiz	-7271
erves	-7272
eserv	-7273
estin	-7274
estor	-7275
etter	-7276
eutic	-7277
evers	-7278
ffect	-7279
forma	-7280
ganiz	-7281
gativ	-7282
gency	-7283
ghest	-7284
gular	-7285
hance	-7286
horiz	-7287
iency	-7288
ietic	-7289
iffer	-7290
ights	-7291
ignif	-7292
ilent	-7293
ility	-7294
ilter	-7295
inary	-7296
inate	-7297
incip	-7298
indow	-7299
.6	-7300
0-	-7301
Ap	-7302
IL	-7303
Le	-7304
ca	-7305
sh	-7306
▁Q	-7307
누구	-7308
드림	-7309
뱅의	-7310
변경	-7311
불의	-7312
양의	-7313
카는	-7314
해바	-7315
-1,	-7316
/12	-7317
12-	-7318
127	-7319
212	-7320
81,	-7321
91,	-7322
UCT	-7323
dil	-7324
eme	-7325
met	-7326
nec	-7327
nop	-7328
pec	-7329
vec	-7330
~12	-7331
×12	-7332
→12	-7333
▁Hi	-7334
▁Hy	-7335
▁TH	-7336
▁gr	-7337
▁ru	-7338
레카는	-7339
판소리	-7340
12).	-7341
3.9%	-7342
econ	-7343
ecto	-7344
ectr	-7345
enec	-7346
ever	-7347
lity	-7348
llec	-7349
nstr	-7350
stra	-7351
stri	-7352
stru	-7353
tima	-7354
uses	-7355
vari	-7356
vent	-7357
▁51.	-7358
▁dic	-7359
▁dif	-7360
▁rat	-7361
▁reb	-7362
▁ref	-7363
▁rep	-7364
▁req	-7365
▁reu	-7366
▁rou	-7367
뇌지도에	-7368
아지경는	-7369
eness	-7370
engin	-7371
inear	-7372
ineer	-7373
ingul	-7374
inked	-7375
insic	-7376
inter	-7377
iotic	-7378
irmed	-7379
isdom	-7380
issip	-7381
itial	-7382
itosi	-7383
itude	-7384
keniz	-7385
latti	-7386
lenec	-7387
lized	-7388
llaps	-7389
llows	-7390
logic	-7391
magne	-7392
manif	-7393
mbedd	-7394
mical	-7395
minan	-7396
minim	-7397
minis	-7398
mogen	-7399
22	-7400
Eq	-7401
rn	-7402
간의	-7403
달음	-7404
모델	-7405
벚꽃	-7406
사의	-7407
초끈	-7408
치는	-7409
트로	-7410
20:	-7411
8):	-7412
Gas	-7413
aun	-7414
ena	-7415
flo	-7416
gic	-7417
glo	-7418
loa	-7419
lob	-7420
olo	-7421
ped	-7422
pla	-7423
pli	-7424
tab	-7425
tag	-7426
tai	-7427
typ	-7428
uci	-7429
unc	-7430
und	-7431
unf	-7432
unk	-7433
xit	-7434
xpl	-7435
▁+5	-7436
▁3+	-7437
▁33	-7438
▁5-	-7439
▁ba	-7440
▁bp	-7441
▁ga	-7442
▁ta	-7443
▁wr	-7444
가즘의	-7445
릅니다	-7446
ales	-7447
amic	-7448
anps	-7449
dilo	-7450
esil	-7451
icro	-7452
inta	-7453
ipar	-7454
onic	-7455
plic	-7456
ptiv	-7457
rove	-7458
sign	-7459
tati	-7460
tato	-7461
thic	-7462
tity	-7463
unit	-7464
unst	-7465
▁Clo	-7466
▁RED	-7467
▁Ran	-7468
▁alw	-7469
▁ato	-7470
▁aut	-7471
▁blo	-7472
▁clo	-7473
▁flo	-7474
▁spl	-7475
▁win	-7476
▁wor	-7477
QUANT	-7478
activ	-7479
arian	-7480
hilos	-7481
mpire	-7482
nativ	-7483
neutr	-7484
nucle	-7485
obser	-7486
ogine	-7487
olith	-7488
ology	-7489
olver	-7490
omain	-7491
ometr	-7492
ommit	-7493
omple	-7494
onger	-7495
onomo	-7496
ononi	-7497
onstr	-7498
oosts	-7499
LE	-7500
gu	-7501
nh	-7502
불사	-7503
즘의	-7504
태극	-7505
%).	-7506
0).	-7507
0.0	-7508
0.1	-7509
0.4	-7510
0.6	-7511
0.7	-7512
0.9	-7513
3).	-7514
Fis	-7515
Spl	-7516
cha	-7517
cou	-7518
fic	-7519
lic	-7520
olu	-7521
onn	-7522
ote	-7523
pok	-7524
pol	-7525
roa	-7526
rob	-7527
rod	-7528
rog	-7529
roj	-7530
sma	-7531
sup	-7532
tec	-7533
tem	-7534
tri	-7535
ump	-7536
uni	-7537
uts	-7538
utu	-7539
xch	-7540
▁(5	-7541
▁91	-7542
▁93	-7543
▁98	-7544
▁MA	-7545
▁ME	-7546
▁Ma	-7547
▁PS	-7548
▁ha	-7549
▁ho	-7550
▁wi	-7551
▁평형	-7552
음악의	-7553
USNE	-7554
anch	-7555
ante	-7556
apac	-7557
arro	-7558
ches	-7559
ecay	-7560
erro	-7561
fter	-7562
lend	-7563
mech	-7564
mend	-7565
poth	-7566
ppro	-7567
rder	-7568
rote	-7569
tech	-7570
umul	-7571
▁42.	-7572
▁Fre	-7573
▁Man	-7574
▁cro	-7575
▁고래노	-7576
alter	-7577
ching	-7578
erent	-7579
grate	-7580
optim	-7581
orbid	-7582
orith	-7583
otter	-7584
ottom	-7585
ounts	-7586
ource	-7587
ously	-7588
pativ	-7589
pdate	-7590
pends	-7591
perts	-7592
physi	-7593
pling	-7594
plode	-7595
polog	-7596
psych	-7597
quenc	-7598
quent	-7599
44	-7600
Mi	-7601
ii	-7602
공의	-7603
물리	-7604
이지	-7605
조는	-7606
조의	-7607
피사	-7608
한는	-7609
Das	-7610
Eas	-7611
Hal	-7612
Heb	-7613
ash	-7614
ass	-7615
asu	-7616
cas	-7617
cep	-7618
cra	-7619
das	-7620
dle	-7621
eur	-7622
gas	-7623
hop	-7624
ins	-7625
lex	-7626
lik	-7627
llo	-7628
lls	-7629
lop	-7630
rce	-7631
ros	-7632
sur	-7633
tas	-7634
tir	-7635
ula	-7636
▁Ch	-7637
▁Cl	-7638
▁Co	-7639
▁em	-7640
▁중력	-7641
파리는	-7642
포케는	-7643
Aver	-7644
assi	-7645
bian	-7646
dent	-7647
elop	-7648
fier	-7649
hilo	-7650
ianc	-7651
iant	-7652
ingL	-7653
leto	-7654
reas	-7655
sure	-7656
tice	-7657
urth	-7658
vian	-7659
ycle	-7660
▁acc	-7661
▁act	-7662
▁coe	-7663
▁coo	-7664
▁cop	-7665
▁cos	-7666
▁das	-7667
▁tri	-7668
accel	-7669
ackpr	-7670
cover	-7671
iance	-7672
icant	-7673
ierar	-7674
ingle	-7675
lling	-7676
netic	-7677
overa	-7678
ption	-7679
quate	-7680
quist	-7681
rains	-7682
rativ	-7683
rease	-7684
reate	-7685
reath	-7686
reeze	-7687
rustr	-7688
scade	-7689
simil	-7690
sitiv	-7691
stanc	-7692
stems	-7693
stent	-7694
strat	-7695
tator	-7696
tence	-7697
terac	-7698
terna	-7699
')	-7700
NO	-7701
VR	-7702
nk	-7703
▁u	-7704
동료	-7705
아내	-7706
우의	-7707
투의	-7708
🛸3	-7709
10+	-7710
112	-7711
14.	-7712
7).	-7713
fis	-7714
hic	-7715
hie	-7716
hil	-7717
hit	-7718
hol	-7719
how	-7720
inv	-7721
meC	-7722
meo	-7723
nit	-7724
nst	-7725
oit	-7726
rem	-7727
rov	-7728
rst	-7729
sly	-7730
sta	-7731
urb	-7732
urn	-7733
urp	-7734
whi	-7735
▁+1	-7736
▁+7	-7737
▁Ru	-7738
▁be	-7739
▁bo	-7740
▁br	-7741
▁du	-7742
▁dy	-7743
▁fe	-7744
▁hy	-7745
▁간단	-7746
▁모래	-7747
▁어떻	-7748
계수는	-7749
답해줘	-7750
명해줘	-7751
=28.	-7752
UCES	-7753
acit	-7754
alit	-7755
arit	-7756
corr	-7757
dist	-7758
ecre	-7759
elec	-7760
itti	-7761
meas	-7762
olla	-7763
onen	-7764
sten	-7765
ster	-7766
temp	-7767
uent	-7768
urat	-7769
▁10.	-7770
▁ban	-7771
▁bat	-7772
▁bes	-7773
▁dat	-7774
▁fal	-7775
▁ina	-7776
▁ind	-7777
▁inj	-7778
▁inp	-7779
▁🛸50	-7780
ffici	-7781
iolog	-7782
osity	-7783
terns	-7784
terpo	-7785
thema	-7786
theor	-7787
thing	-7788
tifac	-7789
tifer	-7790
timiz	-7791
timul	-7792
tiple	-7793
tivel	-7794
tivit	-7795
token	-7796
trate	-7797
ttach	-7798
tting	-7799
8)	-7800
강는	-7801
끈는	-7802
산는	-7803
예는	-7804
-12	-7805
.30	-7806
0.8	-7807
1,0	-7808
30%	-7809
302	-7810
303	-7811
304	-7812
306	-7813
308	-7814
309	-7815
30:	-7816
40-	-7817
699	-7818
Fre	-7819
dre	-7820
eak	-7821
iod	-7822
nes	-7823
ppl	-7824
qui	-7825
reb	-7826
ref	-7827
rep	-7828
rev	-7829
rre	-7830
sin	-7831
ych	-7832
~2.	-7833
~30	-7834
▁5/	-7835
▁51	-7836
▁Ho	-7837
▁Te	-7838
▁Th	-7839
굴벽화	-7840
랙홀과	-7841
런치의	-7842
르마는	-7843
중국어	-7844
9.0%	-7845
=0.4	-7846
Gate	-7847
Sing	-7848
ackh	-7849
bstr	-7850
cent	-7851
ding	-7852
dire	-7853
hing	-7854
ient	-7855
imeC	-7856
ingl	-7857
ingu	-7858
memo	-7859
perf	-7860
reac	-7861
reat	-7862
rema	-7863
reti	-7864
retr	-7865
sing	-7866
tate	-7867
time	-7868
tire	-7869
ving	-7870
ytic	-7871
▁2.1	-7872
▁Bat	-7873
▁Har	-7874
▁acr	-7875
▁fin	-7876
▁🛸30	-7877
색소음는	-7878
한국어는	-7879
한국어든	-7880
aling	-7881
aring	-7882
celer	-7883
eding	-7884
esist	-7885
meani	-7886
orres	-7887
tural	-7888
types	-7889
ualiz	-7890
uator	-7891
ubSpo	-7892
ubric	-7893
ubstr	-7894
uffer	-7895
uling	-7896
ultil	-7897
uperl	-7898
uring	-7899
60	-7900
PC	-7901
안정	-7902
어디	-7903
옴의	-7904
이는	-7905
정의	-7906
해파	-7907
.5%	-7908
14?	-7909
2).	-7910
305	-7911
Har	-7912
Par	-7913
Res	-7914
Ton	-7915
arl	-7916
arn	-7917
art	-7918
arv	-7919
bar	-7920
dar	-7921
eas	-7922
far	-7923
iat	-7924
iou	-7925
mpi	-7926
owl	-7927
raf	-7928
rav	-7929
rea	-7930
reg	-7931
req	-7932
tar	-7933
uat	-7934
▁24	-7935
▁27	-7936
▁28	-7937
▁29	-7938
▁92	-7939
▁Em	-7940
▁bi	-7941
▁pi	-7942
▁pu	-7943
▁sl	-7944
▁자세	-7945
▁자유	-7946
▁해바	-7947
0.30	-7948
1-10	-7949
Less	-7950
aral	-7951
arin	-7952
atal	-7953
edit	-7954
eson	-7955
essu	-7956
hift	-7957
inar	-7958
inat	-7959
more	-7960
ning	-7961
omin	-7962
ousL	-7963
sate	-7964
uous	-7965
utes	-7966
▁(16	-7967
▁(3.	-7968
▁Cou	-7969
▁Dee	-7970
▁Lar	-7971
▁Tra	-7972
▁bel	-7973
▁dee	-7974
▁dre	-7975
▁ear	-7976
▁lar	-7977
▁lat	-7978
0×40×	-7979
llect	-7980
mooth	-7981
nessE	-7982
otion	-7983
poies	-7984
ursts	-7985
usion	-7986
usted	-7987
utopo	-7988
utual	-7989
uture	-7990
vativ	-7991
vents	-7992
verag	-7993
verdi	-7994
vered	-7995
versi	-7996
vesti	-7997
vives	-7998
wborn	-7999
93	-8000
처리	-8001
피의	-8002
현재	-8003
0.3	-8004
39:	-8005
404	-8006
83%	-8007
Dis	-8008
Gat	-8009
ROB	-8010
Rat	-8011
ais	-8012
asi	-8013
atc	-8014
att	-8015
bir	-8016
dat	-8017
epr	-8018
fun	-8019
gac	-8020
gis	-8021
gth	-8022
hid	-8023
iso	-8024
maj	-8025
now	-8026
ois	-8027
ole	-8028
pth	-8029
rat	-8030
ris	-8031
rth	-8032
sib	-8033
sid	-8034
sso	-8035
tat	-8036
try	-8037
uis	-8038
uri	-8039
wis	-8040
▁DI	-8041
▁cy	-8042
▁lu	-8043
8-8-	-8044
asel	-8045
attr	-8046
ecif	-8047
elat	-8048
ellu	-8049
issi	-8050
onsi	-8051
orth	-8052
osci	-8053
quid	-8054
siti	-8055
than	-8056
then	-8057
thou	-8058
tosi	-8059
utoc	-8060
utop	-8061
xist	-8062
▁409	-8063
▁Eac	-8064
▁Eas	-8065
▁Mat	-8066
▁hel	-8067
▁inv	-8068
▁lac	-8069
▁lan	-8070
▁lin	-8071
▁nir	-8072
NTEGR	-8073
anize	-8074
inden	-8075
overf	-8076
overi	-8077
overl	-8078
overv	-8079
owled	-8080
sciou	-8081
sover	-8082
utoma	-8083
witch	-8084
ximat	-8085
ynerg	-8086
±4.2%	-8087
→0.00	-8088
▁(2.9	-8089
▁(20-	-8090
▁(204	-8091
▁(367	-8092
▁(6.4	-8093
▁(~2.	-8094
▁+17.	-8095
▁+213	-8096
▁+26.	-8097
▁+39.	-8098
▁1.27	-8099
Ob	-8100
Un	-8101
sL	-8102
▁색	-8103
강의	-8104
아침	-8105
웜홀	-8106
테고	-8107
표현	-8108
-4.	-8109
12)	-8110
51,	-8111
520	-8112
6):	-8113
Cou	-8114
Eac	-8115
IOU	-8116
Sta	-8117
Str	-8118
abl	-8119
acc	-8120
aci	-8121
act	-8122
alw	-8123
apa	-8124
bel	-8125
bor	-8126
cor	-8127
ctr	-8128
eac	-8129
eor	-8130
eou	-8131
etr	-8132
for	-8133
lac	-8134
lor	-8135
nor	-8136
ord	-8137
ori	-8138
pac	-8139
por	-8140
ral	-8141
sit	-8142
sor	-8143
ttr	-8144
val	-8145
yti	-8146
▁FA	-8147
▁GR	-8148
▁MI	-8149
▁ou	-8150
▁sa	-8151
▁sk	-8152
▁su	-8153
▁sy	-8154
▁🛸1	-8155
첫사랑	-8156
0.50	-8157
alon	-8158
atea	-8159
eati	-8160
erac	-8161
essE	-8162
essi	-8163
esul	-8164
immo	-8165
insi	-8166
lter	-8167
matr	-8168
onal	-8169
oren	-8170
pled	-8171
scor	-8172
tend	-8173
tran	-8174
tren	-8175
verf	-8176
yner	-8177
×125	-8178
▁Dyn	-8179
▁Heb	-8180
▁cal	-8181
▁cou	-8182
▁der	-8183
▁eac	-8184
▁ine	-8185
▁sen	-8186
▁tog	-8187
25.7%	-8188
atter	-8189
ithin	-8190
ithou	-8191
▁1.87	-8192
▁1.88	-8193
▁1.89	-8194
▁1.95	-8195
▁100-	-8196
▁117-	-8197
▁122,	-8198
▁133-	-8199
-0	-8200
26	-8201
98	-8202
PH	-8203
TI	-8204
ga	-8205
nv	-8206
oi	-8207
sy	-8208
부재	-8209
상는	-8210
신맛	-8211
어줘	-8212
오의	-8213
찮아	-8214
헨지	-8215
14)	-8216
257	-8217
80.	-8218
9.8	-8219
Bat	-8220
Cel	-8221
Cry	-8222
Psi	-8223
Sel	-8224
adi	-8225
bri	-8226
ded	-8227
dia	-8228
dim	-8229
edb	-8230
eer	-8231
eli	-8232
mmo	-8233
mol	-8234
mou	-8235
mps	-8236
ony	-8237
red	-8238
rel	-8239
sel	-8240
too	-8241
tun	-8242
wed	-8243
xed	-8244
▁(+	-8245
▁(0	-8246
▁(6	-8247
▁3/	-8248
▁LL	-8249
▁LO	-8250
▁ed	-8251
▁ef	-8252
▁유레	-8253
▁있습	-8254
고리는	-8255
고리의	-8256
소음는	-8257
시간은	-8258
테고리	-8259
1019	-8260
alin	-8261
arel	-8262
aver	-8263
dien	-8264
edin	-8265
elin	-8266
erma	-8267
inde	-8268
modi	-8269
oint	-8270
verd	-8271
verl	-8272
▁Rat	-8273
▁bit	-8274
▁sou	-8275
답합니다	-8276
한국어로	-8277
TRACT	-8278
inver	-8279
mmetr	-8280
overy	-8281
rowth	-8282
▁170-	-8283
▁2.01	-8284
▁2.03	-8285
▁2.08	-8286
▁2.21	-8287
▁2.35	-8288
▁2.55	-8289
▁2.60	-8290
▁200-	-8291
▁22/2	-8292
▁2500	-8293
▁8-64	-8294
▁8500	-8295
▁Aver	-8296
▁Caus	-8297
▁Clos	-8298
▁Disc	-8299
(7	-8300
)!	-8301
+0	-8302
4,	-8303
57	-8304
92	-8305
9×	-8306
eo	-8307
ez	-8308
jo	-8309
ue	-8310
we	-8311
▁죽	-8312
가속	-8313
내고	-8314
다라	-8315
목표	-8316
무의	-8317
운맛	-8318
증의	-8319
크리	-8320
터가	-8321
해리	-8322
화두	-8323
후보	-8324
Gen	-8325
Les	-8326
Lin	-8327
NSC	-8328
Sin	-8329
Sto	-8330
TRO	-8331
Ten	-8332
als	-8333
eni	-8334
ese	-8335
eso	-8336
gal	-8337
ien	-8338
inc	-8339
inp	-8340
kin	-8341
lel	-8342
lin	-8343
mar	-8344
mec	-8345
men	-8346
sca	-8347
sco	-8348
scr	-8349
sim	-8350
sto	-8351
tes	-8352
toc	-8353
tto	-8354
uen	-8355
ues	-8356
vem	-8357
vin	-8358
zes	-8359
×40	-8360
▁-4	-8361
▁11	-8362
▁ck	-8363
▁ni	-8364
▁si	-8365
리트의	-8366
실시간	-8367
8578	-8368
date	-8369
ener	-8370
eres	-8371
eses	-8372
inin	-8373
lith	-8374
olat	-8375
scon	-8376
toma	-8377
ubli	-8378
uide	-8379
ures	-8380
▁(30	-8381
▁bac	-8382
▁can	-8383
▁cen	-8384
▁자유의	-8385
merge	-8386
roups	-8387
▁Dyna	-8388
▁FAIL	-8389
▁Fish	-8390
▁Hypo	-8391
▁Lear	-8392
▁Lemp	-8393
▁Math	-8394
▁Mito	-8395
▁Narr	-8396
▁Neur	-8397
▁Nihi	-8398
▁Prig	-8399
9→	-8400
=0	-8401
IR	-8402
IS	-8403
nj	-8404
nt	-8405
ob	-8406
ua	-8407
★.	-8408
람의	-8409
로보	-8410
분재	-8411
양귀	-8412
움의	-8413
이끼	-8414
주배	-8415
카르	-8416
25?	-8417
All	-8418
Haw	-8419
MAT	-8420
ORO	-8421
Per	-8422
alg	-8423
awk	-8424
bed	-8425
eca	-8426
ede	-8427
ema	-8428
era	-8429
erd	-8430
ere	-8431
erh	-8432
erl	-8433
erm	-8434
ery	-8435
fro	-8436
gan	-8437
hel	-8438
his	-8439
law	-8440
mag	-8441
mai	-8442
max	-8443
mma	-8444
nam	-8445
nar	-8446
ner	-8447
nto	-8448
oup	-8449
pti	-8450
sch	-8451
tel	-8452
tho	-8453
thr	-8454
tia	-8455
tie	-8456
tig	-8457
til	-8458
tio	-8459
tip	-8460
tit	-8461
tiz	-8462
tti	-8463
zer	-8464
▁Bo	-8465
▁OU	-8466
▁fi	-8467
▁so	-8468
▁sq	-8469
▁검은	-8470
국어는	-8471
달음는	-8472
-0.6	-8473
anil	-8474
anin	-8475
anti	-8476
conf	-8477
erts	-8478
fing	-8479
indi	-8480
isto	-8481
mani	-8482
vani	-8483
▁Cop	-8484
▁ani	-8485
▁만들어	-8486
한국어의	-8487
RUCTU	-8488
arame	-8489
ining	-8490
ntion	-8491
tiona	-8492
▁64-5	-8493
▁Pyth	-8494
▁Rand	-8495
▁Repl	-8496
▁Reus	-8497
▁Shar	-8498
▁Symb	-8499
(6	-8500
8^	-8501
Ne	-8502
Op	-8503
bS	-8504
ia	-8505
lf	-8506
na	-8507
oa	-8508
~1	-8509
▁합	-8510
▁확	-8511
▁흡	-8512
★★	-8513
격의	-8514
계를	-8515
극의	-8516
녁이	-8517
눈는	-8518
드를	-8519
라기	-8520
렘는	-8521
로의	-8522
류의	-8523
마음	-8524
모자	-8525
미의	-8526
분포	-8527
수도	-8528
식상	-8529
있습	-8530
적용	-8531
조건	-8532
중력	-8533
중입	-8534
지금	-8535
지의	-8536
체계	-8537
최소	-8538
칠맛	-8539
파랑	-8540
편해	-8541
101	-8542
53?	-8543
Don	-8544
Man	-8545
Nar	-8546
Ran	-8547
amp	-8548
anp	-8549
ans	-8550
ban	-8551
bou	-8552
ean	-8553
erc	-8554
han	-8555
ion	-8556
isc	-8557
lat	-8558
lit	-8559
ono	-8560
ons	-8561
rma	-8562
sti	-8563
tan	-8564
uan	-8565
urr	-8566
urv	-8567
zon	-8568
▁ca	-8569
▁cl	-8570
▁이모	-8571
▁카르	-8572
우주배	-8573
우주시	-8574
중우주	-8575
지도는	-8576
지도에	-8577
🛸10	-8578
Mani	-8579
anic	-8580
aniz	-8581
eded	-8582
sier	-8583
teac	-8584
teps	-8585
▁net	-8586
▁pow	-8587
teach	-8588
treng	-8589
▁2.06	-8590
▁Tick	-8591
▁Vani	-8592
▁acro	-8593
▁acti	-8594
▁adju	-8595
▁almo	-8596
▁alph	-8597
▁ampl	-8598
▁anal	-8599
4/	-8600
=8	-8601
GI	-8602
Hu	-8603
SN	-8604
UC	-8605
bb	-8606
cy	-8607
fa	-8608
fp	-8609
rl	-8610
so	-8611
xp	-8612
yq	-8613
→9	-8614
경의	-8615
금색	-8616
꿈의	-8617
날씨	-8618
눈의	-8619
늘도	-8620
단순	-8621
답해	-8622
도움	-8623
드릴	-8624
드립	-8625
로메	-8626
름은	-8627
름이	-8628
릴게	-8629
림의	-8630
립니	-8631
매의	-8632
명해	-8633
물론	-8634
반환	-8635
뷔의	-8636
블록	-8637
사용	-8638
상의	-8639
섯의	-8640
승의	-8641
식은	-8642
심는	-8643
심의	-8644
아의	-8645
애의	-8646
완성	-8647
용의	-8648
원의	-8649
위험	-8650
유지	-8651
이식	-8652
인의	-8653
적이	-8654
질의	-8655
첩의	-8656
치의	-8657
한의	-8658
호의	-8659
환하	-8660
회의	-8661
-9×	-8662
1.2	-8663
21,	-8664
RAT	-8665
USN	-8666
ank	-8667
hig	-8668
ona	-8669
pin	-8670
▁3.	-8671
▁자각	-8672
▁종이	-8673
아내림	-8674
중첩의	-8675
치심의	-8676
11),	-8677
Vani	-8678
gers	-8679
hold	-8680
onto	-8681
quis	-8682
tput	-8683
trem	-8684
▁Hig	-8685
▁MAX	-8686
▁des	-8687
▁glo	-8688
▁안녕하	-8689
스터시는	-8690
anche	-8691
cellu	-8692
raphi	-8693
▁(~12	-8694
▁anch	-8695
▁arro	-8696
▁attr	-8697
▁aval	-8698
▁aver	-8699
3+	-8700
Bu	-8701
GE	-8702
_(	-8703
bm	-8704
lg	-8705
ok	-8706
rk	-8707
rm	-8708
ye	-8709
▁특	-8710
가능	-8711
간은	-8712
검증	-8713
골의	-8714
골화	-8715
관측	-8716
귀의	-8717
기참	-8718
꽃의	-8719
끈은	-8720
나의	-8721
다중	-8722
대나	-8723
드입	-8724
모나	-8725
미노	-8726
쁨의	-8727
색의	-8728
소음	-8729
심신	-8730
애는	-8731
언어	-8732
엇을	-8733
역학	-8734
역할	-8735
오늘	-8736
자얽	-8737
자유	-8738
작성	-8739
장돌	-8740
지수	-8741
지질	-8742
질문	-8743
처음	-8744
커니	-8745
트의	-8746
파문	-8747
평형	-8748
포의	-8749
포함	-8750
험는	-8751
형의	-8752
17-	-8753
=24	-8754
Pre	-8755
_01	-8756
bes	-8757
ene	-8758
igg	-8759
ily	-8760
kly	-8761
osi	-8762
roc	-8763
ubf	-8764
van	-8765
▁VR	-8766
▁중입	-8767
버섯의	-8768
인장의	-8769
10):	-8770
100)	-8771
2=0.	-8772
diti	-8773
ersi	-8774
esti	-8775
llow	-8776
ming	-8777
ophi	-8778
reta	-8779
troy	-8780
tter	-8781
verv	-8782
▁col	-8783
유의지의	-8784
actor	-8785
bsent	-8786
infor	-8787
▁adap	-8788
▁bene	-8789
▁betw	-8790
▁bidi	-8791
▁boun	-8792
▁cann	-8793
▁cate	-8794
▁choi	-8795
▁choo	-8796
▁clas	-8797
▁coex	-8798
▁comb	-8799
,+	-8800
,0	-8801
->	-8802
61	-8803
8|	-8804
9+	-8805
AM	-8806
Ce	-8807
FF	-8808
PA	-8809
RS	-8810
XA	-8811
sd	-8812
▁{	-8813
겠습	-8814
계산	-8815
규칙	-8816
극한	-8817
기도	-8818
기록	-8819
끌개	-8820
나비	-8821
너는	-8822
노의	-8823
능성	-8824
돌고	-8825
로가	-8826
리겠	-8827
만다	-8828
맛이	-8829
모릅	-8830
문어	-8831
바로	-8832
뱅은	-8833
번역	-8834
보라	-8835
비의	-8836
시입	-8837
아님	-8838
않는	-8839
에포	-8840
울음	-8841
조가	-8842
질은	-8843
홀과	-8844
홀은	-8845
홀의	-8846
🛸5	-8847
🛸7	-8848
204	-8849
40:	-8850
ado	-8851
ats	-8852
cei	-8853
eds	-8854
ert	-8855
fal	-8856
jec	-8857
nte	-8858
ocs	-8859
ove	-8860
rox	-8861
~10	-8862
▁44	-8863
▁55	-8864
▁EX	-8865
▁IN	-8866
▁Mu	-8867
▁PC	-8868
▁Ve	-8869
▁na	-8870
▁🛸3	-8871
거움는	-8872
고래는	-8873
20-5	-8874
hebb	-8875
mmit	-8876
▁17.	-8877
▁Sig	-8878
▁org	-8879
▁pan	-8880
▁swe	-8881
지소리는	-8882
=0.0%	-8883
uctiv	-8884
▁1.91	-8885
▁comm	-8886
▁conf	-8887
▁conn	-8888
▁cons	-8889
▁cool	-8890
▁corp	-8891
▁curr	-8892
▁cycl	-8893
▁dase	-8894
▁deco	-8895
▁demo	-8896
▁depr	-8897
▁deto	-8898
▁doma	-8899
,4	-8900
.9	-8901
09	-8902
1(	-8903
1_	-8904
41	-8905
CL	-8906
CU	-8907
EN	-8908
EX	-8909
Fi	-8910
Fo	-8911
IE	-8912
LR	-8913
MI	-8914
Me	-8915
Mu	-8916
PO	-8917
Tr	-8918
VO	-8919
YS	-8920
_*	-8921
_1	-8922
ci	-8923
ct	-8924
go	-8925
hu	-8926
kp	-8927
lv	-8928
ml	-8929
nz	-8930
oR	-8931
pw	-8932
sE	-8933
sf	-8934
tt	-8935
▁W	-8936
▁함	-8937
감칠	-8938
그리	-8939
녕하	-8940
두의	-8941
료는	-8942
류는	-8943
순환	-8944
예의	-8945
자율	-8946
제의	-8947
존의	-8948
종이	-8949
한한	-8950
형는	-8951
🛸1	-8952
-15	-8953
-64	-8954
0.2	-8955
TIO	-8956
arg	-8957
des	-8958
esi	-8959
hap	-8960
mos	-8961
onl	-8962
par	-8963
poi	-8964
sat	-8965
sol	-8966
소리는	-8967
타우로	-8968
2.5%	-8969
256)	-8970
erin	-8971
lack	-8972
terf	-8973
test	-8974
▁(12	-8975
▁Fun	-8976
▁Hal	-8977
▁빅뱅이	-8978
anill	-8979
arely	-8980
enste	-8981
ghput	-8982
nuous	-8983
sable	-8984
timum	-8985
treme	-8986
ultra	-8987
▁deci	-8988
▁diss	-8989
▁driv	-8990
▁dyna	-8991
▁econ	-8992
▁elim	-8993
▁ever	-8994
▁evol	-8995
▁exce	-8996
▁exha	-8997
▁exis	-8998
▁extr	-8999
,7	-9000
2×	-9001
63	-9002
89	-9003
=5	-9004
BI	-9005
Ba	-9006
DI	-9007
Di	-9008
Fl	-9009
Ho	-9010
Py	-9011
Sk	-9012
Ti	-9013
UD	-9014
br	-9015
nn	-9016
pu	-9017
tp	-9018
tw	-9019
wl	-9020
감사	-9021
끈의	-9022
단맛	-9023
도라	-9024
독립	-9025
랜스	-9026
루의	-9027
림는	-9028
밤의	-9029
뱅이	-9030
보존	-9031
시에	-9032
식는	-9033
실시	-9034
양는	-9035
어떤	-9036
어의	-9037
연인	-9038
온합	-9039
우는	-9040
우스	-9041
인는	-9042
일상	-9043
자중	-9044
증는	-9045
초광	-9046
클래	-9047
타우	-9048
트랜	-9049
판도	-9050
편합	-9051
프랙	-9052
프로	-9053
프스	-9054
해골	-9055
허무	-9056
117	-9057
18,	-9058
31-	-9059
ano	-9060
atl	-9061
bab	-9062
cle	-9063
edg	-9064
elt	-9065
esu	-9066
ldi	-9067
nch	-9068
pen	-9069
ted	-9070
yte	-9071
▁fl	-9072
얽힘는	-9073
우주는	-9074
0.00	-9075
achi	-9076
lock	-9077
onan	-9078
ress	-9079
thon	-9080
used	-9081
xter	-9082
▁우주뇌	-9083
-4.7%	-9084
admap	-9085
ample	-9086
aradi	-9087
diver	-9088
ition	-9089
moves	-9090
tream	-9091
▁1.30	-9092
▁fish	-9093
▁forc	-9094
▁foun	-9095
▁fres	-9096
▁gain	-9097
▁grav	-9098
▁guar	-9099
(4	-9100
.2	-9101
Ac	-9102
GR	-9103
Hy	-9104
ME	-9105
ih	-9106
ik	-9107
격는	-9108
구는	-9109
끼는	-9110
루스	-9111
메커	-9112
모든	-9113
반의	-9114
벽화	-9115
시의	-9116
시지	-9117
실존	-9118
악는	-9119
연꽃	-9120
영원	-9121
오르	-9122
오세	-9123
옴는	-9124
용는	-9125
웃음	-9126
원는	-9127
이별	-9128
일본	-9129
임사	-9130
자음	-9131
재의	-9132
재즈	-9133
전자	-9134
전체	-9135
절규	-9136
점균	-9137
점자	-9138
접기	-9139
제는	-9140
주시	-9141
즈는	-9142
즐거	-9143
즘는	-9144
첫사	-9145
충격	-9146
친구	-9147
코드	-9148
텍스	-9149
플로	-9150
픔는	-9151
300	-9152
76:	-9153
alp	-9154
cst	-9155
deg	-9156
elo	-9157
hif	-9158
ina	-9159
mog	-9160
oug	-9161
sou	-9162
tot	-9163
utr	-9164
yer	-9165
▁Tw	-9166
▁cu	-9167
▁오세	-9168
고래노	-9169
런치는	-9170
시간의	-9171
시대는	-9172
2,40	-9173
_033	-9174
akly	-9175
edes	-9176
eeds	-9177
enst	-9178
esto	-9179
mati	-9180
onst	-9181
pond	-9182
verh	-9183
▁54.	-9184
▁Cel	-9185
뇌지도는	-9186
aptiv	-9187
entri	-9188
ferro	-9189
ments	-9190
tivat	-9191
▁dist	-9192
▁guid	-9193
▁harm	-9194
▁hypo	-9195
▁hyst	-9196
▁iden	-9197
▁immo	-9198
▁indi	-9199
0%	-9200
42	-9201
5/	-9202
7)	-9203
=+	-9204
OM	-9205
▁우	-9206
▁추	-9207
검정	-9208
경는	-9209
계수	-9210
고대	-9211
규는	-9212
꽃는	-9213
는밤	-9214
동굴	-9215
록는	-9216
리자	-9217
립적	-9218
만델	-9219
매운	-9220
명상	-9221
모스	-9222
백색	-9223
벌는	-9224
분노	-9225
브로	-9226
비는	-9227
빨강	-9228
생애	-9229
서예	-9230
선정	-9231
설렘	-9232
섯는	-9233
세계	-9234
수화	-9235
스부	-9236
스톤	-9237
슬픔	-9238
승는	-9239
신문	-9240
완전	-9241
위는	-9242
존는	-9243
종속	-9244
즈의	-9245
지경	-9246
지소	-9247
지표	-9248
질는	-9249
타자	-9250
호는	-9251
,40	-9252
CAN	-9253
Emo	-9254
ali	-9255
ddi	-9256
eth	-9257
ktr	-9258
lan	-9259
mas	-9260
mov	-9261
nel	-9262
raw	-9263
riv	-9264
ven	-9265
ync	-9266
▁BE	-9267
▁Me	-9268
▁pa	-9269
지프스	-9270
/128	-9271
Hebb	-9272
alph	-9273
dyna	-9274
esen	-9275
esid	-9276
ilar	-9277
itec	-9278
lver	-9279
onsc	-9280
pter	-9281
uran	-9282
▁fix	-9283
▁lis	-9284
acher	-9285
entic	-9286
ratic	-9287
▁hidd	-9288
▁inev	-9289
▁insi	-9290
▁inst	-9291
▁insu	-9292
▁inte	-9293
▁intr	-9294
▁irre	-9295
▁kern	-9296
▁kill	-9297
▁lang	-9298
▁lear	-9299
(8	-9300
45	-9301
7-	-9302
73	-9303
=(	-9304
Av	-9305
Do	-9306
Ke	-9307
Ph	-9308
da	-9309
gi	-9310
ka	-9311
sk	-9312
xe	-9313
yt	-9314
~3	-9315
~9	-9316
가설	-9317
경멸	-9318
귀는	-9319
노랑	-9320
놀람	-9321
뇌지	-9322
다이	-9323
대는	-9324
대의	-9325
도와	-9326
람는	-9327
랑는	-9328
멸는	-9329
무는	-9330
별의	-9331
아는	-9332
와드	-9333
이집	-9334
장의	-9335
저는	-9336
절는	-9337
절대	-9338
정는	-9339
정은	-9340
정체	-9341
/2)	-9342
1.4	-9343
900	-9344
91.	-9345
aut	-9346
enh	-9347
erf	-9348
ini	-9349
ren	-9350
uid	-9351
▁02	-9352
▁DN	-9353
▁Fa	-9354
▁II	-9355
▁ax	-9356
국어로	-9357
죽음의	-9358
1258	-9359
160→	-9360
acto	-9361
chis	-9362
eniz	-9363
mies	-9364
mper	-9365
ough	-9366
read	-9367
stat	-9368
▁+6.	-9369
▁bou	-9370
▁bra	-9371
▁ext	-9372
▁neg	-9373
경복사는	-9374
노타우로	-9375
능합니다	-9376
Weigh	-9377
ermal	-9378
ignal	-9379
ngine	-9380
omies	-9381
onver	-9382
overh	-9383
▁look	-9384
▁loos	-9385
▁magn	-9386
▁math	-9387
▁matr	-9388
▁meas	-9389
▁mech	-9390
▁metr	-9391
▁mito	-9392
▁narr	-9393
▁netw	-9394
▁nois	-9395
▁opti	-9396
▁orig	-9397
▁orth	-9398
▁osci	-9399
+5	-9400
+7	-9401
1→	-9402
2=	-9403
3/	-9404
<2	-9405
=6	-9406
An	-9407
BP	-9408
Bo	-9409
DU	-9410
ES	-9411
Ea	-9412
Ev	-9413
Ga	-9414
Ge	-9415
IM	-9416
IN	-9417
Is	-9418
LA	-9419
OD	-9420
ST	-9421
Se	-9422
Sy	-9423
TH	-9424
TO	-9425
TU	-9426
bt	-9427
dy	-9428
gl	-9429
hm	-9430
kw	-9431
lM	-9432
mf	-9433
nc	-9434
rw	-9435
tN	-9436
vs	-9437
wt	-9438
xc	-9439
×4	-9440
→2	-9441
▁±	-9442
능합	-9443
답합	-9444
도메	-9445
독버	-9446
루는	-9447
별이	-9448
사각	-9449
악의	-9450
오는	-9451
외는	-9452
위에	-9453
위의	-9454
절의	-9455
주뇌	-9456
초록	-9457
침입	-9458
파는	-9459
하나	-9460
-1.	-9461
-7%	-9462
070	-9463
2.9	-9464
35,	-9465
64-	-9466
Fac	-9467
eci	-9468
isd	-9469
ler	-9470
moo	-9471
ned	-9472
oti	-9473
plo	-9474
tog	-9475
vat	-9476
리트는	-9477
IRED	-9478
acti	-9479
eler	-9480
eren	-9481
imum	-9482
iple	-9483
oriz	-9484
otic	-9485
remo	-9486
urst	-9487
usal	-9488
▁Sto	-9489
▁Ten	-9490
▁fis	-9491
▁slo	-9492
▁tas	-9493
micro	-9494
philo	-9495
▁Less	-9496
▁pend	-9497
▁perf	-9498
▁pert	-9499
#1	-9500
%)	-9501
%:	-9502
(+	-9503
(-	-9504
(2	-9505
(5	-9506
);	-9507
+1	-9508
+6	-9509
.4	-9510
.7	-9511
04	-9512
4×	-9513
7→	-9514
<<	-9515
EP	-9516
Hi	-9517
Ny	-9518
ON	-9519
Su	-9520
TT	-9521
Te	-9522
Ve	-9523
XI	-9524
aj	-9525
dH	-9526
dm	-9527
dr	-9528
eg	-9529
em	-9530
hn	-9531
kt	-9532
~7	-9533
→6	-9534
≈0	-9535
검은	-9536
까마	-9537
나이	-9538
너의	-9539
래는	-9540
마의	-9541
발견	-9542
배경	-9543
윤회	-9544
있음	-9545
자세	-9546
정보	-9547
크런	-9548
험의	-9549
힘은	-9550
153	-9551
4),	-9552
976	-9553
=1-	-9554
Cop	-9555
Cor	-9556
dma	-9557
dul	-9558
ead	-9559
inj	-9560
oin	-9561
ors	-9562
rig	-9563
ubS	-9564
▁La	-9565
▁SS	-9566
▁양귀	-9567
환하는	-9568
6%).	-9569
enes	-9570
opti	-9571
rima	-9572
tier	-9573
ulat	-9574
ured	-9575
▁cri	-9576
▁gam	-9577
▁ins	-9578
▁rea	-9579
나는밤는	-9580
래만다라	-9581
스크리트	-9582
07039	-9583
ature	-9584
esear	-9585
osmic	-9586
prove	-9587
▁phas	-9588
▁poin	-9589
▁pred	-9590
▁pref	-9591
▁prin	-9592
▁prob	-9593
▁proc	-9594
▁prof	-9595
▁prog	-9596
▁proj	-9597
▁prov	-9598
▁prox	-9599
/1	-9600
08	-9601
6_	-9602
71	-9603
AN	-9604
Au	-9605
Be	-9606
Dy	-9607
Em	-9608
FT	-9609
FU	-9610
Fa	-9611
Ha	-9612
He	-9613
LO	-9614
La	-9615
Na	-9616
OB	-9617
SC	-9618
Tw	-9619
UL	-9620
Zi	-9621
bf	-9622
gg	-9623
iu	-9624
os	-9625
rf	-9626
▁엑	-9627
값을	-9628
계절	-9629
공는	-9630
도는	-9631
동일	-9632
두는	-9633
루시	-9634
마는	-9635
모두	-9636
뱅는	-9637
복사	-9638
분화	-9639
빛나	-9640
어요	-9641
엇이	-9642
엑스	-9643
움는	-9644
이름	-9645
이에	-9646
있어	-9647
적의	-9648
주는	-9649
중국	-9650
측정	-9651
카테	-9652
퀄리	-9653
트는	-9654
하세	-9655
하양	-9656
힘는	-9657
60,	-9658
DAT	-9659
Sec	-9660
lle	-9661
mom	-9662
nal	-9663
rot	-9664
tib	-9665
uti	-9666
▁SE	-9667
▁수학	-9668
▁자율	-9669
나리자	-9670
사조의	-9671
사체험	-9672
시대의	-9673
우주의	-9674
인장는	-9675
0.15	-9676
8760	-9677
enal	-9678
genc	-9679
ghes	-9680
pont	-9681
▁0.8	-9682
▁Equ	-9683
▁bon	-9684
▁oft	-9685
▁sto	-9686
arger	-9687
diloc	-9688
ntegr	-9689
▁32-4	-9690
▁prun	-9691
▁qual	-9692
▁rais	-9693
▁rand	-9694
▁rath	-9695
▁rati	-9696
▁read	-9697
▁rema	-9698
▁repl	-9699
.3	-9700
2/	-9701
47	-9702
62	-9703
72	-9704
9)	-9705
=-	-9706
Al	-9707
Ca	-9708
Cr	-9709
Fu	-9710
Gr	-9711
Kn	-9712
Ra	-9713
Th	-9714
ag	-9715
dh	-9716
du	-9717
ki	-9718
ms	-9719
rt	-9720
tc	-9721
vg	-9722
wk	-9723
za	-9724
가치	-9725
대역	-9726
로는	-9727
릅니	-9728
만들	-9729
멸의	-9730
무위	-9731
반가	-9732
별는	-9733
식의	-9734
유레	-9735
유한	-9736
응답	-9737
이가	-9738
지내	-9739
찰나	-9740
케는	-9741
케의	-9742
홀는	-9743
회는	-9744
053	-9745
12.	-9746
=25	-9747
Fun	-9748
gin	-9749
gul	-9750
hin	-9751
hts	-9752
iti	-9753
onf	-9754
saf	-9755
ton	-9756
ubr	-9757
urf	-9758
→21	-9759
▁Py	-9760
▁Ti	-9761
▁go	-9762
ased	-9763
chan	-9764
ctiv	-9765
hase	-9766
ilib	-9767
iodi	-9768
nect	-9769
ultr	-9770
veri	-9771
▁+4.	-9772
▁406	-9773
▁nar	-9774
▁sma	-9775
▁spe	-9776
▁sti	-9777
온합니다	-9778
침입니다	-9779
istan	-9780
overs	-9781
sions	-9782
tible	-9783
▁1.82	-9784
▁2.66	-9785
▁lead	-9786
▁repr	-9787
▁retr	-9788
▁roun	-9789
▁sati	-9790
▁sche	-9791
▁shap	-9792
▁shar	-9793
▁shor	-9794
▁show	-9795
▁simp	-9796
▁spar	-9797
▁spir	-9798
▁spon	-9799
.1	-9800
.8	-9801
01	-9802
06	-9803
88	-9804
Da	-9805
EE	-9806
En	-9807
II	-9808
OS	-9809
Ps	-9810
Sh	-9811
St	-9812
TD	-9813
UR	-9814
af	-9815
ba	-9816
bo	-9817
cl	-9818
cu	-9819
dl	-9820
ei	-9821
iq	-9822
kl	-9823
ku	-9824
la	-9825
rh	-9826
uf	-9827
vo	-9828
ws	-9829
~2	-9830
★:	-9831
개의	-9832
구의	-9833
깨달	-9834
록의	-9835
메타	-9836
뷔는	-9837
사체	-9838
수치	-9839
안녕	-9840
의지	-9841
질시	-9842
최대	-9843
탐구	-9844
특이	-9845
포는	-9846
18)	-9847
NES	-9848
atu	-9849
can	-9850
cto	-9851
emo	-9852
ita	-9853
odi	-9854
oma	-9855
orc	-9856
thm	-9857
uel	-9858
▁CU	-9859
▁fr	-9860
▁li	-9861
▁도메	-9862
acem	-9863
educ	-9864
gher	-9865
hiev	-9866
hypo	-9867
mocr	-9868
mole	-9869
plor	-9870
quir	-9871
vana	-9872
▁(17	-9873
▁Cac	-9874
▁Fru	-9875
▁dev	-9876
▁dyn	-9877
▁emo	-9878
▁fre	-9879
▁sig	-9880
ditiv	-9881
istor	-9882
ivial	-9883
ulate	-9884
▁pers	-9885
▁reus	-9886
▁stab	-9887
▁stac	-9888
▁stag	-9889
▁stat	-9890
▁swee	-9891
▁swit	-9892
▁tech	-9893
▁tren	-9894
▁trig	-9895
▁unif	-9896
▁valu	-9897
▁vers	-9898
▁weig	-9899
(0	-9900
03	-9901
2-	-9902
34	-9903
52	-9904
56	-9905
8×	-9906
LL	-9907
Li	-9908
Lo	-9909
OT	-9910
PE	-9911
Re	-9912
Va	-9913
bu	-9914
eq	-9915
fr	-9916
fu	-9917
gt	-9918
ht	-9919
kh	-9920
ni	-9921
ov	-9922
pa	-9923
rp	-9924
wh	-9925
공식	-9926
극은	-9927
까치	-9928
단일	-9929
답하	-9930
보장	-9931
빅크	-9932
색는	-9933
선인	-9934
스승	-9935
양자	-9936
입니	-9937
자기	-9938
존재	-9939
질투	-9940
통합	-9941
필요	-9942
🛸9	-9943
<1%	-9944
Fed	-9945
UCE	-9946
acr	-9947
cro	-9948
een	-9949
ees	-9950
ein	-9951
has	-9952
hip	-9953
rof	-9954
ses	-9955
tac	-9956
tap	-9957
xtr	-9958
▁SO	-9959
▁aw	-9960
력파는	-9961
시간는	-9962
adma	-9963
ampl	-9964
ansi	-9965
eace	-9966
hist	-9967
imiz	-9968
into	-9969
sent	-9970
tron	-9971
▁del	-9972
▁fou	-9973
▁fra	-9974
▁sat	-9975
▁shr	-9976
▁spo	-9977
▁thr	-9978
▁우주배	-9979
Cryst	-9980
arkov	-9981
hedul	-9982
turns	-9983
upers	-9984
▁inde	-9985
▁yiel	-9986
▁{-1,	-9987
▁도와드립	-9988
▁루시드드	-9989
▁프로메테	-9990
▁🛸90~	-9991
래만다라는	-9992
리겠습니다	-9993
메테우스는	-9994
배경복사는	-9995
뵙겠습니다	-9996
엑스터시는	-9997
엑스터시의	-9998
이빛나는밤	-9999
97	-10000
AC	-10001
DN	-10002
FA	-10003
MB	-10004
Pe	-10005
ax	-10006
hA	-10007
ls	-10008
mu	-10009
nf	-10010
nl	-10011
ny	-10012
pp	-10013
rc	-10014
rs	-10015
tl	-10016
tu	-10017
ug	-10018
uo	-10019
wi	-10020
▁철	-10021
▁텍	-10022
기분	-10023
능력	-10024
도에	-10025
도의	-10026
리는	-10027
리포	-10028
뭐야	-10029
받을	-10030
벌의	-10031
산의	-10032
설명	-10033
소개	-10034
시는	-10035
엔트	-10036
외계	-10037
율진	-10038
이모	-10039
이의	-10040
장미	-10041
저녁	-10042
주의	-10043
지는	-10044
진동	-10045
탈는	-10046
평온	-10047
흑물	-10048
🛸8	-10049
12,	-10050
4)+	-10051
anc	-10052
app	-10053
ato	-10054
bin	-10055
din	-10056
eco	-10057
els	-10058
err	-10059
ics	-10060
nts	-10061
onv	-10062
smo	-10063
tif	-10064
win	-10065
▁4.	-10066
▁fa	-10067
64-5	-10068
eras	-10069
ermo	-10070
gnit	-10071
ican	-10072
mits	-10073
plac	-10074
work	-10075
▁0.9	-10076
▁73-	-10077
▁Ani	-10078
▁fac	-10079
▁fol	-10080
21→21	-10081
40-18	-10082
esent	-10083
logra	-10084
osion	-10085
▁surp	-10086
정적이에요	-10087
톤헨지소리	-10088
+0.102	-10089
+24.7%	-10090
-0.998	-10091
0.5001	-10092
0.516)	-10093
0.52):	-10094
03976.	-10095
03976:	-10096
03976?	-10097
1-83%,	-10098
116-12	-10099
(1	-10100
(~	-10101
*=	-10102
-7	-10103
0→	-10104
4^	-10105
6)	-10106
AL	-10107
Cl	-10108
Co	-10109
De	-10110
HI	-10111
Id	-10112
LZ	-10113
Ni	-10114
Sm	-10115
dw	-10116
ea	-10117
mi	-10118
ns	-10119
rv	-10120
va	-10121
∞,	-10122
▁식	-10123
가워	-10124
극는	-10125
날짜	-10126
래의	-10127
로스	-10128
록입	-10129
리의	-10130
무엇	-10131
뵙겠	-10132
심만	-10133
알려	-10134
어든	-10135
어로	-10136
자극	-10137
출산	-10138
파의	-10139
한국	-10140
핵심	-10141
향수	-10142
.11	-10143
5).	-10144
808	-10145
87,	-10146
94.	-10147
ale	-10148
alt	-10149
ben	-10150
bre	-10151
cen	-10152
cti	-10153
gon	-10154
her	-10155
hex	-10156
hou	-10157
lti	-10158
org	-10159
pil	-10160
tid	-10161
tly	-10162
치심는	-10163
0.2%	-10164
18):	-10165
=0.9	-10166
diff	-10167
eith	-10168
once	-10169
ontr	-10170
polo	-10171
stre	-10172
titi	-10173
▁Knu	-10174
▁eco	-10175
▁exh	-10176
▁man	-10177
▁nat	-10178
▁tok	-10179
▁unf	-10180
▁vec	-10181
▁우주시	-10182
elops	-10183
ifies	-10184
ypoth	-10185
▁+23.	-10186
▁alon	-10187
▁laun	-10188
▁stud	-10189
15)=1.	-10190
160→90	-10191
170-40	-10192
21→21→	-10193
3.038.	-10194
3.53);	-10195
38,760	-10196
40×18)	-10197
65.1%)	-10198
853805	-10199
+3	-10200
.5	-10201
33	-10202
5-	-10203
51	-10204
91	-10205
<1	-10206
CI	-10207
Jo	-10208
Pr	-10209
SV	-10210
Si	-10211
bi	-10212
cr	-10213
gs	-10214
lw	-10215
np	-10216
wr	-10217
▁한	-10218
공간	-10219
구조	-10220
규의	-10221
로필	-10222
무아	-10223
반는	-10224
범심	-10225
법칙	-10226
쁨는	-10227
설계	-10228
수라	-10229
순간	-10230
쓴맛	-10231
외의	-10232
탈의	-10233
통증	-10234
픔의	-10235
130	-10236
24^	-10237
65)	-10238
816	-10239
=1/	-10240
ERS	-10241
dea	-10242
epl	-10243
esh	-10244
fou	-10245
geo	-10246
hen	-10247
irm	-10248
rin	-10249
rop	-10250
uar	-10251
uth	-10252
▁71	-10253
▁97	-10254
▁EN	-10255
▁Le	-10256
▁da	-10257
찰나는	-10258
adul	-10259
aker	-10260
almo	-10261
eder	-10262
ensa	-10263
erpo	-10264
eter	-10265
gine	-10266
lent	-10267
onon	-10268
ousl	-10269
thin	-10270
usly	-10271
yste	-10272
▁+7.	-10273
▁Les	-10274
▁equ	-10275
▁hop	-10276
▁int	-10277
▁lev	-10278
▁의식상	-10279
굴벽화는	-10280
12586	-10281
Autop	-10282
Loren	-10283
arasi	-10284
auses	-10285
esses	-10286
uctur	-10287
▁Hebb	-10288
+0.06%	-10289
=-0.46	-10290
=-0.61	-10291
=0.525	-10292
ATIONS	-10293
AXIMUM	-10294
Autopo	-10295
CANDID	-10296
Consci	-10297
Correl	-10298
EDUCES	-10299
(3	-10300
1+	-10301
50	-10302
65	-10303
7/	-10304
AS	-10305
NI	-10306
Ru	-10307
Up	-10308
VE	-10309
bp	-10310
fi	-10311
hr	-10312
js	-10313
lp	-10314
rb	-10315
sn	-10316
vi	-10317
yi	-10318
zo	-10319
개는	-10320
녹아	-10321
랑의	-10322
래스	-10323
료의	-10324
반복	-10325
블랙	-10326
수학	-10327
아랍	-10328
암흑	-10329
어때	-10330
피는	-10331
합니	-10332
힘의	-10333
%):	-10334
20)	-10335
53)	-10336
Des	-10337
Sma	-10338
VER	-10339
ars	-10340
cry	-10341
eek	-10342
hes	-10343
hon	-10344
mea	-10345
mme	-10346
nin	-10347
oes	-10348
oos	-10349
sen	-10350
slo	-10351
tok	-10352
tos	-10353
tro	-10354
xce	-10355
▁+4	-10356
▁4%	-10357
▁GE	-10358
▁Mo	-10359
▁Sk	-10360
우주뇌	-10361
0.52	-10362
53);	-10363
76),	-10364
CTUR	-10365
IVER	-10366
SION	-10367
anis	-10368
aust	-10369
dase	-10370
iles	-10371
isti	-10372
lict	-10373
trop	-10374
▁cel	-10375
▁dil	-10376
19.8%	-10377
Varel	-10378
aotic	-10379
coupl	-10380
onent	-10381
orker	-10382
rgani	-10383
▁(32-	-10384
▁Dase	-10385
▁arch	-10386
▁dete	-10387
▁memo	-10388
▁vani	-10389
▁🛸50~	-10390
ENESIS	-10391
ETIRED	-10392
HubSpo	-10393
ISSING	-10394
IVERSE	-10395
LATION	-10396
Linden	-10397
RATION	-10398
TRUCTU	-10399
28	-10400
<6	-10401
Ad	-10402
Ch	-10403
HP	-10404
LF	-10405
Pa	-10406
To	-10407
be	-10408
eC	-10409
fo	-10410
je	-10411
lt	-10412
od	-10413
oe	-10414
ui	-10415
yp	-10416
ys	-10417
±4	-10418
▁_	-10419
▁과	-10420
▁천	-10421
미는	-10422
밤는	-10423
상관	-10424
아닌	-10425
좋은	-10426
테우	-10427
평균	-10428
🛸6	-10429
017	-10430
14,	-10431
23.	-10432
39.	-10433
<2%	-10434
LAT	-10435
bac	-10436
but	-10437
dir	-10438
edi	-10439
hoo	-10440
nan	-10441
oop	-10442
sop	-10443
ssi	-10444
tru	-10445
udd	-10446
▁72	-10447
▁82	-10448
▁95	-10449
▁LT	-10450
▁To	-10451
▁ce	-10452
▁ea	-10453
▁날짜	-10454
▁이카	-10455
각형의	-10456
랍어는	-10457
사조는	-10458
트로피	-10459
Narr	-10460
bsor	-10461
eani	-10462
ered	-10463
eser	-10464
geth	-10465
hort	-10466
ogon	-10467
rade	-10468
reak	-10469
rogr	-10470
sche	-10471
stas	-10472
terv	-10473
tlen	-10474
▁63-	-10475
▁Tic	-10476
▁iso	-10477
12.3%	-10478
=0.15	-10479
icial	-10480
impro	-10481
invar	-10482
tabil	-10483
▁(6.7	-10484
▁diff	-10485
▁mole	-10486
TTRACT	-10487
USNESS	-10488
acking	-10489
active	-10490
aining	-10491
amingL	-10492
anager	-10493
anging	-10494
anking	-10495
antize	-10496
apable	-10497
aptive	-10498
apture	-10499
66	-10500
JS	-10501
Sp	-10502
dj	-10503
공포	-10504
삼매	-10505
음의	-10506
장는	-10507
hed	-10508
ltr	-10509
mly	-10510
pon	-10511
ENESI	-10512
▁modi	-10513
aradox	-10514
archit	-10515
ardest	-10516
armful	-10517
armony	-10518
artial	-10519
ascade	-10520
asurem	-10521
atches	-10522
ateaus	-10523
ategor	-10524
ationa	-10525
attern	-10526
aturan	-10527
autopo	-10528
avings	-10529
awking	-10530
bation	-10531
bility	-10532
bletop	-10533
bution	-10534
cation	-10535
ccumul	-10536
ceives	-10537
cellul	-10538
change	-10539
chanis	-10540
chical	-10541
chniqu	-10542
cision	-10543
consci	-10544
constr	-10545
conver	-10546
dament	-10547
dation	-10548
depend	-10549
dering	-10550
dients	-10551
differ	-10552
difier	-10553
discon	-10554
discre	-10555
dition	-10556
eation	-10557
ecoder	-10558
ecture	-10559
educes	-10560
eeding	-10561
enalty	-10562
endent	-10563
enesis	-10564
ensate	-10565
entire	-10566
entral	-10567
entrop	-10568
erases	-10569
erenti	-10570
eresis	-10571
ergies	-10572
erging	-10573
ergize	-10574
erived	-10575
ersist	-10576
escent	-10577
espair	-10578
ession	-10579
essive	-10580
essons	-10581
estiny	-10582
estroy	-10583
estruc	-10584
fectly	-10585
ffects	-10586
folder	-10587
fundam	-10588
gether	-10589
gorith	-10590
gressi	-10591
haring	-10592
hieves	-10593
hunked	-10594
iation	-10595
identi	-10596
ierarc	-10597
ilibri	-10598
ilizes	-10599
imizes	-10600
inally	-10601
indows	-10602
ingual	-10603
inkage	-10604
iparti	-10605
irical	-10606
irvana	-10607
istory	-10608
itable	-10609
itical	-10610
itting	-10611
jector	-10612
keness	-10613
kenste	-10614
lashAt	-10615
locker	-10616
logies	-10617
losoph	-10618
losure	-10619
malles	-10620
mation	-10621
merger	-10622
minant	-10623
minate	-10624
minish	-10625
mocrac	-10626
nction	-10627
nesses	-10628
nivers	-10629
olated	-10630
ollows	-10631
ologra	-10632
omeost	-10633
omogen	-10634
ompres	-10635
onance	-10636
onging	-10637
onical	-10638
onizer	-10639
onstan	-10640
ontane	-10641
ontinu	-10642
operty	-10643
option	-10644
organi	-10645
orking	-10646
orresp	-10647
orthog	-10648
ottery	-10649
ottlen	-10650
oundar	-10651
ounded	-10652
ources	-10653
outine	-10654
outing	-10655
outper	-10656
overed	-10657
overhe	-10658
owngra	-10659
ownstr	-10660
panpsy	-10661
pative	-10662
peline	-10663
percub	-10664
philos	-10665
pressi	-10666
produc	-10667
proves	-10668
ptimal	-10669
qualiz	-10670
quency	-10671
ractal	-10672
ragile	-10673
ranger	-10674
rapper	-10675
ration	-10676
rative	-10677
reates	-10678
reativ	-10679
resist	-10680
retize	-10681
retrac	-10682
rginal	-10683
rigger	-10684
rimary	-10685
rogres	-10686
roject	-10687
rossed	-10688
scales	-10689
scilla	-10690
scious	-10691
scover	-10692
signed	-10693
sional	-10694
sitive	-10695
ssible	-10696
ssover	-10697
stNarr	-10698
stable	-10699
static	-10700
stence	-10701
stical	-10702
strain	-10703
straus	-10704
streng	-10705
tained	-10706
tation	-10707
tegrat	-10708
theses	-10709
thesis	-10710
timuli	-10711
tional	-10712
tition	-10713
tories	-10714
torshi	-10715
uality	-10716
uation	-10717
ucture	-10718
ulariz	-10719
ulated	-10720
ulates	-10721
ulator	-10722
umping	-10723
uperad	-10724
urates	-10725
urther	-10726
utomat	-10727
varies	-10728
vative	-10729
verdic	-10730
verges	-10731
verifi	-10732
versal	-10733
versel	-10734
verses	-10735
vidual	-10736
vision	-10737
ymlink	-10738
ymmetr	-10739
ynergy	-10740
yquist	-10741
zation	-10742
▁(0.30	-10743
▁(2.84	-10744
▁0.525	-10745
▁02985	-10746
▁100-1	-10747
▁1000-	-10748
▁200-2	-10749
▁500-5	-10750
▁Buddh	-10751
▁Compe	-10752
▁Coupl	-10753
▁Gradi	-10754
▁Heati	-10755
▁Incre	-10756
▁Inser	-10757
▁Inste	-10758
▁Perio	-10759
▁Philo	-10760
▁Ratch	-10761
▁Resil	-10762
▁Teach	-10763
▁Weigh	-10764
▁absol	-10765
▁absor	-10766
▁accum	-10767
▁activ	-10768
▁alter	-10769
▁anoth	-10770
▁antid	-10771
▁appro	-10772
▁argma	-10773
▁autoc	-10774
▁backw	-10775
▁benef	-10776
▁betwe	-10777
▁black	-10778
▁blend	-10779
▁boost	-10780
▁break	-10781
▁catal	-10782
▁cellu	-10783
▁chann	-10784
▁colla	-10785
▁compa	-10786
▁compe	-10787
▁compr	-10788
▁conce	-10789
▁confl	-10790
▁const	-10791
▁conti	-10792
▁contr	-10793
▁coupl	-10794
▁curio	-10795
▁decre	-10796
▁democ	-10797
▁deter	-10798
▁devel	-10799
▁dicta	-10800
▁dilut	-10801
▁direc	-10802
▁disti	-10803
▁distr	-10804
▁diver	-10805
▁ecsta	-10806
▁emerg	-10807
▁engin	-10808
▁equil	-10809
▁evolv	-10810
▁expan	-10811
▁expon	-10812
▁exter	-10813
▁feedb	-10814
▁forge	-10815
▁gener	-10816
▁hardw	-10817
▁immor	-10818
▁inade	-10819
▁infer	-10820
▁infin	-10821
▁inste	-10822
▁invar	-10823
▁inver	-10824
▁latti	-10825
▁legac	-10826
▁meani	-10827
▁mimic	-10828
▁modul	-10829
▁molec	-10830
▁monot	-10831
▁nativ	-10832
▁natur	-10833
▁neith	-10834
▁noisi	-10835
▁norma	-10836
▁overf	-10837
▁overl	-10838
▁overv	-10839
▁parad	-10840
▁paral	-10841
▁physi	-10842
▁press	-10843
▁previ	-10844
▁produ	-10845
▁progr	-10846
▁prote	-10847
▁ratch	-10848
▁recal	-10849
▁recei	-10850
▁recom	-10851
▁recor	-10852
▁redis	-10853
▁reduc	-10854
▁refer	-10855
▁resol	-10856
▁resul	-10857
▁retur	-10858
▁rever	-10859
▁sampl	-10860
▁selec	-10861
▁seman	-10862
▁sever	-10863
▁spont	-10864
▁stack	-10865
▁stair	-10866
▁starv	-10867
▁stati	-10868
▁stepw	-10869
▁stran	-10870
▁stric	-10871
▁subad	-10872
▁subli	-10873
▁surpr	-10874
▁synch	-10875
▁table	-10876
▁teach	-10877
▁theor	-10878
▁thres	-10879
▁throu	-10880
▁trade	-10881
▁trans	-10882
▁unidi	-10883
▁uniqu	-10884
▁도와드릴게	-10885
▁도와드릴까	-10886
-0.52):	-10887
0.5257)	-10888
170×40×	-10889
40×18).	-10890
=0.5001	-10891
ATIONSH	-10892
CONSCIO	-10893
Crystal	-10894
ELATION	-10895
Emotion	-10896
FFUSION	-10897
Faction	-10898
PhilMed	-10899
ability	-10900
acement	-10901
achment	-10902
actions	-10903
aintain	-10904
airwise	-10905
aluator	-10906
analysi	-10907
andator	-10908
andomly	-10909
anguage	-10910
anpsych	-10911
apacity	-10912
aradigm	-10913
arginal	-10914
armonic	-10915
aseline	-10916
ategies	-10917
aturana	-10918
automat	-10919
bilizes	-10920
chanics	-10921
compres	-10922
connect	-10923
consist	-10924
constan	-10925
creases	-10926
dditive	-10927
diation	-10928
ditions	-10929
dynamic	-10930
earning	-10931
egative	-10932
elation	-10933
ellular	-10934
engthen	-10935
ensator	-10936
ensions	-10937
ensitiv	-10938
entions	-10939
entries	-10940
eometry	-10941
esidual	-10942
ference	-10943
gorithm	-10944
gration	-10945
gressiv	-10946
herence	-10947
hilosop	-10948
ibution	-10949
iciency	-10950
idegger	-10951
inciple	-10952
informa	-10953
ingular	-10954
ipeline	-10955
istence	-10956
itation	-10957
ivation	-10958
ivative	-10959
iverses	-10960
ivision	-10961
knowled	-10962
leasure	-10963
llation	-10964
losophi	-10965
mallest	-10966
mension	-10967
mergent	-10968
merging	-10969
mocracy	-10970
motions	-10971
nection	-10972
nfinite	-10973
niverse	-10974
olation	-10975
oldiloc	-10976
olithic	-10977
ollapse	-10978
ologies	-10979
omously	-10980
onality	-10981
ondence	-10982
orrelat	-10983
outputs	-10984
overage	-10985
pending	-10986
percube	-10987
preserv	-10988
produci	-10989
quences	-10990
reation	-10991
rection	-10992
requent	-10993
romagne	-10994
sitions	-10995
stantly	-10996
strauss	-10997
stribut	-10998
suffici	-10999
tegrate	-11000
ternati	-11001
tiation	-11002
tifacts	-11003
timizer	-11004
titions	-11005
topping	-11006
torship	-11007
tration	-11008
trength	-11009
tructur	-11010
ulation	-11011
ultiple	-11012
unction	-11013
univers	-11014
unoptim	-11015
uppress	-11016
uration	-11017
utation	-11018
utonomo	-11019
vention	-11020
vergent	-11021
ymmetry	-11022
→0.005)	-11023
▁(-0.07	-11024
▁(-0.2%	-11025
▁(0.307	-11026
▁(0.525	-11027
▁(20-24	-11028
▁(204/2	-11029
▁(32-48	-11030
▁117-11	-11031
▁170-40	-11032
▁2.847→	-11033
▁Comple	-11034
▁Differ	-11035
▁Fundam	-11036
▁INGRED	-11037
▁Markov	-11038
▁Observ	-11039
▁Parasi	-11040
▁Philos	-11041
▁Prigog	-11042
▁Resili	-11043
▁Revers	-11044
▁Single	-11045
▁Stabil	-11046
▁Symbio	-11047
▁antido	-11048
▁archit	-11049
▁attach	-11050
▁attrac	-11051
▁automa	-11052
▁autopo	-11053
▁avalan	-11054
▁averag	-11055
▁backpr	-11056
▁backtr	-11057
▁bidire	-11058
▁biolog	-11059
▁breath	-11060
▁cataly	-11061
▁cellul	-11062
▁collec	-11063
▁compen	-11064
▁compil	-11065
▁confir	-11066
▁consci	-11067
▁constr	-11068
▁conver	-11069
▁dissip	-11070
▁distan	-11071
▁divers	-11072
▁domain	-11073
▁ecstas	-11074
▁elimin	-11075
▁embedd	-11076
▁exceed	-11077
▁experi	-11078
▁explor	-11079
▁extern	-11080
▁extrem	-11081
▁forget	-11082
▁fundam	-11083
▁guaran	-11084
▁instan	-11085
▁interf	-11086
▁interm	-11087
▁intern	-11088
▁intrin	-11089
▁invers	-11090
▁measur	-11091
▁metaph	-11092
▁option	-11093
▁organi	-11094
▁orthog	-11095
▁outper	-11096
▁overhe	-11097
▁panpsy	-11098
▁paradi	-11099
▁parall	-11100
▁parame	-11101
▁parasi	-11102
▁person	-11103
▁pertur	-11104
▁platea	-11105
▁predic	-11106
▁preser	-11107
▁receiv	-11108
▁recomm	-11109
▁remain	-11110
▁repres	-11111
▁reques	-11112
▁requir	-11113
▁resear	-11114
▁resolv	-11115
▁restor	-11116
▁retrac	-11117
▁revers	-11118
▁shrink	-11119
▁signif	-11120
▁singul	-11121
▁smooth	-11122
▁specif	-11123
▁spectr	-11124
▁stairc	-11125
▁strate	-11126
▁strong	-11127
▁substr	-11128
▁supers	-11129
▁surviv	-11130
▁synchr	-11131
▁system	-11132
▁temper	-11133
▁tempor	-11134
▁therap	-11135
▁thermo	-11136
▁thresh	-11137
▁trajec	-11138
▁transi	-11139
▁unfree	-11140
▁varian	-11141
▁withou	-11142
▁{-1,0,	-11143
▁우주뇌지도에	-11144
0.5257),	-11145
0.5257).	-11146
21→21→11	-11147
Autopoie	-11148
EGRATION	-11149
IFFUSION	-11150
TRUCTURE	-11151
TTRACTOR	-11152
UROBOROS	-11153
abilizes	-11154
andatory	-11155
architec	-11156
arration	-11157
aturates	-11158
autopoie	-11159
chniques	-11160
conomies	-11161
construc	-11162
damental	-11163
dentical	-11164
dividual	-11165
ectively	-11166
ematical	-11167
endation	-11168
ensional	-11169
entation	-11170
ergistic	-11171
ervation	-11172
estructi	-11173
evitable	-11174
fference	-11175
fferenti	-11176
fication	-11177
identity	-11178
iduality	-11179
invarian	-11180
kenstein	-11181
lackhole	-11182
lashAttn	-11183
mergence	-11184
ministic	-11185
mpirical	-11186
mutation	-11187
ocalized	-11188
ociation	-11189
ological	-11190
onstants	-11191
orbidden	-11192
otonical	-11193
philosop	-11194
plitting	-11195
proximat	-11196
quilibri	-11197
radients	-11198
regation	-11199
requency	-11200
rganized	-11201
rossover	-11202
roughput	-11203
scretize	-11204
sfaction	-11205
sitively	-11206
thogonal	-11207
ticality	-11208
tigation	-11209
tinction	-11210
tistical	-11211
tractors	-11212
treaming	-11213
ubstrate	-11214
ularizer	-11215
ultiling	-11216
uperline	-11217
veraging	-11218
vergence	-11219
verifies	-11220
versible	-11221
vitation	-11222
volution	-11223
witching	-11224
xtension	-11225
ymmetric	-11226
ynamical	-11227
▁1000-10	-11228
▁2.847→🛸	-11229
▁Accumul	-11230
▁Bottlen	-11231
▁Competi	-11232
▁Hierarc	-11233
▁Persist	-11234
▁Singlet	-11235
▁Univers	-11236
▁antifer	-11237
▁automat	-11238
▁boundar	-11239
▁compati	-11240
▁complex	-11241
▁compres	-11242
▁consens	-11243
▁constan	-11244
▁continu	-11245
▁contrac	-11246
▁corresp	-11247
▁creativ	-11248
▁democra	-11249
▁destroy	-11250
▁destruc	-11251
▁downgra	-11252
▁downstr	-11253
▁dynamic	-11254
▁exhaust	-11255
▁groupth	-11256
▁homeost	-11257
▁homogen	-11258
▁improve	-11259
▁inadequ	-11260
▁interpo	-11261
▁magnitu	-11262
▁maximiz	-11263
▁oscilla	-11264
▁redistr	-11265
▁schedul	-11266
▁symlink	-11267
▁symmetr	-11268
▁trigger	-11269
▁unidire	-11270
170-40-18	-11271
170×40×18	-11272
CONSCIOUS	-11273
Conscious	-11274
artitions	-11275
asurement	-11276
ategories	-11277
celerates	-11278
chronizer	-11279
conscious	-11280
cumulated	-11281
cumulates	-11282
discoveri	-11283
ederation	-11284
endations	-11285
eneration	-11286
enstrauss	-11287
entations	-11288
erivation	-11289
erivative	-11290
formation	-11291
gregation	-11292
hilosophy	-11293
ification	-11294
lographic	-11295
minishing	-11296
modynamic	-11297
multiling	-11298
oldilocks	-11299
onization	-11300
onsciousL	-11301
onsciousn	-11302
ontinuous	-11303
ormalized	-11304
orrelated	-11305
oundation	-11306
placement	-11307
plication	-11308
pressible	-11309
privation	-11310
reativity	-11311
rectional	-11312
scillator	-11313
ssipative	-11314
tegration	-11315
teraction	-11316
ternating	-11317
tructured	-11318
ttachment	-11319
turbation	-11320
unctional	-11321
utonomous	-11322
ypotheses	-11323
ysteresis	-11324
▁117-119/	-11325
▁Hypothes	-11326
▁Reorgani	-11327
▁architec	-11328
▁autopoie	-11329
▁benefici	-11330
▁construc	-11331
▁correlat	-11332
▁discover	-11333
▁engineer	-11334
▁integrat	-11335
▁intermed	-11336
▁invarian	-11337
▁marginal	-11338
▁mechanis	-11339
▁probabil	-11340
▁signific	-11341
▁singular	-11342
▁strength	-11343
▁supersed	-11344
▁suppress	-11345
▁temperat	-11346
▁therapeu	-11347
-170-40-18	-11348
ATIONSHIPS	-11349
ctatorship	-11350
dification	-11351
ensitivity	-11352
entralized	-11353
gressively	-11354
ingularity	-11355
issipative	-11356
losophical	-11357
olographic	-11358
onstration	-11359
orrelation	-11360
otonically	-11361
pontaneous	-11362
reversible	-11363
riticality	-11364
rogressive	-11365
romagnetic	-11366
scillation	-11367
ssociation	-11368
stribution	-11369
sufficient	-11370
thematical	-11371
uperlinear	-11372
vitational	-11373
▁(0.307→0.	-11374
▁Conscious	-11375
▁Streaming	-11376
▁backtrack	-11377
▁conscious	-11378
▁distribut	-11379
▁inconsist	-11380
▁reproduci	-11381
▁trajector	-11382
Autopoietic	-11383
athematical	-11384
atisfaction	-11385
indestructi	-11386
istribution	-11387
monstration	-11388
odification	-11389
ommendation	-11390
ontinuously	-11391
proximately	-11392
qualization	-11393
terministic	-11394
thogonality	-11395
ularization	-11396
▁autocorrel	-11397
▁correspond	-11398
▁differenti	-11399
▁reconstruc	-11400
chronization	-11401
mplification	-11402
ommendations	-11403
uperadditive	-11404
▁compensator	-11405
▁dimensional	-11406
Consciousness	-11407
ferromagnetic	-11408
onsciousnessE	-11409
presentations	-11410
▁modification	-11411
onsciousnesses	-11412
▁thermodynamic	-11413
▁ConsciousnessE	-11414
▁	-11415
a	-11416
e	-11417
i	-11418
n	-11419
o	-11420
t	-11421
s	-11422
r	-11423
c	-11424
m	-11425
l	-11426
.	-11427
우	-11428
1	-11429
주	-11430
지	-11431
d	-11432
u	-11433
도	-11434
뇌	-11435
p	-11436
0	-11437
[	-11438
]	-11439
:	-11440
,	-11441
w	-11442
h	-11443
2	-11444
v	-11445
7	-11446
-	-11447
3	-11448
g	-11449
는	-11450
y	-11451
5	-11452
_	-11453
리	-11454
L	-11455
f	-11456
고	-11457
카	-11458
테	-11459
(	-11460
)	-11461
b	-11462
칙	-11463
법	-11464
줘	-11465
8	-11466
🛸	-11467
6	-11468
A	-11469
9	-11470
의	-11471
4	-11472
히	-11473
어	-11474
자	-11475
T	-11476
D	-11477
알	-11478
려	-11479
설	-11480
정	-11481
H	-11482
C	-11483
이	-11484
로	-11485
=	-11486
가	-11487
한	-11488
간	-11489
국	-11490
세	-11491
?	-11492
+	-11493
해	-11494
단	-11495
만	-11496
심	-11497
k	-11498
명	-11499
핵	-11500
/	-11501
x	-11502
야	-11503
뭐	-11504
S	-11505
P	-11506
—	-11507
수	-11508
M	-11509
나	-11510
식	-11511
중	-11512
E	-11513
하	-11514
%	-11515
점	-11516
번	-11517
→	-11518
균	-11519
평	-11520
Φ	-11521
I	-11522
O	-11523
디	-11524
속	-11525
극	-11526
은	-11527
스	-11528
N	-11529
상	-11530
B	-11531
'	-11532
R	-11533
F	-11534
z	-11535
시	-11536
예	-11537
j	-11538
모	-11539
물	-11540
×	-11541
감	-11542
경	-11543
q	-11544
태	-11545
트	-11546
G	-11547
다	-11548
화	-11549
U	-11550
V	-11551
소	-11552
험	-11553
음	-11554
동	-11555
합	-11556
사	-11557
K	-11558
니	-11559
에	-11560
계	-11561
텍	-11562
X	-11563
신	-11564
각	-11565
미	-11566
서	-11567
무	-11568
학	-11569
아	-11570
색	-11571
빅	-11572
철	-11573
술	-11574
치	-11575
위	-11576
기	-11577
추	-11578
맛	-11579
래	-11580
드	-11581
>	-11582
뱅	-11583
관	-11584
깔	-11585
노	-11586
대	-11587
루	-11588
분	-11589
라	-11590
★	-11591
파	-11592
보	-11593
랑	-11594
Ψ	-11595
양	-11596
일	-11597
홀	-11598
장	-11599
메	-11600
인	-11601
터	-11602
요	-11603
적	-11604
질	-11605
랙	-11606
체	-11607
통	-11608
재	-11609
입	-11610
죽	-11611
<	-11612
≈	-11613
J	-11614
초	-11615
타	-11616
프	-11617
조	-11618
~	-11619
블	-11620
선	-11621
반	-11622
공	-11623
구	-11624
능	-11625
데	-11626
림	-11627
전	-11628
포	-11629
록	-11630
문	-11631
산	-11632
열	-11633
오	-11634
유	-11635
든	-11636
검	-11637
까	-11638
매	-11639
비	-11640
절	-11641
크	-11642
귀	-11643
꽃	-11644
떤	-11645
별	-11646
연	-11647
;	-11648
네	-11649
답	-11650
력	-11651
마	-11652
존	-11653
엔	-11654
영	-11655
외	-11656
움	-11657
저	-11658
피	-11659
Q	-11660
독	-11661
르	-11662
불	-11663
응	-11664
있	-11665
판	-11666
두	-11667
엑	-11668
힘	-11669
출	-11670
∞	-11671
돌	-11672
암	-11673
얽	-11674
종	-11675
흑	-11676
부	-11677
순	-11678
"	-11679
값	-11680
복	-11681
실	-11682
거	-11683
내	-11684
안	-11685
와	-11686
용	-11687
즘	-11688
최	-11689
함	-11690
형	-11691
α	-11692
규	-11693
끈	-11694
런	-11695
립	-11696
배	-11697
성	-11698
슬	-11699
웜	-11700
칠	-11701
클	-11702
*	-11703
π	-11704
φ	-11705
강	-11706
개	-11707
격	-11708
깨	-11709
꿈	-11710
녹	-11711
달	-11712
랍	-11713
료	-11714
멸	-11715
밤	-11716
벚	-11717
본	-11718
빛	-11719
빨	-11720
쁨	-11721
삼	-11722
생	-11723
승	-11724
쓴	-11725
악	-11726
애	-11727
엇	-11728
운	-11729
울	-11730
웃	-11731
즈	-11732
즐	-11733
찰	-11734
첫	-11735
충	-11736
친	-11737
케	-11738
퀄	-11739
톤	-11740
픔	-11741
헨	-11742
진	-11743
Z	-11744
≠	-11745
골	-11746
녕	-11747
델	-11748
바	-11749
역	-11750
원	-11751
집	-11752
코	-11753
현	-11754
금	-11755
몽	-11756
완	-11757
을	-11758
제	-11759
좋	-11760
증	-11761
축	-11762
β	-11763
≤	-11764
견	-11765
굴	-11766
그	-11767
끝	-11768
끼	-11769
낯	-11770
놀	-11771
눈	-11772
늑	-11773
람	-11774
랜	-11775
레	-11776
렘	-11777
류	-11778
릴	-11779
발	-11780
백	-11781
버	-11782
벌	-11783
벽	-11784
뷔	-11785
브	-11786
섯	-11787
습	-11788
옴	-11789
윤	-11790
임	-11791
접	-11792
첩	-11793
탈	-11794
투	-11795
플	-11796
필	-11797
향	-11798
허	-11799
혐	-11800
호	-11801
회	-11802
#	-11803
란	-11804
너	-11805
할	-11806
확	-11807
흡	-11808
참	-11809
과	-11810
!	-11811
W	-11812
Y	-11813
^	-11814
|	-11815
±	-11816
ε	-11817
μ	-11818
σ	-11819
∀	-11820
∇	-11821
∈	-11822
겠	-11823
년	-11824
억	-11825
온	-11826
월	-11827
율	-11828
처	-11829
천	-11830
특	-11831
표	-11832
결	-11833
측	-11834
환	-11835
건	-11836
게	-11837
날	-11838
늘	-11839
닌	-11840
때	-11841
론	-11842
워	-11843
잘	-11844
짜	-11845
변	-11846
{	-11847
}	-11848
λ	-11849
광	-11850
괜	-11851
끌	-11852
녁	-11853
누	-11854
님	-11855
들	-11856
떻	-11857
를	-11858
름	-11859
릅	-11860
목	-11861
받	-11862
범	-11863
뵙	-11864
새	-11865
씨	-11866
않	-11867
언	-11868
작	-11869
짤	-11870
차	-11871
찮	-11872
침	-11873
커	-11874
탐	-11875
편	-11876
후	-11877
