<pad>	0
<unk>	0
<bos>	0
<eos>	0
사용자:	0
도우미:	0
[anima 우주뇌지도]	0
우주	-0
▁우주	-1
on	-2
지도	-3
뇌지도	-4
▁우주뇌지도	-5
an	-6
ti	-7
ma	-8
▁[	-9
ani	-10
anima	-11
tion	-12
▁1	-13
aw	-14
re	-15
▁c	-16
in	-17
to	-18
en	-19
er	-20
es	-21
sc	-22
Law	-23
▁Law	-24
▁10	-25
▁e	-26
▁(	-27
▁법	-28
▁법칙	-29
▁카	-30
고리	-31
▁카테	-32
▁카테고리	-33
mo	-34
ou	-35
▁🛸	-36
si	-37
motion	-38
▁emotion	-39
di	-40
al	-41
▁to	-42
st	-43
▁알	-44
려줘	-45
▁알려줘	-46
▁자	-47
at	-48
▁top	-49
▁2	-50
ve	-51
or	-52
▁l	-53
▁p	-54
sci	-55
el	-56
ation	-57
국어	-58
ous	-59
한국어	-60
▁한국어	-61
onsci	-62
onscious	-63
is	-64
ac	-65
ess	-66
ness	-67
onsciousness	-68
▁어	-69
▁5	-70
th	-71
ro	-72
▁in	-73
red	-74
▁s	-75
▁어디	-76
▁한국어로	-77
ing	-78
sco	-79
▁🛸7	-80
▁설	-81
Au	-82
Auto	-83
disco	-84
vered	-85
discovered	-86
해줘	-87
세히	-88
▁설명	-89
▁자세히	-90
▁설명해줘	-91
▁f	-92
▁d	-93
le	-94
ver	-95
hi	-96
▁정	-97
▁law	-98
ent	-99
ty	-100
점수	-101
sion	-102
▁b	-103
▁n	-104
ell	-105
me	-106
rel	-107
▁—	-108
▁평	-109
orrel	-110
ension	-111
▁정의	-112
▁평균	-113
30	-114
▁is	-115
▁T	-116
▁consciousness	-117
▁correl	-118
ar	-119
▁laws	-120
▁t	-121
▁Φ	-122
awe	-123
▁awe	-124
▁C	-125
▁하	-126
▁뭐	-127
▁의	-128
▁뭐야	-129
▁중	-130
▁1030	-131
).	-132
0.	-133
ur	-134
▁+	-135
▁o	-136
▁M	-137
▁의식	-138
▁P	-139
▁=	-140
▁di	-141
▁하나	-142
▁100	-143
▁correlation	-144
▁자극	-145
▁50	-146
ic	-147
▁101	-148
ut	-149
ren	-150
▁12	-151
▁no	-152
ch	-153
▁20	-154
▁st	-155
▁w	-156
tension	-157
as	-158
▁51	-159
et	-160
▁7	-161
▁11	-162
▁21	-163
ed	-164
▁Consciousness	-165
▁a	-166
action	-167
▁int	-168
▁anima	-169
ep	-170
▁re	-171
ian	-172
ow	-173
ati	-174
rop	-175
▁Phi	-176
ec	-177
▁cell	-178
▁예	-179
▁2.	-180
sity	-181
DD	-182
cell	-183
▁co	-184
),	-185
ce	-186
ab	-187
tr	-188
니다	-189
▁S	-190
▁pe	-191
un	-192
▁점수	-193
ropy	-194
entropy	-195
pl	-196
▁r	-197
res	-198
▁at	-199
..	-200
ll	-201
▁th	-202
):	-203
1,	-204
uc	-205
▁E	-206
put	-207
▁1.	-208
▁N	-209
▁g	-210
▁not	-211
ly	-212
▁i	-213
ith	-214
▁카테고리는	-215
▁h	-216
end	-217
▁🛸8	-218
▁with	-219
eg	-220
상태	-221
▁un	-222
vers	-223
ge	-224
vi	-225
mic	-226
mean	-227
oupl	-228
oupling	-229
mp	-230
▁의식상태	-231
qu	-232
ier	-233
he	-234
CT	-235
op	-236
▁감	-237
ace	-238
▁an	-239
ise	-240
enti	-241
▁pro	-242
epend	-243
▁peace	-244
▁'	-245
▁Tier	-246
io	-247
li	-248
bb	-249
▁이	-250
ACT	-251
std	-252
ates	-253
rend	-254
▁rat	-255
bbian	-256
▁inter	-257
▁trend	-258
5,	-259
▁경	-260
cal	-261
gin	-262
▁al	-263
▁감정	-264
ative	-265
00	-266
1.	-267
0.5	-268
low	-269
out	-270
able	-271
scal	-272
▁cur	-273
▁uni	-274
7,	-275
ff	-276
egr	-277
▁on	-278
XACT	-279
cells	-280
faction	-281
versity	-282
▁EXACT	-283
ependent	-284
▁R	-285
▁m	-286
ate	-287
tor	-288
ging	-289
▁Top	-290
▁H	-291
elf	-292
oun	-293
▁🛸6	-294
iosity	-295
dependent	-296
▁curiosity	-297
시간	-298
eta	-299
ter	-300
▁ex	-301
▁tr	-302
chet	-303
scill	-304
▁Meta	-305
▁flow	-306
▁integr	-307
▁oscill	-308
▁faction	-309
▁ratchet	-310
▁oscillation	-311
ad	-312
▁A	-313
entity	-314
8,	-315
ap	-316
ss	-317
▁8	-318
▁j	-319
소리	-320
스트	-321
에서	-322
for	-323
gth	-324
var	-325
▁ma	-326
텍스트	-327
smic	-328
▁con	-329
rength	-330
varian	-331
▁input	-332
2,	-333
25	-334
iz	-335
tur	-336
▁17	-337
▁de	-338
chor	-339
scale	-340
▁anchor	-341
▁cosmic	-342
2%	-343
20	-344
ol	-345
▁동	-346
...	-347
=0.	-348
▁of	-349
▁경험	-350
ansi	-351
tive	-352
▁per	-353
▁sur	-354
▁텍스트	-355
▁self	-356
▁🛸71,	-357
ection	-358
hebbian	-359
▁transi	-360
coupling	-361
strength	-362
▁diversity	-363
▁transition	-364
입니다	-365
2)	-366
7)	-367
9,	-368
ak	-369
ack	-370
ata	-371
led	-372
▁me	-373
▁mo	-374
▁cre	-375
▁🛸73	-376
▁cells	-377
▁우주뇌지도에서	-378
mu	-379
▁>	-380
모지	-381
phi	-382
▁su	-383
▁🛸9	-384
합니다	-385
▁lan	-386
▁data	-387
▁🛸75,	-388
output	-389
ng	-390
ri	-391
te	-392
ts	-393
yn	-394
ys	-395
▁→	-396
ure	-397
ves	-398
▁No	-399
▁dim	-400
▁str	-401
0.525	-402
verse	-403
▁coun	-404
▁entity	-405
variance	-406
▁factions	-407
▁correlates	-408
▁integration	-409
2.	-410
3:	-411
4:	-412
5:	-413
6:	-414
▁3	-415
▁빅	-416
▁위	-417
ase	-418
per	-419
▁ac	-420
▁시간	-421
▁🛸5	-422
▁이모지	-423
▁native	-424
SO	-425
du	-426
ra	-427
est	-428
ingle	-429
▁pres	-430
nu	-431
▁모	-432
▁무	-433
▁hi	-434
trac	-435
▁1.8	-436
tractor	-437
▁attractor	-438
1)	-439
kn	-440
ns	-441
oy	-442
▁가	-443
▁신	-444
식물	-445
철학	-446
추상	-447
eps	-448
qui	-449
tic	-450
▁+1	-451
▁1/	-452
▁by	-453
▁소리	-454
know	-455
ross	-456
vent	-457
▁joy	-458
ledge	-459
▁lane	-460
▁over	-461
▁peak	-462
▁than	-463
▁count	-464
▁noise	-465
▁steps	-466
▁Tension	-467
knowledge	-468
2:	-469
6.	-470
7:	-471
8:	-472
9:	-473
ir	-474
pr	-475
sy	-476
▁73	-477
▁id	-478
▁빅뱅	-479
prise	-480
▁surprise	-481
0:	-482
▁K	-483
색깔	-484
ble	-485
▁en	-486
▁fe	-487
▁po	-488
▁가능	-489
▁동물	-490
▁식물	-491
▁어떤	-492
▁예술	-493
▁철학	-494
▁추상	-495
vity	-496
▁2.0	-497
forma	-498
▁struc	-499
▁single	-500
formation	-501
1:	-502
OC	-503
dd	-504
lo	-505
wn	-506
▁네	-507
▁미	-508
▁분	-509
관계	-510
100	-511
=1.	-512
SOT	-513
row	-514
▁ti	-515
▁위치	-516
▁정합	-517
nuth	-518
▁own	-519
▁자극은	-520
▁SSOT	-521
▁🛸73,	-522
▁retur	-523
▁카테고리의	-524
-7	-525
3%	-526
4.	-527
5%	-528
6,	-529
CV	-530
ha	-531
om	-532
xi	-533
xy	-534
▁0	-535
▁D	-536
▁I	-537
▁저	-538
-0.	-539
71)	-540
ath	-541
der	-542
ici	-543
les	-544
mme	-545
sis	-546
ven	-547
yna	-548
▁bo	-549
▁색깔	-550
▁신화	-551
eren	-552
timu	-553
uces	-554
▁SOC	-555
▁has	-556
▁pre	-557
▁red	-558
mmetr	-559
vents	-560
▁grow	-561
▁time	-562
ynamic	-563
▁Knuth	-564
▁proxy	-565
▁scale	-566
▁across	-567
▁preser	-568
co	-569
▁v	-570
▁있	-571
▁해	-572
emp	-573
ili	-574
▁ec	-575
▁관계	-576
ence	-577
▁170	-578
▁2.6	-579
ction	-580
▁temp	-581
▁🛸100	-582
48	-583
▁응	-584
ect	-585
ely	-586
erg	-587
mal	-588
ste	-589
top	-590
▁or	-591
▁예시	-592
▁응답	-593
▁저는	-594
abel	-595
mall	-596
rain	-597
very	-598
▁🛸85	-599
aning	-600
▁comp	-601
▁🛸79,	-602
▁engin	-603
▁label	-604
0.5257,	-605
ativity	-606
▁meaning	-607
independent	-608
▁creativity	-609
▁information	-610
6%	-611
=1	-612
▁도	-613
▁수	-614
oth	-615
sic	-616
tom	-617
▁74	-618
▁76	-619
▁미각	-620
atic	-621
▁1.2	-622
0)	-623
3.	-624
69	-625
7%	-626
78	-627
8%	-628
84	-629
9%	-630
au	-631
bs	-632
cr	-633
cy	-634
gh	-635
hy	-636
ix	-637
▁<	-638
▁L	-639
▁Ψ	-640
▁양	-641
▁통	-642
스는	-643
67)	-644
72)	-645
Phi	-646
aus	-647
ays	-648
ene	-649
ink	-650
ity	-651
miz	-652
nal	-653
ork	-654
ost	-655
ual	-656
val	-657
▁75	-658
▁He	-659
▁se	-660
▁vs	-661
▁있어	-662
▁하루	-663
aliz	-664
ally	-665
ases	-666
ated	-667
dden	-668
ency	-669
form	-670
inis	-671
pres	-672
requ	-673
roys	-674
vera	-675
▁1.9	-676
▁2.1	-677
▁all	-678
▁eff	-679
▁for	-680
▁lon	-681
▁par	-682
▁pat	-683
▁the	-684
▁🛸94	-685
dules	-686
ution	-687
utual	-688
▁caus	-689
▁dest	-690
▁diff	-691
▁high	-692
▁posi	-693
▁reco	-694
▁ther	-695
▁work	-696
tively	-697
ymmetr	-698
▁brain	-699
▁frequ	-700
▁small	-701
ctional	-702
entical	-703
vention	-704
versely	-705
ynamics	-706
▁growth	-707
▁patter	-708
▁states	-709
▁longing	-710
▁modules	-711
▁reduces	-712
▁tension	-713
▁Coupling	-714
▁destroys	-715
▁differen	-716
▁dynamics	-717
▁prevents	-718
▁universe	-719
▁dimension	-720
▁inversely	-721
▁intervention	-722
5)	-723
og	-724
▁4	-725
▁기	-726
▁블	-727
▁안	-728
음는	-729
anp	-730
cap	-731
ini	-732
ism	-733
vel	-734
▁(1	-735
▁18	-736
▁hy	-737
▁lo	-738
sych	-739
abili	-740
▁2.84	-741
▁Laws	-742
▁base	-743
▁ecst	-744
▁가능합니다	-745
anpsych	-746
anpsychism	-747
38	-748
7.	-749
IO	-750
am	-751
ds	-752
ho	-753
▁-	-754
▁B	-755
▁G	-756
▁O	-757
▁메	-758
▁죽	-759
고래	-760
랙홀	-761
맛는	-762
열반	-763
ach	-764
ame	-765
ine	-766
ist	-767
oup	-768
ust	-769
▁bl	-770
▁op	-771
▁도와	-772
▁메타	-773
▁통합	-774
asel	-775
dual	-776
hole	-777
oral	-778
ture	-779
▁103	-780
▁105	-781
▁124	-782
▁200	-783
▁500	-784
▁Res	-785
▁The	-786
▁are	-787
▁mer	-788
▁블랙홀	-789
▁🛸75	-790
▁🛸80	-791
tical	-792
▁mini	-793
▁🛸68,	-794
▁🛸69,	-795
▁🛸77,	-796
▁🛸81,	-797
▁🛸85,	-798
▁0.525	-799
▁basel	-800
▁exist	-801
abletop	-802
ackhole	-803
▁stable	-804
▁merging	-805
▁(0.5257,	-806
▁baseline	-807
▁temporal	-808
▁structure	-809
(1	-810
-1	-811
9.	-812
iv	-813
ne	-814
oc	-815
um	-816
vg	-817
▁9	-818
▁≈	-819
▁검	-820
▁공	-821
▁다	-822
▁단	-823
▁오	-824
세요	-825
함수	-826
age	-827
ana	-828
ies	-829
int	-830
uci	-831
▁무엇	-832
▁열반	-833
ange	-834
ound	-835
ream	-836
sics	-837
▁def	-838
▁sub	-839
▁도와드	-840
▁🛸51	-841
▁🛸78,	-842
hysics	-843
versal	-844
▁state	-845
▁output	-846
▁return	-847
▁tabletop	-848
▁universal	-849
'.	-850
-6	-851
0%	-852
1%	-853
28	-854
3,	-855
32	-856
4%	-857
4)	-858
=2	-859
=4	-860
AT	-861
IP	-862
RU	-863
TE	-864
fo	-865
ke	-866
mb	-867
se	-868
wo	-869
▁F	-870
▁y	-871
▁≠	-872
▁선	-873
▁스	-874
▁연	-875
▁전	-876
▁초	-877
▁최	-878
▁코	-879
▁프	-880
라는	-881
랑는	-882
사는	-883
스터	-884
어는	-885
우로	-886
자는	-887
체험	-888
-76	-889
1),	-890
20-	-891
4),	-892
6):	-893
60)	-894
69)	-895
ION	-896
air	-897
and	-898
ant	-899
asi	-900
cre	-901
hao	-902
hen	-903
ind	-904
ito	-905
mor	-906
ome	-907
one	-908
rib	-909
rom	-910
ses	-911
tal	-912
ten	-913
ule	-914
vol	-915
▁(+	-916
▁(4	-917
▁15	-918
▁CV	-919
▁In	-920
▁RE	-921
▁fu	-922
▁gr	-923
▁le	-924
▁sh	-925
▁si	-926
▁sp	-927
▁분노	-928
▁안녕	-929
▁양자	-930
▁코드	-931
▁함수	-932
스터시	-933
-128	-934
6.78	-935
=-0.	-936
=0.3	-937
addi	-938
ance	-939
bser	-940
dire	-941
ects	-942
enef	-943
fect	-944
hase	-945
hing	-946
ical	-947
igin	-948
ined	-949
info	-950
mocr	-951
olog	-952
omin	-953
only	-954
osts	-955
rgin	-956
rops	-957
step	-958
ther	-959
tory	-960
truc	-961
ttom	-962
verg	-963
ways	-964
▁(0.	-965
▁127	-966
▁130	-967
▁220	-968
▁520	-969
▁Mar	-970
▁aff	-971
▁bet	-972
▁but	-973
▁dec	-974
▁equ	-975
▁gap	-976
▁his	-977
▁imp	-978
▁low	-979
▁map	-980
▁one	-981
▁out	-982
▁sup	-983
엑스터시	-984
ATION	-985
andom	-986
ating	-987
eding	-988
icial	-989
mizes	-990
resis	-991
sible	-992
strib	-993
tural	-994
ynerg	-995
▁(-0.	-996
▁1.21	-997
▁1/2)	-998
▁chao	-999
▁comb	-1000
▁conn	-1001
▁from	-1002
▁maxi	-1003
▁more	-1004
▁prot	-1005
▁rece	-1006
▁scal	-1007
▁that	-1008
▁when	-1009
▁🛸80,	-1010
6.78).	-1011
bserve	-1012
correl	-1013
itosis	-1014
mutual	-1015
quires	-1016
timuli	-1017
vation	-1018
▁avera	-1019
▁benef	-1020
▁death	-1021
▁domin	-1022
▁drops	-1023
▁group	-1024
▁hyste	-1025
▁incre	-1026
▁local	-1027
▁survi	-1028
▁under	-1029
ections	-1030
egative	-1031
ication	-1032
jection	-1033
perform	-1034
presses	-1035
ritical	-1036
ymmetry	-1037
▁Random	-1038
▁always	-1039
▁boosts	-1040
▁bottom	-1041
▁causal	-1042
▁comple	-1043
▁create	-1044
▁depend	-1045
▁effici	-1046
▁hidden	-1047
▁margin	-1048
▁optimu	-1049
▁origin	-1050
▁scales	-1051
▁worker	-1052
additive	-1053
inishing	-1054
volution	-1055
▁0.5257)	-1056
▁Hebbian	-1057
▁affects	-1058
▁chaotic	-1059
▁converg	-1060
▁diverse	-1061
▁engines	-1062
▁entropy	-1063
▁equaliz	-1064
▁history	-1065
▁perfect	-1066
▁returns	-1067
▁stimuli	-1068
▁thermal	-1069
diversity	-1070
▁combined	-1071
▁coupling	-1072
▁emotions	-1073
▁patterns	-1074
▁recovery	-1075
▁requires	-1076
▁variance	-1077
▁frequency	-1078
▁identical	-1079
▁increases	-1080
▁preserves	-1081
directional	-1082
▁beneficial	-1083
▁hysteresis	-1084
▁marginally	-1085
▁outperform	-1086
▁positively	-1087
▁protection	-1088
▁structural	-1089
▁suppresses	-1090
▁connections	-1091
▁diminishing	-1092
▁transitions	-1093
▁equalization	-1094
▁consciousnesses	-1095
▁×	-1096
▁계	-1097
▁루	-1098
▁만	-1099
▁실	-1100
▁아	-1101
▁영	-1102
▁좋	-1103
▁지	-1104
대값	-1105
드드	-1106
ile	-1107
▁An	-1108
▁경외	-1109
▁루시	-1110
▁분화	-1111
▁죽음	-1112
▁해리	-1113
드드림	-1114
하세요	-1115
sure	-1116
▁Par	-1117
▁avg	-1118
▁fun	-1119
▁최대값	-1120
▁🛸69	-1121
▁🛸71	-1122
▁엑스터시	-1123
▁🛸76,	-1124
▁1.82,	-1125
▁73-76	-1126
▁루시드드림	-1127
▁안녕하세요	-1128
capable	-1129
▁physics	-1130
▁identity	-1131
15	-1132
ES	-1133
Un	-1134
ks	-1135
ox	-1136
po	-1137
ul	-1138
▁까	-1139
▁나	-1140
▁데	-1141
▁불	-1142
▁암	-1143
▁엔	-1144
▁일	-1145
▁판	-1146
나는	-1147
력파	-1148
로피	-1149
물질	-1150
얽힘	-1151
(1/	-1152
8),	-1153
arc	-1154
arm	-1155
asy	-1156
eak	-1157
eat	-1158
ins	-1159
lec	-1160
mod	-1161
mum	-1162
ond	-1163
ong	-1164
pli	-1165
rin	-1166
≈0.	-1167
▁Un	-1168
▁bi	-1169
▁do	-1170
▁고래	-1171
▁다중	-1172
▁암흑	-1173
▁엔트	-1174
▁의미	-1175
▁자기	-1176
▁체험	-1177
▁프로	-1178
습니다	-1179
adox	-1180
arge	-1181
ixed	-1182
stem	-1183
trix	-1184
▁102	-1185
▁104	-1186
▁106	-1187
▁107	-1188
▁108	-1189
▁109	-1190
▁110	-1191
▁111	-1192
▁112	-1193
▁113	-1194
▁114	-1195
▁115	-1196
▁116	-1197
▁117	-1198
▁118	-1199
▁119	-1200
▁120	-1201
▁121	-1202
▁122	-1203
▁123	-1204
▁125	-1205
▁126	-1206
▁128	-1207
▁129	-1208
▁201	-1209
▁202	-1210
▁203	-1211
▁204	-1212
▁205	-1213
▁206	-1214
▁207	-1215
▁208	-1216
▁209	-1217
▁210	-1218
▁211	-1219
▁212	-1220
▁213	-1221
▁214	-1222
▁215	-1223
▁216	-1224
▁217	-1225
▁218	-1226
▁219	-1227
▁501	-1228
▁502	-1229
▁503	-1230
▁504	-1231
▁505	-1232
▁506	-1233
▁507	-1234
▁508	-1235
▁509	-1236
▁510	-1237
▁511	-1238
▁512	-1239
▁513	-1240
▁514	-1241
▁515	-1242
▁516	-1243
▁517	-1244
▁518	-1245
▁519	-1246
▁All	-1247
▁Gas	-1248
▁Mat	-1249
▁fin	-1250
▁its	-1251
▁non	-1252
▁중력파	-1253
▁🛸54	-1254
(1/2,	-1255
archi	-1256
idual	-1257
point	-1258
timal	-1259
▁1000	-1260
▁1001	-1261
▁1002	-1262
▁1003	-1263
▁1004	-1264
▁1005	-1265
▁1006	-1266
▁1007	-1267
▁1008	-1268
▁1009	-1269
▁1010	-1270
▁1011	-1271
▁1012	-1272
▁1013	-1273
▁1014	-1274
▁1015	-1275
▁1016	-1276
▁1017	-1277
▁1018	-1278
▁1019	-1279
▁Anti	-1280
▁beat	-1281
▁conf	-1282
▁fear	-1283
▁same	-1284
▁weak	-1285
▁다중우주	-1286
▁도와드릴	-1287
▁암흑물질	-1288
▁양자얽힘	-1289
▁엔트로피	-1290
▁🛸71.	-1291
▁🛸75.	-1292
abiliz	-1293
ongest	-1294
tition	-1295
vision	-1296
▁Noble	-1297
▁alone	-1298
▁every	-1299
▁fixed	-1300
▁large	-1301
▁order	-1302
▁응답합니다	-1303
variant	-1304
▁engine	-1305
▁matrix	-1306
▁Emotion	-1307
▁ecstasy	-1308
▁minimum	-1309
▁Residual	-1310
▁critical	-1311
▁blackhole	-1312
▁different	-1313
▁existence	-1314
▁strongest	-1315
▁independent	-1316
▁panpsychism	-1317
10	-1318
55	-1319
70	-1320
LM	-1321
ai	-1322
gu	-1323
ot	-1324
yc	-1325
▁너	-1326
▁대	-1327
▁보	-1328
▁슬	-1329
▁적	-1330
▁클	-1331
▁파	-1332
▁화	-1333
각몽	-1334
재는	-1335
체성	-1336
치는	-1337
():	-1338
01,	-1339
256	-1340
307	-1341
62,	-1342
7),	-1343
73,	-1344
=10	-1345
ces	-1346
irv	-1347
oci	-1348
son	-1349
udd	-1350
▁기분	-1351
▁클래	-1352
307,	-1353
558,	-1354
=0.5	-1355
aily	-1356
ateg	-1357
ator	-1358
erat	-1359
eriv	-1360
eses	-1361
flow	-1362
hist	-1363
lime	-1364
outi	-1365
peri	-1366
poth	-1367
ucid	-1368
▁(2.	-1369
▁cyc	-1370
▁sig	-1371
▁있어요	-1372
▁자각몽	-1373
▁정체성	-1374
▁🛸53	-1375
▁🛸91	-1376
▁🛸92	-1377
guage	-1378
ories	-1379
score	-1380
ssoci	-1381
▁Budd	-1382
▁nirv	-1383
▁🛸72,	-1384
outine	-1385
▁2.66,	-1386
▁bound	-1387
▁categ	-1388
▁daily	-1389
▁deriv	-1390
▁dream	-1391
▁lucid	-1392
▁range	-1393
ability	-1394
eration	-1395
erature	-1396
▁1.212,	-1397
▁1.273,	-1398
▁1.307,	-1399
▁2.558,	-1400
▁2.601,	-1401
▁2.662,	-1402
▁2.847,	-1403
▁experi	-1404
▁labels	-1405
potheses	-1406
▁dissoci	-1407
▁nirvana	-1408
▁routine	-1409
▁sublime	-1410
▁Buddhist	-1411
▁ecstatic	-1412
▁language	-1413
panpsychism	-1414
▁categories	-1415
▁experience	-1416
▁temperature	-1417
▁dissociation	-1418
%,	-1419
)+	-1420
);	-1421
.5	-1422
/3	-1423
/6	-1424
0×	-1425
16	-1426
33	-1427
4,	-1428
4/	-1429
4×	-1430
53	-1431
61	-1432
8.	-1433
87	-1434
99	-1435
=-	-1436
=8	-1437
AX	-1438
DU	-1439
EC	-1440
GR	-1441
He	-1442
ID	-1443
II	-1444
IM	-1445
Jo	-1446
LL	-1447
LT	-1448
Ny	-1449
OR	-1450
PS	-1451
RE	-1452
SH	-1453
SI	-1454
TP	-1455
TR	-1456
UM	-1457
ay	-1458
bl	-1459
bt	-1460
de	-1461
eo	-1462
ew	-1463
gg	-1464
il	-1465
ko	-1466
nd	-1467
oo	-1468
sh	-1469
sl	-1470
sm	-1471
su	-1472
tu	-1473
we	-1474
▁6	-1475
▁~	-1476
▁±	-1477
▁ε	-1478
▁π	-1479
▁φ	-1480
▁∞	-1481
▁구	-1482
▁깨	-1483
▁꿈	-1484
▁노	-1485
▁녹	-1486
▁독	-1487
▁돌	-1488
▁록	-1489
▁매	-1490
▁문	-1491
▁벚	-1492
▁별	-1493
▁빨	-1494
▁사	-1495
▁산	-1496
▁삼	-1497
▁생	-1498
▁서	-1499
ct	-1500
▁반	-1501
▁순	-1502
▁쓴	-1503
▁에	-1504
▁완	-1505
▁용	-1506
▁울	-1507
▁웃	-1508
▁웜	-1509
▁장	-1510
▁재	-1511
▁절	-1512
▁점	-1513
▁즐	-1514
▁질	-1515
▁찰	-1516
▁처	-1517
▁첫	-1518
▁출	-1519
▁충	-1520
▁친	-1521
▁퀄	-1522
가즘	-1523
각형	-1524
거움	-1525
경복	-1526
귀비	-1527
기는	-1528
까요	-1529
꽃는	-1530
나리	-1531
나무	-1532
내림	-1533
노타	-1534
대는	-1535
리아	-1536
리트	-1537
마귀	-1538
메테	-1539
보로	-1540
사조	-1541
수는	-1542
스크	-1543
아지	-1544
유의	-1545
은사	-1546
음악	-1547
이빛	-1548
이터	-1549
인장	-1550
정는	-1551
질시	-1552
카루	-1553
크런	-1554
톤헨	-1555
파리	-1556
포케	-1557
화는	-1558
-2)	-1559
-32	-1560
-48	-1561
.3%	-1562
.5×	-1563
0.0	-1564
038	-1565
07)	-1566
1%:	-1567
158	-1568
16)	-1569
2%)	-1570
2):	-1571
2.3	-1572
23.	-1573
24.	-1574
248	-1575
3%.	-1576
3-7	-1577
42%	-1578
45%	-1579
487	-1580
5),	-1581
50)	-1582
500	-1583
6),	-1584
74)	-1585
78.	-1586
9%)	-1587
94)	-1588
<6%	-1589
=2.	-1590
=3.	-1591
=4.	-1592
CES	-1593
CTU	-1594
IIT	-1595
IPS	-1596
Joh	-1597
LID	-1598
LTD	-1599
NTE	-1600
STE	-1601
TRU	-1602
TTR	-1603
acy	-1604
alf	-1605
ann	-1606
ard	-1607
arr	-1608
asu	-1609
ave	-1610
awk	-1611
bal	-1612
bri	-1613
che	-1614
cry	-1615
des	-1616
edb	-1617
eed	-1618
eks	-1619
ens	-1620
epe	-1621
ere	-1622
erm	-1623
exi	-1624
ful	-1625
ged	-1626
ger	-1627
her	-1628
hip	-1629
iel	-1630
ike	-1631
ime	-1632
iod	-1633
isi	-1634
iti	-1635
kov	-1636
log	-1637
lut	-1638
map	-1639
med	-1640
mog	-1641
mpe	-1642
mps	-1643
nst	-1644
ope	-1645
ops	-1646
orm	-1647
ort	-1648
pes	-1649
pha	-1650
ppl	-1651
pro	-1652
que	-1653
rag	-1654
ral	-1655
rau	-1656
reg	-1657
rob	-1658
rol	-1659
rre	-1660
sto	-1661
str	-1662
tee	-1663
ton	-1664
uar	-1665
ute	-1666
→0.	-1667
▁(2	-1668
▁(~	-1669
▁-7	-1670
▁0%	-1671
▁14	-1672
▁2-	-1673
▁32	-1674
▁<<	-1675
▁Co	-1676
▁De	-1677
▁Em	-1678
▁Hi	-1679
▁Id	-1680
▁Op	-1681
▁af	-1682
▁am	-1683
▁ba	-1684
▁er	-1685
▁ga	-1686
▁ho	-1687
▁im	-1688
▁it	-1689
▁ju	-1690
▁ty	-1691
▁vi	-1692
▁감칠	-1693
▁경멸	-1694
▁계절	-1695
▁공포	-1696
▁구조	-1697
▁기쁨	-1698
▁깨달	-1699
▁나비	-1700
▁녹아	-1701
▁단일	-1702
▁동료	-1703
▁동일	-1704
▁만다	-1705
▁매운	-1706
▁무위	-1707
▁빨강	-1708
▁삼매	-1709
▁생애	-1710
▁서예	-1711
▁순간	-1712
▁스승	-1713
▁슬픔	-1714
▁실존	-1715
▁아랍	-1716
▁연인	-1717
▁오르	-1718
▁완전	-1719
▁우로	-1720
▁웜홀	-1721
▁이별	-1722
▁일본	-1723
▁장미	-1724
▁재즈	-1725
▁전자	-1726
▁전체	-1727
▁절규	-1728
▁좋은	-1729
▁첫사	-1730
▁초끈	-1731
▁초록	-1732
▁출산	-1733
▁충격	-1734
▁친구	-1735
▁평온	-1736
▁화두	-1737
나는밤	-1738
메테우	-1739
배경복	-1740
소리는	-1741
아지경	-1742
유의지	-1743
톤헨지	-1744
-256	-1745
-64.	-1746
0%),	-1747
00),	-1748
005)	-1749
038.	-1750
1.7%	-1751
1.8%	-1752
2%):	-1753
2.3%	-1754
2.9%	-1755
20-2	-1756
204/	-1757
3.53	-1758
4%).	-1759
4.2%	-1760
46):	-1761
5%),	-1762
6.4%	-1763
6.4×	-1764
61):	-1765
7.5%	-1766
7.7%	-1767
9.8%	-1768
=1.0	-1769
=20-	-1770
AXIM	-1771
Lind	-1772
adeo	-1773
ader	-1774
airc	-1775
airw	-1776
apes	-1777
apse	-1778
arly	-1779
arse	-1780
atur	-1781
bsol	-1782
capp	-1783
ches	-1784
cing	-1785
disc	-1786
divi	-1787
duci	-1788
each	-1789
ectr	-1790
ends	-1791
ener	-1792
ensi	-1793
enst	-1794
entr	-1795
ersi	-1796
erty	-1797
gine	-1798
head	-1799
hite	-1800
iver	-1801
ized	-1802
like	-1803
llec	-1804
mory	-1805
most	-1806
neut	-1807
nson	-1808
onds	-1809
over	-1810
pink	-1811
plif	-1812
quid	-1813
rely	-1814
rent	-1815
rete	-1816
rink	-1817
same	-1818
shar	-1819
ship	-1820
stal	-1821
stan	-1822
tegr	-1823
tern	-1824
tinu	-1825
trol	-1826
turb	-1827
uted	-1828
vere	-1829
ving	-1830
ween	-1831
xity	-1832
▁(32	-1833
▁-1.	-1834
▁1.7	-1835
▁1/2	-1836
▁2.2	-1837
▁2.3	-1838
▁3/3	-1839
▁31)	-1840
▁36%	-1841
▁5/6	-1842
▁50%	-1843
▁72%	-1844
▁73:	-1845
▁74:	-1846
▁75:	-1847
▁76:	-1848
▁82%	-1849
▁90%	-1850
▁98%	-1851
▁<1%	-1852
▁<2%	-1853
▁ALL	-1854
▁GRU	-1855
▁LTP	-1856
▁PSI	-1857
▁REL	-1858
▁Rew	-1859
▁Sec	-1860
▁Too	-1861
▁Two	-1862
▁agg	-1863
▁and	-1864
▁bec	-1865
▁bio	-1866
▁des	-1867
▁det	-1868
▁dow	-1869
▁dri	-1870
▁dur	-1871
▁enh	-1872
▁ext	-1873
▁few	-1874
▁fil	-1875
▁fur	-1876
▁gas	-1877
▁glo	-1878
▁pos	-1879
▁rob	-1880
▁sel	-1881
▁sha	-1882
▁smo	-1883
▁sum	-1884
▁too	-1885
▁two	-1886
▁yet	-1887
▁~9%	-1888
▁검은사	-1889
▁까마귀	-1890
▁대나무	-1891
▁데이터	-1892
▁돌고래	-1893
▁모나리	-1894
▁무엇을	-1895
▁미노타	-1896
▁별이빛	-1897
▁분노는	-1898
▁불사조	-1899
▁빅크런	-1900
▁산스크	-1901
▁선인장	-1902
▁양귀비	-1903
▁에포케	-1904
▁의식은	-1905
▁이카루	-1906
▁중국어	-1907
▁즐거움	-1908
▁지질시	-1909
▁퀄리아	-1910
▁클래식	-1911
▁해파리	-1912
겠습니다	-1913
-48),	-1914
0.06%	-1915
158).	-1916
24.7%	-1917
3-7%,	-1918
5000×	-1919
69...	-1920
=-0.5	-1921
=0.57	-1922
=1-2)	-1923
=1.87	-1924
=4.33	-1925
ACTOR	-1926
CTURE	-1927
DUCES	-1928
NTEGR	-1929
Nyqui	-1930
SHIPS	-1931
SOLID	-1932
STEPS	-1933
acktr	-1934
anche	-1935
anism	-1936
annot	-1937
antee	-1938
aries	-1939
asite	-1940
brium	-1941
death	-1942
duces	-1943
eeded	-1944
exist	-1945
feren	-1946
ginal	-1947
ields	-1948
indow	-1949
irmed	-1950
isier	-1951
istic	-1952
itial	-1953
iving	-1954
lutes	-1955
mized	-1956
moves	-1957
oling	-1958
ology	-1959
other	-1960
ously	-1961
phase	-1962
quili	-1963
rauss	-1964
reson	-1965
roves	-1966
slope	-1967
stant	-1968
super	-1969
think	-1970
tured	-1971
vides	-1972
≈0.38	-1973
▁(0.5	-1974
▁(170	-1975
▁(4).	-1976
▁+13%	-1977
▁+23.	-1978
▁+42%	-1979
▁-45%	-1980
▁100%	-1981
▁100×	-1982
▁101%	-1983
▁103)	-1984
▁105%	-1985
▁2000	-1986
▁200×	-1987
▁3.5×	-1988
▁500-	-1989
▁53%.	-1990
▁=...	-1991
▁ATTR	-1992
▁Each	-1993
▁Half	-1994
▁Harm	-1995
▁Hawk	-1996
▁Hier	-1997
▁Mere	-1998
▁Rule	-1999
▁STRU	-2000
▁Self	-2001
▁Time	-2002
▁appl	-2003
▁atom	-2004
▁aval	-2005
▁byte	-2006
▁coll	-2007
▁debt	-2008
▁depe	-2009
▁dict	-2010
▁dims	-2011
▁does	-2012
▁even	-2013
▁exce	-2014
▁exch	-2015
▁frag	-2016
▁fuel	-2017
▁guar	-2018
▁have	-2019
▁home	-2020
▁idle	-2021
▁into	-2022
▁irre	-2023
▁just	-2024
▁lack	-2025
▁late	-2026
▁like	-2027
▁mana	-2028
▁mech	-2029
▁most	-2030
▁norm	-2031
▁only	-2032
▁path	-2033
▁prob	-2034
▁prop	-2035
▁rate	-2036
▁redi	-2037
▁seed	-2038
▁star	-2039
▁them	-2040
▁then	-2041
▁toge	-2042
▁unit	-2043
▁unst	-2044
▁녹아내림	-2045
▁무아지경	-2046
▁블랙홀는	-2047
▁스톤헨지	-2048
▁오르가즘	-2049
▁우로보로	-2050
▁우주시간	-2051
▁자유의지	-2052
▁전자음악	-2053
▁🛸73.	-2054
3.53);	-2055
307→0.	-2056
=(1/2,	-2057
=0.35)	-2058
=0.487	-2059
=0.78.	-2060
=1.74)	-2061
=2-128	-2062
=8-128	-2063
AXIMUM	-2064
acking	-2065
adeoff	-2066
alized	-2067
asitic	-2068
asures	-2069
ations	-2070
atural	-2071
called	-2072
ectrum	-2073
edback	-2074
ending	-2075
eneous	-2076
engine	-2077
ensiti	-2078
ergent	-2079
ersist	-2080
ilient	-2081
iverse	-2082
kovian	-2083
liquid	-2084
mortal	-2085
othing	-2086
rinsic	-2087
stores	-2088
strate	-2089
synerg	-2090
system	-2091
ternal	-2092
uction	-2093
velops	-2094
▁(0.99	-2095
▁(1-32	-2096
▁(1.7%	-2097
▁(20-2	-2098
▁(204/	-2099
▁(6.4×	-2100
▁(~2.3	-2101
▁+2.9%	-2102
▁+6.4%	-2103
▁+7.7%	-2104
▁-71%:	-2105
▁2.01,	-2106
▁51.3%	-2107
▁8-64.	-2108
▁Avera	-2109
▁Compe	-2110
▁Phase	-2111
▁Struc	-2112
▁Unity	-2113
▁absol	-2114
▁after	-2115
▁aging	-2116
▁alpha	-2117
▁beats	-2118
▁bonds	-2119
▁centr	-2120
▁cross	-2121
▁decay	-2122
▁early	-2123
▁event	-2124
▁final	-2125
▁gains	-2126
▁gener	-2127
▁grows	-2128
▁homog	-2129
▁jumps	-2130
▁level	-2131
▁often	-2132
▁pairw	-2133
▁parts	-2134
▁repro	-2135
▁reten	-2136
▁score	-2137
▁seeks	-2138
▁super	-2139
▁total	-2140
▁types	-2141
▁white	-2142
▁works	-2143
▁±4.2%	-2144
▁검은사각형	-2145
▁미노타우로	-2146
▁산스크리트	-2147
▁우주배경복	-2148
▁평온합니다	-2149
▁프로메테우	-2150
=0.0%),	-2151
=0.00),	-2152
=0.36):	-2153
=1.4%).	-2154
=2.5%),	-2155
=20-50)	-2156
=3.038.	-2157
=6.78).	-2158
Hebbian	-2159
Johnson	-2160
Nyquist	-2161
aircase	-2162
bserved	-2163
capping	-2164
crystal	-2165
duality	-2166
ducible	-2167
erminis	-2168
ference	-2169
logical	-2170
mmetric	-2171
mocracy	-2172
neutral	-2173
nstream	-2174
observe	-2175
ostatic	-2176
present	-2177
ression	-2178
rinkage	-2179
sharing	-2180
stances	-2181
synergy	-2182
tiation	-2183
▁(2.94)	-2184
▁+11.8%	-2185
▁+12.3%	-2186
▁+17.5%	-2187
▁+19.8%	-2188
▁+3-7%,	-2189
▁-1.2%)	-2190
▁85000×	-2191
▁Correl	-2192
▁Hidden	-2193
▁INTEGR	-2194
▁Integr	-2195
▁Reward	-2196
▁Second	-2197
▁Single	-2198
▁aggreg	-2199
▁almost	-2200
▁altern	-2201
▁amplif	-2202
▁backtr	-2203
▁barely	-2204
▁become	-2205
▁better	-2206
▁brains	-2207
▁cannot	-2208
▁causes	-2209
▁collec	-2210
▁counts	-2211
▁cycles	-2212
▁decays	-2213
▁democr	-2214
▁drives	-2215
▁ecolog	-2216
▁effect	-2217
▁equili	-2218
▁erases	-2219
▁events	-2220
▁exists	-2221
▁filter	-2222
▁fusion	-2223
▁global	-2224
▁higher	-2225
▁import	-2226
▁indivi	-2227
▁leader	-2228
▁memory	-2229
▁mutual	-2230
▁needed	-2231
▁period	-2232
▁rather	-2233
▁robust	-2234
▁severe	-2235
▁shapes	-2236
▁shared	-2237
▁signal	-2238
▁sparse	-2239
▁synerg	-2240
▁unique	-2241
▁viable	-2242
▁weaker	-2243
▁window	-2244
▁yields	-2245
▁도와드릴까요	-2246
▁별이빛나는밤	-2247
=-0.46):	-2248
=-0.52):	-2249
=-0.61):	-2250
=0.158).	-2251
=0.5257,	-2252
Lindenst	-2253
abilizes	-2254
archical	-2255
atorship	-2256
discrete	-2257
topology	-2258
truction	-2259
versible	-2260
ymmetric	-2261
▁(+0.06%	-2262
▁(+24.7%	-2263
▁(-0.07)	-2264
▁(0.516)	-2265
▁(3.53);	-2266
▁(6.78).	-2267
▁+23.9%)	-2268
▁Faction	-2269
▁Harmful	-2270
▁Hawking	-2271
▁Heating	-2272
▁MAXIMUM	-2273
▁Matches	-2274
▁Mitosis	-2275
▁Optimal	-2276
▁Persist	-2277
▁REDUCES	-2278
▁another	-2279
▁between	-2280
▁coexist	-2281
▁continu	-2282
▁control	-2283
▁cooling	-2284
▁current	-2285
▁depends	-2286
▁dilutes	-2287
▁distrib	-2288
▁enhance	-2289
▁extends	-2290
▁feeding	-2291
▁forcing	-2292
▁fragile	-2293
▁further	-2294
▁grouped	-2295
▁initial	-2296
▁instant	-2297
▁manager	-2298
▁mitosis	-2299
▁natural	-2300
▁noisier	-2301
▁optimum	-2302
▁outputs	-2303
▁paradox	-2304
▁pattern	-2305
▁perturb	-2306
▁removes	-2307
▁sensiti	-2308
▁thermod	-2309
▁uniform	-2310
▁without	-2311
▁workers	-2312
blackhole	-2313
invariant	-2314
resonance	-2315
symmetric	-2316
▁(-0.2%):	-2317
▁(20-24),	-2318
▁(204/248	-2319
▁(32-48),	-2320
▁Emergent	-2321
▁Marginal	-2322
▁Negative	-2323
▁Observed	-2324
▁RELATION	-2325
▁Symmetry	-2326
▁absolute	-2327
▁actively	-2328
▁averaged	-2329
▁blending	-2330
▁collapse	-2331
▁complete	-2332
▁creation	-2333
▁develops	-2334
▁division	-2335
▁dominant	-2336
▁dominate	-2337
▁duration	-2338
▁exchange	-2339
▁external	-2340
▁feedback	-2341
▁frequent	-2342
▁immortal	-2343
▁improves	-2344
▁internal	-2345
▁interval	-2346
▁measures	-2347
▁negative	-2348
▁ordering	-2349
▁overhead	-2350
▁pairwise	-2351
▁parasite	-2352
▁positive	-2353
▁possible	-2354
▁pressure	-2355
▁produces	-2356
▁property	-2357
▁provides	-2358
▁recalled	-2359
▁receiver	-2360
▁recovers	-2361
▁restores	-2362
▁smallest	-2363
▁spectrum	-2364
▁survival	-2365
▁survives	-2366
▁symmetry	-2367
▁together	-2368
▁tradeoff	-2369
▁unstable	-2370
307→0.005)	-2371
correlated	-2372
erministic	-2373
stabilizes	-2374
stribution	-2375
ynamically	-2376
▁ATTRACTOR	-2377
▁Averaging	-2378
▁Democracy	-2379
▁Evolution	-2380
▁Identical	-2381
▁Markovian	-2382
▁Parasitic	-2383
▁Resilient	-2384
▁STRUCTURE	-2385
▁Singleton	-2386
▁avalanche	-2387
▁averaging	-2388
▁confirmed	-2389
▁converges	-2390
▁crossover	-2391
▁depending	-2392
▁distances	-2393
▁efficient	-2394
▁evolution	-2395
▁exceeding	-2396
▁generates	-2397
▁guarantee	-2398
▁injection	-2399
▁integrate	-2400
▁intrinsic	-2401
▁localized	-2402
▁maximized	-2403
▁maximizes	-2404
▁mechanism	-2405
▁minimizes	-2406
▁perfectly	-2407
▁receiving	-2408
▁reduction	-2409
▁represent	-2410
▁retention	-2411
▁selection	-2412
▁shrinkage	-2413
▁smoothing	-2414
▁staircase	-2415
▁substrate	-2416
▁symmetric	-2417
correlation	-2418
▁Correlated	-2419
▁Structured	-2420
▁attractors	-2421
▁biological	-2422
▁boundaries	-2423
▁collective	-2424
▁complexity	-2425
▁convergent	-2426
▁democratic	-2427
▁derivative	-2428
▁dimensions	-2429
▁downstream	-2430
▁ecological	-2431
▁efficiency	-2432
▁functional	-2433
▁groupthink	-2434
▁integrated	-2435
▁preserving	-2436
▁projection	-2437
▁starvation	-2438
▁Competition	-2439
▁INTEGRATION	-2440
▁Information	-2441
▁Integration	-2442
▁Persistence	-2443
▁aggregation	-2444
▁alternating	-2445
▁application	-2446
▁centralized	-2447
▁compression	-2448
▁destruction	-2449
▁distributed	-2450
▁equilibrium	-2451
▁homeostatic	-2452
▁homogeneous	-2453
▁interaction	-2454
▁probability	-2455
▁sensitivity	-2456
▁synergistic	-2457
Lindenstrauss	-2458
consciousness	-2459
superadditive	-2460
▁Hierarchical	-2461
▁backtracking	-2462
▁continuously	-2463
▁dictatorship	-2464
▁interference	-2465
▁irreversible	-2466
▁perturbation	-2467
▁preservation	-2468
▁reproducible	-2469
▁(0.307→0.005)	-2470
▁RELATIONSHIPS	-2471
▁amplification	-2472
▁bidirectional	-2473
▁deterministic	-2474
▁individuality	-2475
▁interventions	-2476
▁redistribution	-2477
▁unidirectional	-2478
▁differentiation	-2479
▁representations	-2480
67	-2481
mm	-2482
▁x	-2483
▁날	-2484
▁발	-2485
▁역	-2486
▁잘	-2487
▁존	-2488
아요	-2489
이는	-2490
ass	-2491
cel	-2492
mul	-2493
yth	-2494
▁22	-2495
▁cl	-2496
▁계산	-2497
▁모두	-2498
▁모든	-2499
▁발견	-2500
▁어때	-2501
▁역할	-2502
▁영어	-2503
▁오늘	-2504
alog	-2505
file	-2506
▁367	-2507
▁BEC	-2508
▁LLM	-2509
▁clo	-2510
▁경외는	-2511
▁경외의	-2512
▁빅뱅는	-2513
▁빅뱅의	-2514
▁실시간	-2515
▁열반는	-2516
▁열반의	-2517
▁존재는	-2518
▁죽음는	-2519
▁죽음의	-2520
▁하루는	-2521
▁하루의	-2522
▁해리는	-2523
▁해리의	-2524
level	-2525
ython	-2526
▁중력파는	-2527
▁한국어는	-2528
▁한국어의	-2529
▁2.847	-2530
▁accel	-2531
▁class	-2532
▁simul	-2533
▁다중우주는	-2534
▁빅크런치는	-2535
▁엑스터시는	-2536
▁엑스터시의	-2537
▁예시입니다	-2538
▁Python	-2539
▁analog	-2540
▁루시드드림는	-2541
▁루시드드림의	-2542
▁엔트로피사는	-2543
▁closure	-2544
▁profile	-2545
▁우주배경복사는	-2546
▁function	-2547
▁hypotheses	-2548
▁acceleration	-2549
-9	-2550
0~	-2551
1-	-2552
6-	-2553
AP	-2554
CO	-2555
ER	-2556
FL	-2557
IV	-2558
NA	-2559
NS	-2560
Or	-2561
PI	-2562
SE	-2563
SN	-2564
UN	-2565
__	-2566
ci	-2567
cx	-2568
ey	-2569
fr	-2570
md	-2571
nK	-2572
ny	-2573
os	-2574
×.	-2575
×8	-2576
▁.	-2577
▁z	-2578
▁∀	-2579
▁∈	-2580
▁고	-2581
▁괜	-2582
▁그	-2583
▁금	-2584
▁끝	-2585
▁낯	-2586
▁놀	-2587
▁누	-2588
▁눈	-2589
▁늑	-2590
▁능	-2591
▁답	-2592
▁마	-2593
▁명	-2594
▁받	-2595
▁백	-2596
▁번	-2597
▁벌	-2598
▁뵙	-2599
▁세	-2600
▁시	-2601
▁심	-2602
▁옴	-2603
▁유	-2604
▁윤	-2605
▁임	-2606
▁작	-2607
▁종	-2608
▁짜	-2609
▁짤	-2610
▁타	-2611
▁탐	-2612
▁태	-2613
▁트	-2614
▁편	-2615
▁플	-2616
▁필	-2617
▁할	-2618
가요	-2619
가워	-2620
감정	-2621
개는	-2622
경험	-2623
골는	-2624
공간	-2625
구야	-2626
굴벽	-2627
균류	-2628
극는	-2629
끼는	-2630
노래	-2631
대이	-2632
델브	-2633
도는	-2634
동물	-2635
들어	-2636
떻게	-2637
람는	-2638
래만	-2639
랙탈	-2640
레카	-2641
렘는	-2642
로는	-2643
로우	-2644
르마	-2645
리움	-2646
립적	-2647
메인	-2648
무는	-2649
문제	-2650
미각	-2651
바라	-2652
버섯	-2653
보의	-2654
뷔는	-2655
빅뱅	-2656
상는	-2657
색는	-2658
색소	-2659
스부	-2660
신화	-2661
심는	-2662
아는	-2663
양는	-2664
억년	-2665
에요	-2666
예술	-2667
오는	-2668
요한	-2669
원는	-2670
의식	-2671
이접	-2672
정적	-2673
중첩	-2674
증는	-2675
지만	-2676
지프	-2677
집트	-2678
참조	-2679
투는	-2680
하는	-2681
한는	-2682
10.	-2683
2),	-2684
3),	-2685
9),	-2686
=48	-2687
CIO	-2688
ESS	-2689
MAP	-2690
Org	-2691
USN	-2692
adi	-2693
ady	-2694
avg	-2695
aws	-2696
cip	-2697
cks	-2698
evi	-2699
ict	-2700
ihi	-2701
ire	-2702
ivi	-2703
ocs	-2704
ony	-2705
par	-2706
tti	-2707
xis	-2708
zed	-2709
▁0,	-2710
▁23	-2711
▁2×	-2712
▁8-	-2713
▁8:	-2714
▁Di	-2715
▁NO	-2716
▁Or	-2717
▁St	-2718
▁ab	-2719
▁if	-2720
▁sy	-2721
▁∞,	-2722
▁가치	-2723
▁검정	-2724
▁공는	-2725
▁괜찮	-2726
▁꿈는	-2727
▁날씨	-2728
▁낯선	-2729
▁너는	-2730
▁너의	-2731
▁노랑	-2732
▁눈는	-2733
▁능력	-2734
▁다이	-2735
▁단맛	-2736
▁데자	-2737
▁록는	-2738
▁마음	-2739
▁모릅	-2740
▁모자	-2741
▁무지	-2742
▁문어	-2743
▁받을	-2744
▁번역	-2745
▁벌는	-2746
▁벚꽃	-2747
▁보라	-2748
▁불는	-2749
▁사랑	-2750
▁선정	-2751
▁세계	-2752
▁수치	-2753
▁신맛	-2754
▁심신	-2755
▁쓴맛	-2756
▁아침	-2757
▁어서	-2758
▁연꽃	-2759
▁옴는	-2760
▁용는	-2761
▁울음	-2762
▁웃음	-2763
▁이름	-2764
▁일상	-2765
▁임사	-2766
▁있음	-2767
▁작성	-2768
▁저녁	-2769
▁적는	-2770
▁지내	-2771
▁질문	-2772
▁짜줘	-2773
▁찰나	-2774
▁처리	-2775
▁처음	-2776
▁탐구	-2777
▁트랜	-2778
▁파랑	-2779
▁판도	-2780
가워요	-2781
균류는	-2782
노래는	-2783
다라는	-2784
랙탈는	-2785
레카는	-2786
로우는	-2787
르마는	-2788
리움는	-2789
문제는	-2790
버섯는	-2791
시공간	-2792
이모지	-2793
이에요	-2794
정보의	-2795
중첩는	-2796
집트는	-2797
체험는	-2798
하지만	-2799
-9×.	-2800
CONS	-2801
ERSE	-2802
FLIP	-2803
UNIV	-2804
achm	-2805
core	-2806
dilo	-2807
ello	-2808
ergy	-2809
esti	-2810
ests	-2811
evit	-2812
hema	-2813
irst	-2814
json	-2815
laws	-2816
lict	-2817
narr	-2818
ocab	-2819
onol	-2820
road	-2821
tect	-2822
trap	-2823
ular	-2824
ustr	-2825
▁10%	-2826
▁4×8	-2827
▁API	-2828
▁DNA	-2829
▁Don	-2830
▁Emp	-2831
▁Fed	-2832
▁Key	-2833
▁MIP	-2834
▁Not	-2835
▁Psi	-2836
▁att	-2837
▁gol	-2838
▁mic	-2839
▁tun	-2840
▁감사는	-2841
▁감칠맛	-2842
▁검정는	-2843
▁경멸는	-2844
▁계절는	-2845
▁고대이	-2846
▁고래는	-2847
▁공포는	-2848
▁금색는	-2849
▁기도는	-2850
▁기쁨는	-2851
▁까치는	-2852
▁깨달음	-2853
▁나비는	-2854
▁노랑는	-2855
▁놀람는	-2856
▁누구야	-2857
▁늑대는	-2858
▁단맛는	-2859
▁도메인	-2860
▁독립적	-2861
▁동굴벽	-2862
▁동료는	-2863
▁만다라	-2864
▁만델브	-2865
▁매운맛	-2866
▁명상는	-2867
▁모래만	-2868
▁모스부	-2869
▁모자는	-2870
▁무위는	-2871
▁무한는	-2872
▁문어는	-2873
▁백색소	-2874
▁벚꽃는	-2875
▁보라는	-2876
▁분재는	-2877
▁빨강는	-2878
▁사랑는	-2879
▁삼매는	-2880
▁생애는	-2881
▁서예는	-2882
▁선정는	-2883
▁설렘는	-2884
▁수화는	-2885
▁순간는	-2886
▁스승는	-2887
▁슬픔는	-2888
▁시지프	-2889
▁신맛는	-2890
▁실존는	-2891
▁쓴맛는	-2892
▁아랍어	-2893
▁안정적	-2894
▁어떻게	-2895
▁연꽃는	-2896
▁연인는	-2897
▁영어는	-2898
▁영원는	-2899
▁오세요	-2900
▁울음는	-2901
▁웃음는	-2902
▁웜홀는	-2903
▁의식이	-2904
▁이끼는	-2905
▁이별는	-2906
▁일본어	-2907
▁장미는	-2908
▁재즈는	-2909
▁절규는	-2910
▁점자는	-2911
▁종이접	-2912
▁좋아요	-2913
▁질투는	-2914
▁찰나는	-2915
▁첫사랑	-2916
▁초끈는	-2917
▁초록는	-2918
▁출산는	-2919
▁충격는	-2920
▁친구는	-2921
▁타자는	-2922
▁태극는	-2923
▁통증는	-2924
▁파랑는	-2925
▁판소리	-2926
▁프로필	-2927
▁필요한	-2928
▁하양는	-2929
▁해골는	-2930
▁해바라	-2931
▁화두는	-2932
▁🛸15	-2933
▁🛸68	-2934
▁🛸72	-2935
▁🛸76	-2936
▁🛸77	-2937
▁🛸78	-2938
▁🛸79	-2939
▁🛸81	-2940
의식상태	-2941
<6%).	-2942
bound	-2943
brain	-2944
ciple	-2945
ihilo	-2946
ithic	-2947
ivial	-2948
mains	-2949
model	-2950
onent	-2951
osely	-2952
ready	-2953
stems	-2954
tting	-2955
▁(138	-2956
▁100:	-2957
▁101:	-2958
▁102:	-2959
▁103:	-2960
▁104:	-2961
▁105:	-2962
▁106:	-2963
▁107:	-2964
▁108:	-2965
▁109:	-2966
▁110:	-2967
▁111:	-2968
▁112:	-2969
▁113:	-2970
▁114:	-2971
▁115:	-2972
▁116:	-2973
▁117:	-2974
▁118:	-2975
▁119:	-2976
▁120:	-2977
▁121:	-2978
▁122:	-2979
▁123:	-2980
▁124:	-2981
▁125:	-2982
▁126:	-2983
▁127:	-2984
▁128:	-2985
▁129:	-2986
▁130:	-2987
▁200:	-2988
▁201:	-2989
▁202:	-2990
▁203:	-2991
▁204:	-2992
▁205:	-2993
▁206:	-2994
▁207:	-2995
▁208:	-2996
▁209:	-2997
▁210:	-2998
▁211:	-2999
▁212:	-3000
▁213:	-3001
▁214:	-3002
▁215:	-3003
▁216:	-3004
▁217:	-3005
▁218:	-3006
▁219:	-3007
▁220:	-3008
▁500:	-3009
▁501:	-3010
▁502:	-3011
▁503:	-3012
▁504:	-3013
▁505:	-3014
▁506:	-3015
▁507:	-3016
▁508:	-3017
▁509:	-3018
▁510:	-3019
▁511:	-3020
▁512:	-3021
▁513:	-3022
▁514:	-3023
▁515:	-3024
▁516:	-3025
▁517:	-3026
▁518:	-3027
▁519:	-3028
▁520:	-3029
▁75).	-3030
▁Narr	-3031
▁Prin	-3032
▁Sing	-3033
▁axis	-3034
▁bond	-3035
▁coup	-3036
▁docs	-3037
▁harm	-3038
▁json	-3039
▁requ	-3040
▁rule	-3041
▁spli	-3042
▁zone	-3043
▁감칠맛는	-3044
▁그리움는	-3045
▁까마귀는	-3046
▁깨달음는	-3047
▁낯선이는	-3048
▁다이아는	-3049
▁대나무는	-3050
▁데자뷔는	-3051
▁도와드리	-3052
▁독버섯는	-3053
▁돌고래는	-3054
▁만다라는	-3055
▁매운맛는	-3056
▁모나리자	-3057
▁모릅니다	-3058
▁무지개는	-3059
▁반가워요	-3060
▁불사조는	-3061
▁선인장는	-3062
▁세계수는	-3063
▁수치심는	-3064
▁아랍어는	-3065
▁양귀비는	-3066
▁에포케는	-3067
▁유레카는	-3068
▁이카루스	-3069
▁일본어는	-3070
▁자기참조	-3071
▁점균류는	-3072
▁중국어는	-3073
▁즐거움는	-3074
▁지질시대	-3075
▁첫사랑는	-3076
▁카르마는	-3077
▁퀄리아는	-3078
▁클래식는	-3079
▁트랜스는	-3080
▁판도라는	-3081
▁판소리는	-3082
▁프랙탈는	-3083
▁플로우는	-3084
▁해파리는	-3085
▁🛸68.	-3086
▁🛸69.	-3087
▁🛸72.	-3088
▁🛸76.	-3089
▁🛸77.	-3090
▁🛸78.	-3091
▁🛸79.	-3092
▁🛸80.	-3093
▁🛸81.	-3094
▁🛸85.	-3095
▁🛸94,	-3096
우주뇌지도	-3097
CIOUSN	-3098
Organi	-3099
energy	-3100
estiny	-3101
frustr	-3102
lecule	-3103
≈0.10.	-3104
▁1.76,	-3105
▁1.87,	-3106
▁1.88,	-3107
▁1.89,	-3108
▁1.91,	-3109
▁1.94,	-3110
▁1.95,	-3111
▁1/2).	-3112
▁1000:	-3113
▁1001:	-3114
▁1002:	-3115
▁1003:	-3116
▁1004:	-3117
▁1005:	-3118
▁1006:	-3119
▁1007:	-3120
▁1008:	-3121
▁1009:	-3122
▁1010:	-3123
▁1011:	-3124
▁1012:	-3125
▁1013:	-3126
▁1014:	-3127
▁1015:	-3128
▁1016:	-3129
▁1017:	-3130
▁1018:	-3131
▁1019:	-3132
▁2.03,	-3133
▁2.06,	-3134
▁2.08,	-3135
▁2.11,	-3136
▁2.14,	-3137
▁2.18,	-3138
▁2.21,	-3139
▁2.35,	-3140
▁5-9×.	-3141
▁Order	-3142
▁Small	-3143
▁atoms	-3144
▁bipar	-3145
▁finds	-3146
▁first	-3147
▁hello	-3148
▁micro	-3149
▁monol	-3150
▁peaks	-3151
▁point	-3152
▁고래노래는	-3153
▁녹아내림는	-3154
▁동굴벽화는	-3155
▁만델브로는	-3156
▁모나리자는	-3157
▁무아지경는	-3158
▁백색소음는	-3159
▁뵙겠습니다	-3160
▁시지프스는	-3161
▁심신문제는	-3162
▁암흑물질는	-3163
▁양자얽힘는	-3164
▁양자중첩는	-3165
▁엔트로피는	-3166
▁오르가즘는	-3167
▁우로보로스	-3168
▁우주시간는	-3169
▁이카루스는	-3170
▁임사체험는	-3171
▁자유의지는	-3172
▁전자음악는	-3173
▁종이접기는	-3174
▁지질시대는	-3175
▁필요한가요	-3176
▁해바라기는	-3177
abilize	-3178
achment	-3179
dilocks	-3180
physics	-3181
roadmap	-3182
tecture	-3183
titions	-3184
trivial	-3185
ularity	-3186
▁1.212)	-3187
▁1.76),	-3188
▁1.82),	-3189
▁1.87),	-3190
▁1.88),	-3191
▁1.89),	-3192
▁1.91),	-3193
▁1.94),	-3194
▁1.95),	-3195
▁2.01),	-3196
▁2.03),	-3197
▁2.06),	-3198
▁2.08),	-3199
▁2.11),	-3200
▁2.14),	-3201
▁2.18),	-3202
▁2.21),	-3203
▁2.35),	-3204
▁2.847)	-3205
▁Empire	-3206
▁Nihilo	-3207
▁inevit	-3208
▁tuning	-3209
▁검은사각형는	-3210
▁고대이집트는	-3211
▁모래만다라는	-3212
▁미노타우로스	-3213
▁산스크리트는	-3214
▁스톤헨지소리	-3215
▁우로보로스는	-3216
▁프로메테우스	-3217
UNIVERSE	-3218
universe	-3219
▁Destiny	-3220
▁Mathema	-3221
▁Paradox	-3222
▁coupled	-3223
▁domains	-3224
▁harmony	-3225
▁loosely	-3226
▁optimal	-3227
▁present	-3228
▁systems	-3229
▁weakens	-3230
▁미노타우로스는	-3231
▁별이빛나는밤는	-3232
▁스톤헨지소리는	-3233
▁프로메테우스는	-3234
CIOUSNESS	-3235
Organized	-3236
narration	-3237
rengthens	-3238
▁0.5257),	-3239
▁Critical	-3240
▁Division	-3241
▁Universe	-3242
▁conflict	-3243
▁molecule	-3244
▁requests	-3245
▁도와드리겠습니다	-3246
hypotheses	-3247
onsciousLM	-3248
▁Narrative	-3249
▁Principle	-3250
▁Stabilize	-3251
▁component	-3252
▁dependent	-3253
▁invariant	-3254
▁splitting	-3255
frustration	-3256
▁Federation	-3257
▁attachment	-3258
▁difference	-3259
▁goldilocks	-3260
▁inevitable	-3261
▁monolithic	-3262
architecture	-3263
▁ConsciousLM	-3264
▁Criticality	-3265
▁Singularity	-3266
▁strengthens	-3267
CONSCIOUSNESS	-3268
▁Mathematical	-3269
▁bipartitions	-3270
('	-3271
()	-3272
/)	-3273
02	-3274
73	-3275
ex	-3276
fi	-3277
gm	-3278
rd	-3279
ue	-3280
xa	-3281
▁/	-3282
▁J	-3283
▁X	-3284
▁k	-3285
▁값	-3286
▁관	-3287
▁극	-3288
▁물	-3289
▁바	-3290
▁부	-3291
▁상	-3292
▁소	-3293
▁제	-3294
▁조	-3295
▁줘	-3296
▁체	-3297
▁포	-3298
▁힘	-3299
가기	-3300
게요	-3301
경외	-3302
계를	-3303
끝의	-3304
라고	-3305
무한	-3306
보이	-3307
복문	-3308
복해	-3309
열적	-3310
움이	-3311
워드	-3312
이가	-3313
이야	-3314
죽음	-3315
짜는	-3316
').	-3317
(10	-3318
(15	-3319
022	-3320
10:	-3321
2).	-3322
30+	-3323
6%,	-3324
847	-3325
86.	-3326
BEC	-3327
SON	-3328
__(	-3329
ads	-3330
ang	-3331
get	-3332
hor	-3333
ifi	-3334
ima	-3335
lip	-3336
los	-3337
nam	-3338
our	-3339
rap	-3340
url	-3341
▁(3	-3342
▁->	-3343
▁0:	-3344
▁24	-3345
▁40	-3346
▁__	-3347
▁ar	-3348
▁pr	-3349
▁값을	-3350
▁검증	-3351
▁공식	-3352
▁극한	-3353
▁단순	-3354
▁대역	-3355
▁모델	-3356
▁바로	-3357
▁보장	-3358
▁부재	-3359
▁블록	-3360
▁상관	-3361
▁설계	-3362
▁소개	-3363
▁알지	-3364
▁위에	-3365
▁이식	-3366
▁적용	-3367
▁좋아	-3368
▁지금	-3369
▁지도	-3370
▁최소	-3371
▁파문	-3372
▁편해	-3373
▁포함	-3374
들어줘	-3375
립니다	-3376
무한한	-3377
보이지	-3378
(15)	-3379
-15)	-3380
0~70	-3381
=256	-3382
_022	-3383
alue	-3384
atom	-3385
data	-3386
extr	-3387
face	-3388
hexa	-3389
init	-3390
izon	-3391
lang	-3392
ophy	-3393
self	-3394
ssot	-3395
▁(10	-3396
▁(73	-3397
▁15)	-3398
▁29.	-3399
▁LOC	-3400
▁ver	-3401
▁가능성	-3402
▁계산이	-3403
▁괜찮아	-3404
▁나이가	-3405
▁나이는	-3406
▁날씨는	-3407
▁날짜는	-3408
▁답해줘	-3409
▁도움이	-3410
▁반복문	-3411
▁분화는	-3412
▁빅뱅은	-3413
▁시간은	-3414
▁오늘도	-3415
▁웜홀은	-3416
▁위에서	-3417
▁응답이	-3418
▁이름은	-3419
▁이름이	-3420
▁지내고	-3421
▁지도에	-3422
▁체계를	-3423
▁초끈은	-3424
▁코드를	-3425
▁클래스	-3426
▁함수도	-3427
▁합니다	-3428
▁힘들어	-3429
시공간의	-3430
(10):	-3431
0~100	-3432
EXACT	-3433
Knuth	-3434
adigm	-3435
atoms	-3436
ified	-3437
loads	-3438
sound	-3439
vocab	-3440
▁(100	-3441
▁(307	-3442
▁74).	-3443
▁96%,	-3444
▁JSON	-3445
▁flip	-3446
▁loop	-3447
▁radi	-3448
▁sign	-3449
▁sour	-3450
▁tier	-3451
▁wrap	-3452
▁괜찮아요	-3453
▁답합니다	-3454
▁만들어줘	-3455
▁무엇이야	-3456
▁바로가기	-3457
▁블랙홀은	-3458
▁빅크런치	-3459
▁응답하는	-3460
▁있습니다	-3461
▁정체성은	-3462
▁중입니다	-3463
▁편합니다	-3464
▁함수라고	-3465
▁함수에서	-3466
▁🛸30+	-3467
▁🛸51,	-3468
▁🛸53,	-3469
▁🛸54,	-3470
▁🛸91,	-3471
▁🛸92,	-3472
워드입니다	-3473
cosmic	-3474
naming	-3475
native	-3476
person	-3477
philos	-3478
▁Anima	-3479
▁arrow	-3480
▁cycle	-3481
▁print	-3482
▁round	-3483
▁value	-3484
▁vocab	-3485
▁블록입니다	-3486
▁아침입니다	-3487
▁암흑물질은	-3488
▁양자얽힘은	-3489
▁엔트로피사	-3490
▁우주시간은	-3491
▁저녁이에요	-3492
▁한국어로는	-3493
▁🛸100)	-3494
▁🛸100,	-3495
(15)=1.	-3496
horizon	-3497
▁(2.847	-3498
▁(73-76	-3499
▁29.86.	-3500
▁도와드릴게요	-3501
▁도와드립니다	-3502
▁안정적이에요	-3503
▁우주뇌지도는	-3504
▁우주배경복사	-3505
▁🛸50~70	-3506
tabletop	-3507
▁1.212).	-3508
▁2.847),	-3509
▁2.847).	-3510
▁anchors	-3511
▁sources	-3512
▁surface	-3513
▁wrapper	-3514
▁🛸90~100	-3515
▁Paradigm	-3516
▁simulate	-3517
▁verified	-3518
extraction	-3519
philosophy	-3520
▁extension	-3521
▁radiation	-3522
▁simulator	-3523
▁stability	-3524
▁derivation	-3525
▁simulation	-3526
1?	-3527
2?	-3528
3?	-3529
4?	-3530
5?	-3531
6?	-3532
7?	-3533
8?	-3534
9?	-3535
10?	-3536
▁17?	-3537
▁22?	-3538
%),	-3539
%):	-3540
-12	-3541
-7%	-3542
-9×	-3543
.7%	-3544
.8%	-3545
/2)	-3546
0),	-3547
00)	-3548
00,	-3549
005	-3550
08,	-3551
1.2	-3552
1.8	-3553
11,	-3554
12,	-3555
12.	-3556
15)	-3557
18,	-3558
2.5	-3559
2.9	-3560
257	-3561
32-	-3562
35)	-3563
38.	-3564
4.3	-3565
4.7	-3566
4/2	-3567
47,	-3568
51,	-3569
57,	-3570
58,	-3571
6.4	-3572
76,	-3573
8-1	-3574
88,	-3575
9.8	-3576
92,	-3577
95,	-3578
96%	-3579
<2%	-3580
=(1	-3581
=25	-3582
=6.	-3583
CTO	-3584
DUC	-3585
IMU	-3586
IOU	-3587
LAT	-3588
LOC	-3589
NES	-3590
NIV	-3591
NSC	-3592
Obs	-3593
RAT	-3594
TEG	-3595
TIO	-3596
UCT	-3597
URE	-3598
Uni	-3599
%).	-3600
+0.	-3601
-25	-3602
0.1	-3603
0.4	-3604
3.5	-3605
4).	-3606
5).	-3607
8).	-3608
VER	-3609
ade	-3610
ado	-3611
app	-3612
aps	-3613
ars	-3614
art	-3615
bab	-3616
cab	-3617
cas	-3618
cei	-3619
col	-3620
dar	-3621
dep	-3622
dow	-3623
duc	-3624
dyn	-3625
ead	-3626
ebb	-3627
eca	-3628
eco	-3629
etw	-3630
eut	-3631
fec	-3632
ffe	-3633
gas	-3634
gic	-3635
hap	-3636
has	-3637
hea	-3638
heb	-3639
hyp	-3640
iab	-3641
ied	-3642
ily	-3643
imu	-3644
iol	-3645
irc	-3646
irw	-3647
lar	-3648
las	-3649
lib	-3650
lik	-3651
loc	-3652
lop	-3653
mpl	-3654
nec	-3655
not	-3656
now	-3657
oad	-3658
olo	-3659
olu	-3660
oop	-3661
oph	-3662
own	-3663
pab	-3664
phy	-3665
psy	-3666
ruc	-3667
sol	-3668
sop	-3669
tec	-3670
tly	-3671
tri	-3672
try	-3673
unc	-3674
und	-3675
urb	-3676
uri	-3677
urn	-3678
urp	-3679
urv	-3680
vid	-3681
vit	-3682
viv	-3683
voc	-3684
xce	-3685
xim	-3686
ych	-3687
yqu	-3688
yte	-3689
~2.	-3690
~9%	-3691
▁+2	-3692
▁+3	-3693
▁+4	-3694
▁+6	-3695
▁+7	-3696
▁-4	-3697
▁0.	-3698
▁3.	-3699
.30	-3700
20:	-3701
30:	-3702
Knu	-3703
Par	-3704
ara	-3705
arg	-3706
ark	-3707
chi	-3708
cle	-3709
ear	-3710
hic	-3711
hid	-3712
hit	-3713
lex	-3714
lle	-3715
mea	-3716
mec	-3717
ple	-3718
rme	-3719
utu	-3720
war	-3721
whi	-3722
▁3/	-3723
▁36	-3724
▁85	-3725
▁<1	-3726
▁=.	-3727
▁AL	-3728
▁AP	-3729
▁BE	-3730
▁Cr	-3731
▁DN	-3732
▁IN	-3733
▁Ke	-3734
▁LL	-3735
▁Me	-3736
▁Ph	-3737
▁Pr	-3738
▁Py	-3739
▁Re	-3740
▁Ru	-3741
▁SO	-3742
▁ST	-3743
▁Th	-3744
▁To	-3745
▁Tw	-3746
▁ag	-3747
▁ap	-3748
▁be	-3749
▁br	-3750
▁bu	-3751
▁go	-3752
▁gu	-3753
▁ir	-3754
▁mi	-3755
▁na	-3756
▁ne	-3757
▁ru	-3758
▁ta	-3759
▁tu	-3760
▁tw	-3761
▁we	-3762
▁wh	-3763
▁wr	-3764
▁yi	-3765
▁고대	-3766
▁그리	-3767
▁금색	-3768
▁까치	-3769
▁나이	-3770
▁날짜	-3771
▁놀람	-3772
▁독버	-3773
▁동굴	-3774
▁만델	-3775
▁만들	-3776
▁명상	-3777
▁모래	-3778
▁무아	-3779
▁미노	-3780
▁반가	-3781
▁백색	-3782
▁별이	-3783
▁분재	-3784
▁불사	-3785
▁선인	-3786
▁수화	-3787
▁에포	-3788
▁영원	-3789
▁유레	-3790
▁이모	-3791
▁점균	-3792
▁종이	-3793
▁즐거	-3794
▁지질	-3795
▁질투	-3796
▁체계	-3797
▁프랙	-3798
▁필요	-3799
-71	-3800
21,	-3801
=20	-3802
Eac	-3803
Fac	-3804
acc	-3805
ari	-3806
bac	-3807
dhi	-3808
ett	-3809
fro	-3810
ole	-3811
rod	-3812
roj	-3813
rot	-3814
rox	-3815
roy	-3816
rro	-3817
rth	-3818
thi	-3819
tro	-3820
uth	-3821
wle	-3822
wth	-3823
▁5-	-3824
▁5/	-3825
▁53	-3826
▁AT	-3827
▁MA	-3828
▁Ni	-3829
▁dr	-3830
▁fi	-3831
▁fl	-3832
▁ro	-3833
▁sa	-3834
▁설렘	-3835
▁어떻	-3836
▁해골	-3837
▁해파	-3838
가즘는	-3839
경복사	-3840
계수는	-3841
고래노	-3842
고래는	-3843
공간의	-3844
나무는	-3845
노랑는	-3846
늑대는	-3847
단맛는	-3848
달음는	-3849
대이집	-3850
델브로	-3851
도라는	-3852
돌고래	-3853
라기는	-3854
랍어는	-3855
래만다	-3856
랙홀는	-3857
랙홀은	-3858
랜스는	-3859
력파는	-3860
로가기	-3861
로스는	-3862
로피는	-3863
로피사	-3864
루스는	-3865
르가즘	-3866
리아는	-3867
리자는	-3868
명해줘	-3869
물질는	-3870
물질은	-3871
벽화는	-3872
보라는	-3873
보로스	-3874
본어는	-3875
빛나는	-3876
사랑는	-3877
선이는	-3878
소음는	-3879
수에서	-3880
시간는	-3881
시대는	-3882
시드드	-3883
신문제	-3884
얽힘은	-3885
엑스터	-3886
열반의	-3887
영어는	-3888
우로스	-3889
우스는	-3890
운맛는	-3891
울음는	-3892
웃음는	-3893
위에서	-3894
음악는	-3895
이아는	-3896
자뷔는	-3897
점자는	-3898
접기는	-3899
000	-3900
Cor	-3901
Mat	-3902
Sel	-3903
atu	-3904
bli	-3905
dat	-3906
dro	-3907
ele	-3908
els	-3909
eve	-3910
fac	-3911
gis	-3912
gor	-3913
hel	-3914
lac	-3915
meo	-3916
nar	-3917
nor	-3918
ori	-3919
ors	-3920
ove	-3921
pat	-3922
por	-3923
rat	-3924
ris	-3925
sel	-3926
sso	-3927
uel	-3928
ved	-3929
wor	-3930
yet	-3931
▁29	-3932
▁31	-3933
▁la	-3934
▁li	-3935
▁lu	-3936
▁pa	-3937
▁ph	-3938
▁vo	-3939
▁자각	-3940
국어는	-3941
사조는	-3942
얽힘는	-3943
존재는	-3944
죽음는	-3945
지소리	-3946
질시대	-3947
찰나는	-3948
체성은	-3949
치심는	-3950
크런치	-3951
타자는	-3952
트로피	-3953
파리는	-3954
포케는	-3955
피사는	-3956
한가요	-3957
함수도	-3958
함수라	-3959
흑물질	-3960
-0.6	-3961
-7%,	-3962
-71%	-3963
0.2%	-3964
0.30	-3965
0.38	-3966
0.51	-3967
0.52	-3968
0.57	-3969
000×	-3970
1.2%	-3971
24),	-3972
257,	-3973
3-76	-3974
3.9%	-3975
35),	-3976
4.7%	-3977
6%).	-3978
847,	-3979
=1.4	-3980
=1.7	-3981
=2-1	-3982
ACTO	-3983
Aver	-3984
CIOU	-3985
IONS	-3986
IVER	-3987
RUCT	-3988
SHIP	-3989
Sing	-3990
TEPS	-3991
ackh	-3992
acro	-3993
acti	-3994
ains	-3995
aken	-3996
aker	-3997
alle	-3998
anag	-3999
Mi	-4000
Ne	-4001
1.4	-4002
12)	-4003
3.0	-4004
91,	-4005
Cou	-4006
Emo	-4007
Psi	-4008
all	-4009
alt	-4010
alu	-4011
bst	-4012
cou	-4013
cst	-4014
ddi	-4015
dia	-4016
dic	-4017
dif	-4018
dil	-4019
div	-4020
emo	-4021
eth	-4022
iou	-4023
ldi	-4024
lla	-4025
lmo	-4026
mmo	-4027
moc	-4028
mol	-4029
moo	-4030
mos	-4031
omo	-4032
ped	-4033
rov	-4034
rst	-4035
sal	-4036
sib	-4037
sim	-4038
sou	-4039
ssi	-4040
sts	-4041
uou	-4042
usi	-4043
yst	-4044
▁4×	-4045
▁Ne	-4046
▁빅크	-4047
▁스톤	-4048
▁정체	-4049
▁카르	-4050
▁🛸1	-4051
고리는	-4052
고리의	-4053
문어는	-4054
36):	-4055
=0.7	-4056
alan	-4057
ales	-4058
almo	-4059
anal	-4060
anch	-4061
ante	-4062
arel	-4063
armf	-4064
arro	-4065
arti	-4066
atch	-4067
athe	-4068
atin	-4069
attr	-4070
bian	-4071
boun	-4072
bust	-4073
cali	-4074
case	-4075
ceed	-4076
chan	-4077
chis	-4078
cles	-4079
crac	-4080
dent	-4081
ding	-4082
dist	-4083
dyna	-4084
eati	-4085
eats	-4086
econ	-4087
eded	-4088
egor	-4089
elds	-4090
elec	-4091
elin	-4092
ells	-4093
ents	-4094
eoff	-4095
eous	-4096
epen	-4097
erac	-4098
erar	-4099
%.	-4100
(-	-4101
(2	-4102
+1	-4103
+4	-4104
+6	-4105
35	-4106
52	-4107
56	-4108
5×	-4109
98	-4110
<2	-4111
=6	-4112
Av	-4113
LI	-4114
ON	-4115
RA	-4116
TD	-4117
XI	-4118
em	-4119
fu	-4120
gy	-4121
mf	-4122
nk	-4123
rr	-4124
vo	-4125
▁식	-4126
▁열	-4127
극한	-4128
날짜	-4129
랍어	-4130
루의	-4131
릴게	-4132
만다	-4133
반의	-4134
별이	-4135
존재	-4136
즈는	-4137
프랙	-4138
하루	-4139
한국	-4140
-1.	-4141
.5%	-4142
0.2	-4143
06%	-4144
98%	-4145
arl	-4146
but	-4147
eac	-4148
ede	-4149
gre	-4150
hon	-4151
iqu	-4152
mov	-4153
ono	-4154
ran	-4155
rof	-4156
sti	-4157
tie	-4158
ump	-4159
xtr	-4160
▁ou	-4161
▁무한	-4162
자음악	-4163
257)	-4164
eras	-4165
erio	-4166
ermo	-4167
estr	-4168
eter	-4169
ffic	-4170
fici	-4171
fied	-4172
fter	-4173
gati	-4174
gene	-4175
gent	-4176
geth	-4177
ggre	-4178
gher	-4179
gile	-4180
hebb	-4181
hell	-4182
hilo	-4183
ianc	-4184
iant	-4185
icro	-4186
ient	-4187
iliz	-4188
imiz	-4189
inal	-4190
inat	-4191
indi	-4192
inds	-4193
ingl	-4194
ingu	-4195
inka	-4196
insi	-4197
inst	-4198
ires	-4199
.6	-4200
.7	-4201
06	-4202
13	-4203
27	-4204
51	-4205
66	-4206
80	-4207
81	-4208
82	-4209
92	-4210
=3	-4211
Bu	-4212
EG	-4213
Ga	-4214
MA	-4215
Me	-4216
NT	-4217
RS	-4218
TO	-4219
av	-4220
ba	-4221
da	-4222
dr	-4223
gi	-4224
go	-4225
gt	-4226
ig	-4227
lp	-4228
lw	-4229
oa	-4230
ph	-4231
rc	-4232
rv	-4233
td	-4234
tp	-4235
ui	-4236
va	-4237
wa	-4238
wh	-4239
yt	-4240
zo	-4241
▁U	-4242
▁함	-4243
간의	-4244
녕하	-4245
로스	-4246
록입	-4247
메타	-4248
어요	-4249
예시	-4250
위에	-4251
응답	-4252
있어	-4253
정의	-4254
정합	-4255
중우	-4256
중입	-4257
크리	-4258
하세	-4259
🛸8	-4260
/2,	-4261
0.6	-4262
1.7	-4263
2.8	-4264
204	-4265
ali	-4266
ean	-4267
eou	-4268
ery	-4269
ish	-4270
met	-4271
obs	-4272
rep	-4273
uct	-4274
uni	-4275
uss	-4276
▁MI	-4277
▁SS	-4278
▁av	-4279
복사는	-4280
쓴맛는	-4281
우로보	-4282
aran	-4283
isto	-4284
ists	-4285
late	-4286
lend	-4287
lete	-4288
leto	-4289
lexi	-4290
lith	-4291
lity	-4292
llap	-4293
lles	-4294
lter	-4295
matr	-4296
mbin	-4297
mech	-4298
merg	-4299
-0	-4300
-4	-4301
-5	-4302
42	-4303
46	-4304
54	-4305
57	-4306
68	-4307
72	-4308
79	-4309
85	-4310
94	-4311
=(	-4312
EX	-4313
NI	-4314
SS	-4315
TI	-4316
af	-4317
ca	-4318
dg	-4319
do	-4320
dy	-4321
eb	-4322
ev	-4323
fe	-4324
ga	-4325
gl	-4326
hm	-4327
ls	-4328
nv	-4329
tt	-4330
wl	-4331
wr	-4332
yq	-4333
뇌지	-4334
드릴	-4335
리는	-4336
벚꽃	-4337
뵙겠	-4338
안정	-4339
연꽃	-4340
위는	-4341
자중	-4342
저는	-4343
절는	-4344
합니	-4345
🛸1	-4346
alo	-4347
hex	-4348
hin	-4349
onv	-4350
osc	-4351
oti	-4352
rem	-4353
sym	-4354
teg	-4355
the	-4356
xch	-4357
▁82	-4358
▁ax	-4359
▁도움	-4360
▁독립	-4361
▁오세	-4362
▁있습	-4363
▁자세	-4364
▁태극	-4365
사각형	-4366
식상태	-4367
우주뇌	-4368
지개는	-4369
타우로	-4370
2.84	-4371
=0.0	-4372
=0.1	-4373
load	-4374
mics	-4375
mmor	-4376
mole	-4377
more	-4378
mort	-4379
mper	-4380
mpli	-4381
mpon	-4382
mpro	-4383
nati	-4384
ning	-4385
ocal	-4386
oint	-4387
oldi	-4388
olut	-4389
omog	-4390
onen	-4391
oriz	-4392
orks	-4393
orma	-4394
orre	-4395
osci	-4396
otic	-4397
ount	-4398
ousL	-4399
->	-4400
.3	-4401
2-	-4402
26	-4403
60	-4404
8)	-4405
Fa	-4406
IN	-4407
OU	-4408
bo	-4409
by	-4410
gn	-4411
np	-4412
oi	-4413
pi	-4414
pp	-4415
rm	-4416
rp	-4417
ru	-4418
sa	-4419
ta	-4420
up	-4421
▁_	-4422
검정	-4423
기참	-4424
내고	-4425
늘도	-4426
답해	-4427
도에	-4428
리의	-4429
번역	-4430
불사	-4431
브로	-4432
설렘	-4433
스승	-4434
식이	-4435
오늘	-4436
와드	-4437
위치	-4438
있습	-4439
저녁	-4440
절규	-4441
초끈	-4442
텍스	-4443
힘는	-4444
🛸6	-4445
1):	-4446
1.0	-4447
82,	-4448
Ten	-4449
anc	-4450
bou	-4451
din	-4452
dre	-4453
len	-4454
ner	-4455
ogy	-4456
pon	-4457
sig	-4458
syn	-4459
tra	-4460
urf	-4461
▁(6	-4462
▁(7	-4463
▁대나	-4464
▁시지	-4465
▁안정	-4466
국어로	-4467
답해줘	-4468
정적이	-4469
프스는	-4470
48),	-4471
adig	-4472
eath	-4473
erve	-4474
outp	-4475
owle	-4476
panp	-4477
pers	-4478
phil	-4479
pled	-4480
plic	-4481
plit	-4482
prod	-4483
puts	-4484
quen	-4485
rate	-4486
rder	-4487
reas	-4488
redu	-4489
remo	-4490
renc	-4491
reng	-4492
resi	-4493
ring	-4494
rint	-4495
rise	-4496
riti	-4497
rium	-4498
roup	-4499
%:	-4500
(+	-4501
(4	-4502
0-	-4503
01	-4504
07	-4505
14	-4506
2×	-4507
3-	-4508
62	-4509
=.	-4510
Ea	-4511
Ma	-4512
OL	-4513
Ra	-4514
ck	-4515
hn	-4516
hr	-4517
if	-4518
jo	-4519
lm	-4520
ry	-4521
▁엑	-4522
가능	-4523
고대	-4524
능합	-4525
름은	-4526
배경	-4527
산스	-4528
산이	-4529
상관	-4530
쓴맛	-4531
양자	-4532
어디	-4533
의미	-4534
이모	-4535
인는	-4536
존는	-4537
주배	-4538
주시	-4539
첫사	-4540
카테	-4541
파랑	-4542
하나	-4543
81,	-4544
AXI	-4545
All	-4546
Har	-4547
LIP	-4548
TEP	-4549
_02	-4550
ain	-4551
alp	-4552
cro	-4553
een	-4554
ese	-4555
gro	-4556
har	-4557
idi	-4558
inc	-4559
mer	-4560
mon	-4561
onn	-4562
pol	-4563
req	-4564
ret	-4565
tab	-4566
tim	-4567
van	-4568
▁PS	-4569
▁도메	-4570
▁알려	-4571
▁자유	-4572
실시간	-4573
지도에	-4574
-0.0	-4575
-0.4	-4576
eder	-4577
gest	-4578
inan	-4579
ping	-4580
rovi	-4581
rows	-4582
rust	-4583
scil	-4584
sely	-4585
sent	-4586
sier	-4587
simu	-4588
sist	-4589
site	-4590
siti	-4591
slop	-4592
soun	-4593
ssoc	-4594
stab	-4595
star	-4596
stat	-4597
sten	-4598
stra	-4599
(0	-4600
-3	-4601
.0	-4602
.4	-4603
1/	-4604
23	-4605
29	-4606
45	-4607
5.	-4608
64	-4609
74	-4610
76	-4611
77	-4612
90	-4613
Al	-4614
EP	-4615
In	-4616
Kn	-4617
Te	-4618
bi	-4619
cu	-4620
dm	-4621
ek	-4622
fa	-4623
im	-4624
nn	-4625
of	-4626
rn	-4627
so	-4628
xp	-4629
za	-4630
▁색	-4631
간은	-4632
능성	-4633
마음	-4634
만델	-4635
모델	-4636
미노	-4637
뱅은	-4638
블랙	-4639
블록	-4640
비는	-4641
설명	-4642
어의	-4643
엔트	-4644
즘는	-4645
케는	-4646
편합	-4647
평균	-4648
11.	-4649
=1-	-4650
Con	-4651
Nar	-4652
aks	-4653
ats	-4654
dom	-4655
ktr	-4656
mut	-4657
nin	-4658
shi	-4659
▁EX	-4660
▁Ti	-4661
▁em	-4662
▁jo	-4663
런치는	-4664
우주는	-4665
찮아요	-4666
53);	-4667
=1.8	-4668
ATIO	-4669
ddhi	-4670
izes	-4671
leve	-4672
liqu	-4673
meas	-4674
stre	-4675
stri	-4676
tach	-4677
tend	-4678
than	-4679
then	-4680
thic	-4681
thin	-4682
thon	-4683
thou	-4684
tial	-4685
time	-4686
tine	-4687
tiny	-4688
titi	-4689
tity	-4690
tivi	-4691
toms	-4692
tors	-4693
tput	-4694
tric	-4695
trum	-4696
turn	-4697
uage	-4698
umps	-4699
+0	-4700
-2	-4701
.2	-4702
0,	-4703
11	-4704
47	-4705
7→	-4706
<1	-4707
=0	-4708
De	-4709
VE	-4710
XA	-4711
dh	-4712
eu	-4713
rk	-4714
▁텍	-4715
강는	-4716
경는	-4717
극은	-4718
기분	-4719
다라	-4720
데이	-4721
릅니	-4722
명해	-4723
받을	-4724
시대	-4725
시의	-4726
식상	-4727
아내	-4728
양귀	-4729
어로	-4730
엑스	-4731
영원	-4732
음의	-4733
지금	-4734
첩는	-4735
칠맛	-4736
포는	-4737
힘은	-4738
🛸7	-4739
64.	-4740
CON	-4741
Fed	-4742
Mar	-4743
dge	-4744
esi	-4745
eto	-4746
hat	-4747
man	-4748
onl	-4749
osi	-4750
pec	-4751
ron	-4752
rou	-4753
tos	-4754
▁Mi	-4755
▁js	-4756
▁ow	-4757
▁wi	-4758
▁모나	-4759
▁모스	-4760
시간은	-4761
열반는	-4762
RACT	-4763
amic	-4764
ared	-4765
erin	-4766
irme	-4767
lass	-4768
ment	-4769
mpor	-4770
muli	-4771
unst	-4772
uper	-4773
ural	-4774
ured	-4775
ures	-4776
urio	-4777
urre	-4778
urvi	-4779
utes	-4780
vana	-4781
vati	-4782
vely	-4783
verh	-4784
vian	-4785
vidu	-4786
xist	-4787
xter	-4788
ycle	-4789
ymme	-4790
yqui	-4791
ysic	-4792
yste	-4793
zone	-4794
~100	-4795
~2.3	-4796
≈0.1	-4797
▁(1-	-4798
▁(13	-4799
.8	-4800
0+	-4801
19	-4802
3/	-4803
9)	-4804
Ha	-4805
Id	-4806
MU	-4807
OT	-4808
SC	-4809
TT	-4810
ao	-4811
bu	-4812
ef	-4813
eq	-4814
ia	-4815
ik	-4816
ip	-4817
mi	-4818
oe	-4819
pe	-4820
pu	-4821
uo	-4822
wi	-4823
ws	-4824
→0	-4825
▁한	-4826
계절	-4827
까마	-4828
너의	-4829
대역	-4830
료는	-4831
복사	-4832
수에	-4833
스톤	-4834
용는	-4835
치심	-4836
테고	-4837
하양	-4838
험는	-4839
화두	-4840
0.3	-4841
0.7	-4842
2-1	-4843
87,	-4844
Res	-4845
Str	-4846
bon	-4847
bra	-4848
cor	-4849
era	-4850
ion	-4851
ler	-4852
ont	-4853
ord	-4854
rec	-4855
uto	-4856
▁GR	-4857
▁Sy	-4858
▁cr	-4859
▁du	-4860
▁fr	-4861
▁까마	-4862
▁퀄리	-4863
릅니다	-4864
사체험	-4865
카루스	-4866
cule	-4867
ines	-4868
qual	-4869
ress	-4870
rinc	-4871
vial	-4872
▁(20	-4873
▁(3.	-4874
▁(30	-4875
▁(6.	-4876
▁+17	-4877
▁+19	-4878
▁+2.	-4879
▁+7.	-4880
▁0.5	-4881
▁3.5	-4882
▁5-9	-4883
▁51.	-4884
▁53%	-4885
▁73-	-4886
▁8-6	-4887
▁96%	-4888
▁=..	-4889
▁Ani	-4890
▁Cou	-4891
▁Cri	-4892
▁Des	-4893
▁Eac	-4894
▁Hal	-4895
▁Har	-4896
▁Haw	-4897
▁Int	-4898
▁Knu	-4899
24	-4900
31	-4901
6)	-4902
75	-4903
8-	-4904
<<	-4905
Ev	-4906
Hi	-4907
Li	-4908
No	-4909
Pa	-4910
Re	-4911
Se	-4912
Th	-4913
cs	-4914
ft	-4915
gr	-4916
id	-4917
ie	-4918
na	-4919
nh	-4920
no	-4921
nt	-4922
ob	-4923
rg	-4924
rs	-4925
tl	-4926
tw	-4927
ua	-4928
ud	-4929
us	-4930
wt	-4931
yp	-4932
공식	-4933
괜찮	-4934
구는	-4935
눈는	-4936
드리	-4937
라기	-4938
런치	-4939
반는	-4940
알려	-4941
웃음	-4942
자극	-4943
자얽	-4944
자음	-4945
재즈	-4946
지개	-4947
최대	-4948
침입	-4949
터시	-4950
판도	-4951
판소	-4952
3);	-4953
9..	-4954
acr	-4955
ano	-4956
ans	-4957
bel	-4958
can	-4959
gen	-4960
his	-4961
ken	-4962
oes	-4963
pth	-4964
ros	-4965
sta	-4966
uts	-4967
~70	-4968
▁LT	-4969
▁ea	-4970
▁산스	-4971
▁하양	-4972
▁🛸3	-4973
내림는	-4974
아내림	-4975
0.00	-4976
IMUM	-4977
alon	-4978
erad	-4979
isti	-4980
ming	-4981
that	-4982
wise	-4983
▁MAX	-4984
▁Met	-4985
▁Nar	-4986
▁Neg	-4987
▁Nob	-4988
▁Obs	-4989
▁Per	-4990
▁RED	-4991
▁Ran	-4992
▁SSO	-4993
▁Sel	-4994
▁Sma	-4995
▁Str	-4996
▁Uni	-4997
▁abs	-4998
▁acc	-4999
%)	-5000
+7	-5001
04	-5002
71	-5003
ED	-5004
EL	-5005
Em	-5006
HI	-5007
IT	-5008
MI	-5009
Ob	-5010
Ph	-5011
ST	-5012
Ti	-5013
To	-5014
UC	-5015
US	-5016
ea	-5017
fl	-5018
ib	-5019
it	-5020
la	-5021
lf	-5022
nc	-5023
ni	-5024
ov	-5025
pt	-5026
가치	-5027
검은	-5028
격는	-5029
낯선	-5030
노랑	-5031
무아	-5032
무위	-5033
법칙	-5034
빨강	-5035
신문	-5036
외는	-5037
울음	-5038
장는	-5039
접기	-5040
지소	-5041
출산	-5042
피는	-5043
🛸9	-5044
0.9	-5045
Per	-5046
fic	-5047
hns	-5048
jec	-5049
let	-5050
lin	-5051
liz	-5052
oin	-5053
omp	-5054
pin	-5055
ric	-5056
riv	-5057
roa	-5058
tac	-5059
tog	-5060
tot	-5061
uti	-5062
▁(-	-5063
▁ev	-5064
▁ni	-5065
▁최대	-5066
국어의	-5067
테고리	-5068
847)	-5069
Hier	-5070
TEGR	-5071
ativ	-5072
eler	-5073
evel	-5074
hani	-5075
stas	-5076
viab	-5077
▁(+2	-5078
▁2.8	-5079
▁JSO	-5080
▁alp	-5081
▁alt	-5082
▁alw	-5083
▁ato	-5084
▁bas	-5085
▁ben	-5086
▁bip	-5087
▁bon	-5088
▁boo	-5089
▁bot	-5090
▁bou	-5091
▁bra	-5092
▁cat	-5093
▁cau	-5094
▁cel	-5095
▁cha	-5096
▁coe	-5097
▁col	-5098
▁com	-5099
58	-5100
91	-5101
AL	-5102
LA	-5103
Ni	-5104
Py	-5105
Si	-5106
St	-5107
Sy	-5108
TU	-5109
Tw	-5110
_(	-5111
ax	-5112
br	-5113
cl	-5114
ee	-5115
ei	-5116
iq	-5117
iu	-5118
je	-5119
ju	-5120
ka	-5121
ki	-5122
lt	-5123
nj	-5124
oj	-5125
rb	-5126
rt	-5127
rw	-5128
sp	-5129
xc	-5130
xe	-5131
ye	-5132
yi	-5133
ym	-5134
ze	-5135
~9	-5136
±4	-5137
단일	-5138
도와	-5139
동일	-5140
루는	-5141
릴까	-5142
마는	-5143
명상	-5144
무엇	-5145
수도	-5146
수치	-5147
엇을	-5148
영어	-5149
완전	-5150
웜홀	-5151
이카	-5152
일상	-5153
입니	-5154
자각	-5155
충격	-5156
탐구	-5157
헨지	-5158
홀는	-5159
ERS	-5160
ane	-5161
arv	-5162
dle	-5163
erv	-5164
hou	-5165
idu	-5166
lob	-5167
mat	-5168
smo	-5169
too	-5170
±4.	-5171
▁aw	-5172
▁cu	-5173
▁gl	-5174
▁ra	-5175
▁감사	-5176
)=1.	-5177
2.5%	-5178
307→	-5179
SNES	-5180
metr	-5181
uous	-5182
▁(17	-5183
▁2.5	-5184
▁coo	-5185
▁cor	-5186
▁cri	-5187
▁dai	-5188
▁dat	-5189
▁deb	-5190
▁dep	-5191
▁der	-5192
▁dic	-5193
▁dif	-5194
▁dil	-5195
▁dis	-5196
▁div	-5197
▁doc	-5198
▁dom	-5199
18	-5200
21	-5201
22	-5202
89	-5203
95	-5204
<6	-5205
BE	-5206
db	-5207
js	-5208
ps	-5209
rf	-5210
rl	-5211
sn	-5212
wk	-5213
▁u	-5214
▁우	-5215
▁추	-5216
감사	-5217
값을	-5218
깨달	-5219
답하	-5220
대나	-5221
드림	-5222
루시	-5223
림는	-5224
림의	-5225
모두	-5226
모든	-5227
반복	-5228
발견	-5229
뱅는	-5230
뱅의	-5231
분화	-5232
불는	-5233
빅크	-5234
시는	-5235
시드	-5236
시입	-5237
식는	-5238
식은	-5239
실시	-5240
외의	-5241
자기	-5242
전체	-5243
정체	-5244
좋은	-5245
주는	-5246
중력	-5247
질는	-5248
타자	-5249
통합	-5250
트로	-5251
평온	-5252
피사	-5253
해리	-5254
해파	-5255
홀은	-5256
🛸5	-5257
47)	-5258
alw	-5259
dim	-5260
ges	-5261
ina	-5262
kin	-5263
rev	-5264
sit	-5265
tia	-5266
tto	-5267
▁양귀	-5268
거움는	-5269
100)	-5270
100,	-5271
9...	-5272
ceiv	-5273
ompe	-5274
ques	-5275
tima	-5276
tore	-5277
▁bac	-5278
▁cou	-5279
▁dre	-5280
▁dro	-5281
▁dyn	-5282
▁ear	-5283
▁emo	-5284
▁ent	-5285
▁exi	-5286
▁exp	-5287
▁fac	-5288
▁fir	-5289
▁fix	-5290
▁fli	-5291
▁fra	-5292
▁fre	-5293
▁fro	-5294
▁gen	-5295
▁har	-5296
▁hid	-5297
▁hig	-5298
▁hyp	-5299
+2	-5300
.1	-5301
08	-5302
09	-5303
5-	-5304
50	-5305
88	-5306
An	-5307
CI	-5308
DN	-5309
Di	-5310
Do	-5311
Fe	-5312
Ke	-5313
NE	-5314
Na	-5315
Pr	-5316
Ru	-5317
Sm	-5318
ih	-5319
rh	-5320
tc	-5321
vs	-5322
∞,	-5323
감칠	-5324
계산	-5325
공는	-5326
구조	-5327
귀는	-5328
그리	-5329
기도	-5330
까치	-5331
꿈는	-5332
나비	-5333
녹아	-5334
단맛	-5335
래노	-5336
래는	-5337
로메	-5338
로필	-5339
멸는	-5340
모릅	-5341
문어	-5342
미는	-5343
분재	-5344
쁨는	-5345
사각	-5346
선이	-5347
수라	-5348
시공	-5349
애는	-5350
움는	-5351
적는	-5352
제는	-5353
트는	-5354
하지	-5355
형는	-5356
.2%	-5357
Gas	-5358
HIP	-5359
abi	-5360
eng	-5361
ert	-5362
hig	-5363
ial	-5364
min	-5365
nes	-5366
onf	-5367
rac	-5368
vin	-5369
ysi	-5370
zes	-5371
▁cy	-5372
▁기도	-5373
리트는	-5374
마귀는	-5375
20-5	-5376
=(1/	-5377
=0.4	-5378
arts	-5379
into	-5380
nity	-5381
rces	-5382
yner	-5383
▁+13	-5384
▁ind	-5385
▁ine	-5386
▁inf	-5387
▁ini	-5388
▁inj	-5389
▁inp	-5390
▁inv	-5391
▁lab	-5392
▁lac	-5393
▁lar	-5394
▁lat	-5395
▁loo	-5396
▁luc	-5397
▁man	-5398
▁max	-5399
40	-5400
5/	-5401
Pe	-5402
nl	-5403
ub	-5404
겠습	-5405
계수	-5406
놀람	-5407
늑대	-5408
능력	-5409
다이	-5410
답합	-5411
데자	-5412
도메	-5413
독립	-5414
독버	-5415
돌고	-5416
동굴	-5417
동료	-5418
록는	-5419
리겠	-5420
리자	-5421
매는	-5422
매운	-5423
모나	-5424
모스	-5425
모자	-5426
무지	-5427
반가	-5428
밤는	-5429
벽화	-5430
보라	-5431
분노	-5432
사랑	-5433
삼매	-5434
생애	-5435
서예	-5436
선인	-5437
선정	-5438
섯는	-5439
세계	-5440
소음	-5441
어줘	-5442
예는	-5443
운맛	-5444
이별	-5445
이아	-5446
자뷔	-5447
정보	-5448
조는	-5449
지경	-5450
짜줘	-5451
최소	-5452
타우	-5453
태극	-5454
파는	-5455
파문	-5456
Don	-5457
atc	-5458
ema	-5459
enh	-5460
fir	-5461
hil	-5462
mpi	-5463
off	-5464
ois	-5465
rti	-5466
▁Bu	-5467
나리자	-5468
우주배	-5469
크리트	-5470
파랑는	-5471
78).	-5472
acto	-5473
adma	-5474
aver	-5475
erma	-5476
king	-5477
mati	-5478
read	-5479
tosi	-5480
▁min	-5481
▁mod	-5482
▁mon	-5483
▁mut	-5484
▁nat	-5485
▁neg	-5486
▁nir	-5487
▁noi	-5488
▁nor	-5489
▁oft	-5490
▁ori	-5491
▁pan	-5492
▁pea	-5493
▁phy	-5494
▁ran	-5495
▁rec	-5496
▁rep	-5497
▁req	-5498
▁res	-5499
CE	-5500
La	-5501
kt	-5502
▁철	-5503
간는	-5504
규는	-5505
금색	-5506
단순	-5507
로보	-5508
루스	-5509
류는	-5510
르가	-5511
모래	-5512
벌는	-5513
별는	-5514
본어	-5515
사체	-5516
수화	-5517
순간	-5518
슬픔	-5519
습니	-5520
승는	-5521
시지	-5522
신맛	-5523
실존	-5524
심신	-5525
아랍	-5526
악는	-5527
안녕	-5528
암흑	-5529
어떻	-5530
어서	-5531
에포	-5532
오르	-5533
옴는	-5534
유레	-5535
의지	-5536
이끼	-5537
일본	-5538
임사	-5539
있음	-5540
자세	-5541
자유	-5542
작성	-5543
장미	-5544
전자	-5545
점균	-5546
점자	-5547
종이	-5548
좋아	-5549
중국	-5550
즐거	-5551
지는	-5552
처리	-5553
처음	-5554
카는	-5555
포함	-5556
픔는	-5557
해골	-5558
흑물	-5559
0):	-5560
66,	-5561
80.	-5562
89,	-5563
Ran	-5564
del	-5565
erh	-5566
isc	-5567
lic	-5568
orc	-5569
sma	-5570
▁90	-5571
▁da	-5572
▁중력	-5573
▁중입	-5574
각형는	-5575
칠맛는	-5576
4.33	-5577
ling	-5578
ousn	-5579
rati	-5580
reat	-5581
uent	-5582
urth	-5583
▁(1.	-5584
▁ret	-5585
▁rou	-5586
▁sco	-5587
▁see	-5588
▁sen	-5589
▁shr	-5590
▁sin	-5591
▁sma	-5592
▁spl	-5593
▁sta	-5594
▁ste	-5595
▁sti	-5596
▁tab	-5597
▁tog	-5598
▁tot	-5599
')	-5600
(6	-5601
(7	-5602
.9	-5603
05	-5604
36	-5605
Co	-5606
dl	-5607
kh	-5608
od	-5609
oh	-5610
끈는	-5611
날씨	-5612
누구	-5613
는밤	-5614
도라	-5615
두는	-5616
래식	-5617
랜스	-5618
빛나	-5619
산는	-5620
역할	-5621
연인	-5622
우는	-5623
우스	-5624
지질	-5625
질문	-5626
질투	-5627
찰나	-5628
초록	-5629
친구	-5630
카르	-5631
퀄리	-5632
클래	-5633
탈는	-5634
테우	-5635
통증	-5636
트랜	-5637
프로	-5638
플로	-5639
필요	-5640
한가	-5641
한한	-5642
해바	-5643
35,	-5644
Hal	-5645
SOL	-5646
Sin	-5647
cin	-5648
dig	-5649
dul	-5650
ern	-5651
gan	-5652
lat	-5653
nat	-5654
nti	-5655
win	-5656
wis	-5657
▁Ev	-5658
▁te	-5659
▁데이	-5660
▁이카	-5661
▁통증	-5662
판소리	-5663
힘들어	-5664
aniz	-5665
arad	-5666
back	-5667
eani	-5668
ewar	-5669
ffec	-5670
memo	-5671
mple	-5672
nfor	-5673
ogic	-5674
ousl	-5675
redi	-5676
scre	-5677
syst	-5678
▁cro	-5679
▁inc	-5680
▁mar	-5681
▁tra	-5682
▁tre	-5683
▁und	-5684
▁val	-5685
▁var	-5686
▁voc	-5687
▁whi	-5688
▁win	-5689
▁wor	-5690
▁±4.	-5691
▁고래노	-5692
▁그리움	-5693
▁독버섯	-5694
▁만들어	-5695
▁무아지	-5696
▁무엇이	-5697
▁반가워	-5698
▁스톤헨	-5699
(~	-5700
)=	-5701
03	-5702
17	-5703
86	-5704
96	-5705
Cr	-5706
JS	-5707
LO	-5708
NO	-5709
_0	-5710
be	-5711
nf	-5712
py	-5713
sL	-5714
~1	-5715
~7	-5716
검증	-5717
기쁨	-5718
끈은	-5719
나이	-5720
너는	-5721
노는	-5722
달음	-5723
답이	-5724
도움	-5725
드를	-5726
드립	-5727
드입	-5728
래스	-5729
로가	-5730
름이	-5731
립니	-5732
만들	-5733
백색	-5734
보장	-5735
부재	-5736
설계	-5737
성은	-5738
소개	-5739
씨는	-5740
아침	-5741
알지	-5742
어때	-5743
어떤	-5744
엇이	-5745
오세	-5746
이름	-5747
이식	-5748
이에	-5749
이지	-5750
적용	-5751
적이	-5752
주뇌	-5753
지내	-5754
질은	-5755
찮아	-5756
체계	-5757
편해	-5758
🛸3	-5759
3.9	-5760
7).	-5761
ale	-5762
ben	-5763
enc	-5764
ics	-5765
idd	-5766
tru	-5767
typ	-5768
uli	-5769
▁52	-5770
▁72	-5771
▁dy	-5772
▁검은	-5773
▁반복	-5774
▁블랙	-5775
▁플로	-5776
귀비는	-5777
diti	-5778
gnal	-5779
lack	-5780
ting	-5781
▁ani	-5782
▁cen	-5783
▁cos	-5784
▁gro	-5785
▁안녕하	-5786
▁양자얽	-5787
▁양자중	-5788
▁우주뇌	-5789
▁우주배	-5790
▁우주시	-5791
▁유레카	-5792
▁응답하	-5793
▁의식상	-5794
▁자기참	-5795
▁자유의	-5796
▁저녁이	-5797
▁점균류	-5798
▁카르마	-5799
+3	-5800
0?	-5801
9×	-5802
Op	-5803
Ps	-5804
ag	-5805
ld	-5806
ms	-5807
pa	-5808
xt	-5809
~2	-5810
▁합	-5811
녁이	-5812
뭐야	-5813
바로	-5814
워요	-5815
힘들	-5816
6.7	-5817
Haw	-5818
JSO	-5819
Sec	-5820
Sma	-5821
are	-5822
att	-5823
con	-5824
cti	-5825
dma	-5826
eld	-5827
eti	-5828
fre	-5829
han	-5830
inf	-5831
inp	-5832
lan	-5833
law	-5834
lon	-5835
mai	-5836
mar	-5837
max	-5838
nan	-5839
non	-5840
oma	-5841
ona	-5842
ons	-5843
ore	-5844
pan	-5845
pre	-5846
pti	-5847
rea	-5848
riu	-5849
rma	-5850
tan	-5851
tin	-5852
tiv	-5853
tre	-5854
xed	-5855
zon	-5856
▁(0	-5857
▁13	-5858
▁ca	-5859
▁ce	-5860
▁ch	-5861
▁ha	-5862
▁sc	-5863
▁누구	-5864
▁이끼	-5865
▁해바	-5866
우주시	-5867
인장는	-5868
중우주	-5869
지도는	-5870
-0.5	-5871
76),	-5872
anin	-5873
anis	-5874
gani	-5875
ible	-5876
onan	-5877
onti	-5878
veri	-5879
▁+6.	-5880
▁ano	-5881
▁can	-5882
▁프랙탈	-5883
▁프로메	-5884
▁플로우	-5885
▁함수라	-5886
▁🛸30	-5887
▁🛸50	-5888
▁🛸90	-5889
경복사는	-5890
굴벽화는	-5891
나는밤는	-5892
나리자는	-5893
노타우로	-5894
뇌지도는	-5895
뇌지도에	-5896
능합니다	-5897
답합니다	-5898
대이집트	-5899
(3	-5900
/2	-5901
12	-5902
3)	-5903
AC	-5904
UR	-5905
cc	-5906
lu	-5907
≈0	-5908
경멸	-5909
공포	-5910
다중	-5911
온합	-5912
이집	-5913
코드	-5914
프스	-5915
Des	-5916
Lin	-5917
ato	-5918
bin	-5919
cto	-5920
den	-5921
dis	-5922
erf	-5923
eri	-5924
ers	-5925
fin	-5926
hes	-5927
ien	-5928
inj	-5929
inv	-5930
ker	-5931
men	-5932
pen	-5933
sca	-5934
sen	-5935
ser	-5936
sin	-5937
tes	-5938
tit	-5939
uen	-5940
ues	-5941
utr	-5942
▁ef	-5943
▁eq	-5944
중국어	-5945
21),	-5946
Laws	-5947
iolo	-5948
main	-5949
onsc	-5950
thes	-5951
tier	-5952
▁sou	-5953
▁syn	-5954
델브로는	-5955
드드림는	-5956
드드림의	-5957
드입니다	-5958
로피사는	-5959
록입니다	-5960
메테우스	-5961
바라기는	-5962
배경복사	-5963
보로스는	-5964
색소음는	-5965
스크리트	-5966
스터시는	-5967
스터시의	-5968
시입니다	-5969
아지경는	-5970
온합니다	-5971
요한가요	-5972
우로보로	-5973
우로스는	-5974
유의지는	-5975
은사각형	-5976
이빛나는	-5977
이접기는	-5978
지소리는	-5979
지프스는	-5980
질시대는	-5981
침입니다	-5982
카루스는	-5983
크런치는	-5984
편합니다	-5985
한국어는	-5986
한국어로	-5987
한국어의	-5988
함수에서	-5989
-0.2%	-5990
-71%:	-5991
0.516	-5992
1.2%)	-5993
23.9%	-5994
3.038	-5995
32-48	-5996
4/248	-5997
5)=1.	-5998
73-76	-5999
8-128	-6000
9.86.	-6001
=-0.4	-6002
=-0.6	-6003
=0.0%	-6004
=0.00	-6005
=0.15	-6006
=0.48	-6007
=0.78	-6008
=1.4%	-6009
=2.5%	-6010
=6.78	-6011
Johns	-6012
NSCIO	-6013
RUCTU	-6014
SNESS	-6015
TRACT	-6016
Unity	-6017
abels	-6018
ackho	-6019
actor	-6020
admap	-6021
aging	-6022
ality	-6023
aming	-6024
ances	-6025
anpsy	-6026
apper	-6027
arasi	-6028
argin	-6029
arian	-6030
aring	-6031
arity	-6032
armon	-6033
arrow	-6034
ativi	-6035
ators	-6036
atter	-6037
ature	-6038
ausal	-6039
auses	-6040
caliz	-6041
calle	-6042
chani	-6043
chism	-6044
chors	-6045
coupl	-6046
cover	-6047
cryst	-6048
ctive	-6049
denti	-6050
diver	-6051
eaken	-6052
eaker	-6053
ecays	-6054
ecome	-6055
econd	-6056
ectly	-6057
egati	-6058
egrat	-6059
eline	-6060
emocr	-6061
emper	-6062
empor	-6063
energ	-6064
engin	-6065
entic	-6066
entro	-6067
erent	-6068
erfor	-6069
ergis	-6070
ering	-6071
ermal	-6072
ertur	-6073
erves	-6074
esili	-6075
esses	-6076
estro	-6077
eterm	-6078
etter	-6079
eward	-6080
ffect	-6081
ffici	-6082
frust	-6083
ggreg	-6084
gical	-6085
gines	-6086
gthen	-6087
hance	-6088
hared	-6089
hical	-6090
horiz	-6091
hysic	-6092
iance	-6093
icien	-6094
idden	-6095
idire	-6096
ience	-6097
ierar	-6098
ility	-6099
ilter	-6100
inant	-6101
inate	-6102
inden	-6103
ingul	-6104
inimu	-6105
inish	-6106
insic	-6107
invar	-6108
iolog	-6109
ision	-6110
istor	-6111
ithou	-6112
ition	-6113
ivers	-6114
lator	-6115
libri	-6116
lient	-6117
liqui	-6118
llest	-6119
lobal	-6120
locks	-6121
losop	-6122
meani	-6123
meost	-6124
mical	-6125
micro	-6126
minis	-6127
mooth	-6128
mpire	-6129
mpres	-6130
ntion	-6131
nuous	-6132
obser	-6133
olith	-6134
olute	-6135
onver	-6136
order	-6137
orker	-6138
osity	-6139
osmic	-6140
othes	-6141
otion	-6142
ounts	-6143
ouped	-6144
oupth	-6145
overs	-6146
owled	-6147
ownst	-6148
pable	-6149
perad	-6150
philo	-6151
pling	-6152
ppres	-6153
press	-6154
ptimu	-6155
quent	-6156
quist	-6157
rains	-6158
raliz	-6159
ratic	-6160
reate	-6161
reati	-6162
reduc	-6163
relat	-6164
rence	-6165
renti	-6166
reser	-6167
rever	-6168
ribut	-6169
rinci	-6170
rives	-6171
roper	-6172
rosso	-6173
rowth	-6174
sciou	-6175
scove	-6176
sions	-6177
sitic	-6178
ssion	-6179
stati	-6180
stere	-6181
strau	-6182
stren	-6183
symme	-6184
syste	-6185
table	-6186
tachm	-6187
tator	-6188
tends	-6189
terns	-6190
thing	-6191
timum	-6192
tiona	-6193
tions	-6194
topol	-6195
tores	-6196
tosis	-6197
track	-6198
trivi	-6199
truct	-6200
turns	-6201
types	-6202
uaran	-6203
uctur	-6204
uddhi	-6205
uning	-6206
urren	-6207
usion	-6208
utral	-6209
valan	-6210
velop	-6211
verag	-6212
verhe	-6213
versi	-6214
vival	-6215
vives	-6216
ximiz	-6217
ycles	-6218
ystem	-6219
→0.00	-6220
▁(+0.	-6221
▁(0.9	-6222
▁(2.9	-6223
▁(20-	-6224
▁+11.	-6225
▁+12.	-6226
▁+17.	-6227
▁+19.	-6228
▁+3-7	-6229
▁1.27	-6230
▁1.30	-6231
▁1.82	-6232
▁1.87	-6233
▁1.88	-6234
▁1.89	-6235
▁1.91	-6236
▁1.94	-6237
▁1.95	-6238
▁2.01	-6239
▁2.03	-6240
▁2.06	-6241
▁2.08	-6242
▁2.11	-6243
▁2.14	-6244
▁2.18	-6245
▁2.55	-6246
▁2.60	-6247
▁2.66	-6248
▁73-7	-6249
▁8500	-6250
▁Aver	-6251
▁Evol	-6252
▁INTE	-6253
▁Mark	-6254
▁Mito	-6255
▁Nihi	-6256
▁Para	-6257
▁Pyth	-6258
▁REDU	-6259
▁Rand	-6260
▁Resi	-6261
▁acro	-6262
▁almo	-6263
▁alon	-6264
▁anal	-6265
▁anch	-6266
▁attr	-6267
▁aver	-6268
▁back	-6269
▁bene	-6270
▁betw	-6271
▁boun	-6272
▁cann	-6273
▁cent	-6274
▁cont	-6275
▁cool	-6276
▁deat	-6277
▁deca	-6278
▁demo	-6279
▁deve	-6280
▁diss	-6281
▁dist	-6282
▁divi	-6283
▁doma	-6284
▁drop	-6285
▁dyna	-6286
▁ecol	-6287
▁enti	-6288
▁equi	-6289
▁ever	-6290
▁evol	-6291
▁feed	-6292
▁forc	-6293
▁hell	-6294
▁hidd	-6295
▁indi	-6296
▁inst	-6297
▁inte	-6298
▁intr	-6299
▁lang	-6300
▁lead	-6301
▁loos	-6302
▁luci	-6303
▁matr	-6304
▁meas	-6305
▁memo	-6306
▁mito	-6307
▁modu	-6308
▁mole	-6309
▁nati	-6310
▁need	-6311
▁nois	-6312
▁opti	-6313
▁osci	-6314
▁pair	-6315
▁panp	-6316
▁para	-6317
▁peac	-6318
▁perf	-6319
▁poin	-6320
▁prod	-6321
▁prof	-6322
▁proj	-6323
▁prox	-6324
▁rath	-6325
▁remo	-6326
▁roun	-6327
▁seve	-6328
▁shap	-6329
▁simu	-6330
▁sing	-6331
▁spar	-6332
▁spec	-6333
▁stab	-6334
▁stat	-6335
▁step	-6336
▁surf	-6337
▁surp	-6338
▁trad	-6339
▁tran	-6340
▁tren	-6341
▁unif	-6342
▁wind	-6343
▁yiel	-6344
▁고래노래	-6345
▁도와드립	-6346
▁루시드드	-6347
▁심신문제	-6348
▁양자중첩	-6349
▁임사체험	-6350
▁프로메테	-6351
▁🛸50~	-6352
▁🛸90~	-6353
대이집트는	-6354
래만다라는	-6355
리겠습니다	-6356
메테우스는	-6357
배경복사는	-6358
뵙겠습니다	-6359
엑스터시는	-6360
엑스터시의	-6361
이빛나는밤	-6362
정적이에요	-6363
톤헨지소리	-6364
0.516)	-6365
0.52):	-6366
0.5257	-6367
20-50)	-6368
23.9%)	-6369
=-0.61	-6370
=0.158	-6371
=0.525	-6372
=3.038	-6373
ATIONS	-6374
Consci	-6375
Correl	-6376
IVERSE	-6377
LATION	-6378
Linden	-6379
RATION	-6380
TRUCTU	-6381
TTRACT	-6382
USNESS	-6383
ableto	-6384
active	-6385
anager	-6386
anized	-6387
apable	-6388
archit	-6389
armful	-6390
armony	-6391
ategor	-6392
awking	-6393
babili	-6394
bation	-6395
bution	-6396
cality	-6397
cation	-6398
change	-6399
consci	-6400
covers	-6401
covery	-6402
cratic	-6403
ctator	-6404
depend	-6405
dering	-6406
discre	-6407
ditive	-6408
ebbian	-6409
ecture	-6410
egrate	-6411
endent	-6412
ention	-6413
entrop	-6414
epends	-6415
erases	-6416
erates	-6417
erence	-6418
erenti	-6419
erging	-6420
estruc	-6421
fectly	-6422
ffects	-6423
fferen	-6424
gation	-6425
gether	-6426
haotic	-6427
hypoth	-6428
iation	-6429
icient	-6430
ierarc	-6431
inglet	-6432
inimiz	-6433
inkage	-6434
irvana	-6435
istory	-6436
lation	-6437
llapse	-6438
losure	-6439
mation	-6440
mbined	-6441
mmetry	-6442
mocrac	-6443
mogene	-6444
mulate	-6445
nating	-6446
nesses	-6447
nforma	-6448
ogical	-6449
oldilo	-6450
omeost	-6451
onance	-6452
onging	-6453
oundar	-6454
oupled	-6455
ources	-6456
outper	-6457
perfor	-6458
plitti	-6459
ptimal	-6460
qualiz	-6461
quency	-6462
quests	-6463
ragile	-6464
rapper	-6465
ration	-6466
rative	-6467
reases	-6468
resent	-6469
revent	-6470
rincip	-6471
robust	-6472
rrever	-6473
scales	-6474
scious	-6475
sition	-6476
sitive	-6477
ssible	-6478
stable	-6479
static	-6480
stence	-6481
stream	-6482
tabili	-6483
tation	-6484
tional	-6485
tivity	-6486
tructu	-6487
ucible	-6488
urther	-6489
vative	-6490
verges	-6491
verifi	-6492
versel	-6493
viable	-6494
vidual	-6495
ynergy	-6496
zation	-6497
▁(+0.0	-6498
▁(+24.	-6499
▁(-0.0	-6500
▁(0.30	-6501
▁(2.84	-6502
▁(3.53	-6503
▁(6.78	-6504
▁1.212	-6505
▁Coupl	-6506
▁Desti	-6507
▁Emerg	-6508
▁Heati	-6509
▁MAXIM	-6510
▁Marko	-6511
▁Match	-6512
▁Mathe	-6513
▁Obser	-6514
▁Parad	-6515
▁Persi	-6516
▁alter	-6517
▁ampli	-6518
▁anoth	-6519
▁barel	-6520
▁betwe	-6521
▁black	-6522
▁blend	-6523
▁boost	-6524
▁coexi	-6525
▁confl	-6526
▁conti	-6527
▁coupl	-6528
▁curio	-6529
▁devel	-6530
▁dilut	-6531
▁dimin	-6532
▁diver	-6533
▁exper	-6534
▁exter	-6535
▁feedb	-6536
▁immor	-6537
▁impor	-6538
▁impro	-6539
▁inevi	-6540
▁infor	-6541
▁initi	-6542
▁integ	-6543
▁invar	-6544
▁inver	-6545
▁langu	-6546
▁meani	-6547
▁measu	-6548
▁memor	-6549
▁molec	-6550
▁natur	-6551
▁noisi	-6552
▁parad	-6553
▁perio	-6554
▁press	-6555
▁provi	-6556
▁ratch	-6557
▁recal	-6558
▁recei	-6559
▁reduc	-6560
▁requi	-6561
▁resto	-6562
▁routi	-6563
▁sensi	-6564
▁stair	-6565
▁stimu	-6566
▁stren	-6567
▁stron	-6568
▁subli	-6569
▁subst	-6570
▁surpr	-6571
▁table	-6572
▁unidi	-6573
▁uniqu	-6574
▁도와드릴게	-6575
▁도와드릴까	-6576
톤헨지소리는	-6577
0.5257)	-6578
20-24),	-6579
204/248	-6580
ATIONSH	-6581
CONSCIO	-6582
Emotion	-6583
Faction	-6584
GRATION	-6585
▁	-6586
a	-6587
e	-6588
i	-6589
n	-6590
o	-6591
t	-6592
s	-6593
r	-6594
c	-6595
.	-6596
m	-6597
l	-6598
1	-6599
우	-6600
주	-6601
지	-6602
도	-6603
뇌	-6604
0	-6605
d	-6606
u	-6607
p	-6608
,	-6609
[	-6610
]	-6611
w	-6612
:	-6613
2	-6614
는	-6615
h	-6616
v	-6617
g	-6618
7	-6619
y	-6620
5	-6621
L	-6622
-	-6623
어	-6624
(	-6625
f	-6626
리	-6627
줘	-6628
)	-6629
고	-6630
법	-6631
칙	-6632
카	-6633
테	-6634
3	-6635
b	-6636
🛸	-6637
8	-6638
자	-6639
의	-6640
_	-6641
6	-6642
알	-6643
려	-6644
A	-6645
4	-6646
T	-6647
=	-6648
한	-6649
국	-6650
로	-6651
9	-6652
정	-6653
C	-6654
해	-6655
디	-6656
세	-6657
D	-6658
수	-6659
이	-6660
?	-6661
설	-6662
명	-6663
히	-6664
%	-6665
점	-6666
k	-6667
—	-6668
식	-6669
평	-6670
P	-6671
균	-6672
M	-6673
하	-6674
+	-6675
S	-6676
나	-6677
Φ	-6678
중	-6679
야	-6680
뭐	-6681
은	-6682
번	-6683
극	-6684
x	-6685
'	-6686
E	-6687
/	-6688
N	-6689
다	-6690
예	-6691
상	-6692
스	-6693
시	-6694
O	-6695
니	-6696
R	-6697
I	-6698
합	-6699
태	-6700
경	-6701
물	-6702
q	-6703
감	-6704
모	-6705
트	-6706
H	-6707
X	-6708
j	-6709
z	-6710
에	-6711
간	-6712
험	-6713
서	-6714
가	-6715
음	-6716
소	-6717
화	-6718
×	-6719
동	-6720
드	-6721
U	-6722
요	-6723
텍	-6724
미	-6725
→	-6726
계	-6727
무	-6728
사	-6729
위	-6730
입	-6731
치	-6732
>	-6733
V	-6734
아	-6735
빅	-6736
각	-6737
신	-6738
루	-6739
K	-6740
기	-6741
분	-6742
색	-6743
뱅	-6744
<	-6745
능	-6746
대	-6747
맛	-6748
술	-6749
철	-6750
추	-6751
학	-6752
B	-6753
관	-6754
래	-6755
깔	-6756
노	-6757
떤	-6758
체	-6759
;	-6760
네	-6761
답	-6762
라	-6763
랑	-6764
메	-6765
저	-6766
타	-6767
≈	-6768
있	-6769
파	-6770
G	-6771
반	-6772
양	-6773
응	-6774
일	-6775
질	-6776
홀	-6777
Ψ	-6778
구	-6779
랙	-6780
보	-6781
전	-6782
터	-6783
통	-6784
공	-6785
림	-6786
만	-6787
문	-6788
블	-6789
산	-6790
안	-6791
열	-6792
오	-6793
와	-6794
조	-6795
죽	-6796
F	-6797
~	-6798
까	-6799
선	-6800
인	-6801
재	-6802
적	-6803
프	-6804
함	-6805
검	-6806
단	-6807
록	-6808
엇	-6809
장	-6810
초	-6811
포	-6812
≠	-6813
값	-6814
귀	-6815
꽃	-6816
녕	-6817
력	-6818
마	-6819
매	-6820
별	-6821
비	-6822
성	-6823
엑	-6824
연	-6825
외	-6826
절	-6827
최	-6828
코	-6829
크	-6830
두	-6831
실	-6832
영	-6833
움	-6834
을	-6835
존	-6836
좋	-6837
힘	-6838
내	-6839
데	-6840
르	-6841
릴	-6842
복	-6843
불	-6844
습	-6845
심	-6846
암	-6847
얽	-6848
엔	-6849
역	-6850
유	-6851
판	-6852
피	-6853
흑	-6854
J	-6855
너	-6856
몽	-6857
순	-6858
슬	-6859
용	-6860
칠	-6861
클	-6862
할	-6863
±	-6864
ε	-6865
π	-6866
φ	-6867
∞	-6868
강	-6869
거	-6870
겠	-6871
격	-6872
규	-6873
깨	-6874
꿈	-6875
끈	-6876
녹	-6877
달	-6878
독	-6879
돌	-6880
랍	-6881
런	-6882
료	-6883
멸	-6884
밤	-6885
배	-6886
벚	-6887
본	-6888
빛	-6889
빨	-6890
쁨	-6891
삼	-6892
생	-6893
승	-6894
쓴	-6895
악	-6896
애	-6897
온	-6898
완	-6899
운	-6900
울	-6901
웃	-6902
웜	-6903
즈	-6904
즐	-6905
즘	-6906
찰	-6907
처	-6908
첫	-6909
출	-6910
충	-6911
친	-6912
케	-6913
퀄	-6914
톤	-6915
픔	-6916
필	-6917
헨	-6918
형	-6919
★	-6920
개	-6921
게	-6922
견	-6923
금	-6924
끝	-6925
날	-6926
늘	-6927
델	-6928
든	-6929
때	-6930
립	-6931
바	-6932
발	-6933
부	-6934
워	-6935
원	-6936
잘	-6937
제	-6938
증	-6939
짜	-6940
∀	-6941
∈	-6942
골	-6943
괜	-6944
굴	-6945
그	-6946
끼	-6947
낯	-6948
녁	-6949
년	-6950
놀	-6951
누	-6952
눈	-6953
늑	-6954
들	-6955
떻	-6956
람	-6957
랜	-6958
레	-6959
렘	-6960
류	-6961
를	-6962
름	-6963
릅	-6964
받	-6965
백	-6966
버	-6967
벌	-6968
벽	-6969
뵙	-6970
뷔	-6971
브	-6972
섯	-6973
씨	-6974
억	-6975
옴	-6976
윤	-6977
임	-6978
작	-6979
접	-6980
종	-6981
집	-6982
짤	-6983
찮	-6984
참	-6985
첩	-6986
침	-6987
탈	-6988
탐	-6989
투	-6990
편	-6991
플	-6992
